{
  "version": "1.0",
  "truncation": null,
  "padding": null,
  "added_tokens": [],
  "normalizer": null,
  "pre_tokenizer": {
    "type": "ByteLevel",
    "add_prefix_space": false,
    "trim_offsets": true,
    "use_regex": true
  },
  "post_processor": {
    "type": "ByteLevel",
    "add_prefix_space": true,
    "trim_offsets": false,
    "use_regex": true
  },
  "decoder": {
    "type": "ByteLevel",
    "add_prefix_space": true,
    "trim_offsets": true,
    "use_regex": true
  },
  "model": {
    "type": "BPE",
    "dropout": null,
    "unk_token": null,
    "continuing_subword_prefix": null,
    "end_of_word_suffix": null,
    "fuse_unk": false,
    "byte_fallback": false,
    "ignore_merges": false,
    "vocab": {
      "\u0000": 0,
      "\u0001": 1,
      "\u0002": 2,
      "\u0003": 3,
      "\u0004": 4,
      "\u0005": 5,
      "\u0006": 6,
      "\u0007": 7,
      "\b": 8,
      "\t": 9,
      "\n": 10,
      "\u000b": 11,
      "\f": 12,
      "\r": 13,
      "\u000e": 14,
      "\u000f": 15,
      "\u0010": 16,
      "\u0011": 17,
      "\u0012": 18,
      "\u0013": 19,
      "\u0014": 20,
      "\u0015": 21,
      "\u0016": 22,
      "\u0017": 23,
      "\u0018": 24,
      "\u0019": 25,
      "\u001a": 26,
      "\u001b": 27,
      "\u001c": 28,
      "\u001d": 29,
      "\u001e": 30,
      "\u001f": 31,
      " ": 32,
      "!": 33,
      "\"": 34,
      "#": 35,
      "$": 36,
      "%": 37,
      "&": 38,
      "'": 39,
      "(": 40,
      ")": 41,
      "*": 42,
      "+": 43,
      ",": 44,
      "-": 45,
      ".": 46,
      "/": 47,
      "0": 48,
      "1": 49,
      "2": 50,
      "3": 51,
      "4": 52,
      "5": 53,
      "6": 54,
      "7": 55,
      "8": 56,
      "9": 57,
      ":": 58,
      ";": 59,
      "<": 60,
      "=": 61,
      ">": 62,
      "?": 63,
      "@": 64,
      "A": 65,
      "B": 66,
      "C": 67,
      "D": 68,
      "E": 69,
      "F": 70,
      "G": 71,
      "H": 72,
      "I": 73,
      "J": 74,
      "K": 75,
      "L": 76,
      "M": 77,
      "N": 78,
      "O": 79,
      "P": 80,
      "Q": 81,
      "R": 82,
      "S": 83,
      "T": 84,
      "U": 85,
      "V": 86,
      "W": 87,
      "X": 88,
      "Y": 89,
      "Z": 90,
      "[": 91,
      "\\": 92,
      "]": 93,
      "^": 94,
      "_": 95,
      "`": 96,
      "a": 97,
      "b": 98,
      "c": 99,
      "d": 100,
      "e": 101,
      "f": 102,
      "g": 103,
      "h": 104,
      "i": 105,
      "j": 106,
      "k": 107,
      "l": 108,
      "m": 109,
      "n": 110,
      "o": 111,
      "p": 112,
      "q": 113,
      "r": 114,
      "s": 115,
      "t": 116,
      "u": 117,
      "v": 118,
      "w": 119,
      "x": 120,
      "y": 121,
      "z": 122,
      "{": 123,
      "|": 124,
      "}": 125,
      "~": 126,
      "": 127,
      "": 128,
      "": 129,
      "": 130,
      "": 131,
      "": 132,
      "": 133,
      "": 134,
      "": 135,
      "": 136,
      "": 137,
      "": 138,
      "": 139,
      "": 140,
      "": 141,
      "": 142,
      "": 143,
      "": 144,
      "": 145,
      "": 146,
      "": 147,
      "": 148,
      "": 149,
      "": 150,
      "": 151,
      "": 152,
      "": 153,
      "": 154,
      "": 155,
      "": 156,
      "": 157,
      "": 158,
      "": 159,
      " ": 160,
      "¡": 161,
      "¢": 162,
      "£": 163,
      "¤": 164,
      "¥": 165,
      "¦": 166,
      "§": 167,
      "¨": 168,
      "©": 169,
      "ª": 170,
      "«": 171,
      "¬": 172,
      "­": 173,
      "®": 174,
      "¯": 175,
      "°": 176,
      "±": 177,
      "²": 178,
      "³": 179,
      "´": 180,
      "µ": 181,
      "¶": 182,
      "·": 183,
      "¸": 184,
      "¹": 185,
      "º": 186,
      "»": 187,
      "¼": 188,
      "½": 189,
      "¾": 190,
      "¿": 191,
      "À": 192,
      "Á": 193,
      "Â": 194,
      "Ã": 195,
      "Ä": 196,
      "Å": 197,
      "Æ": 198,
      "Ç": 199,
      "È": 200,
      "É": 201,
      "Ê": 202,
      "Ë": 203,
      "Ì": 204,
      "Í": 205,
      "Î": 206,
      "Ï": 207,
      "Ð": 208,
      "Ñ": 209,
      "Ā": 210,
      "ā": 211,
      "Ă": 212,
      "ă": 213,
      "Ą": 214,
      "ą": 215,
      "Ć": 216,
      "ć": 217,
      "Ĉ": 218,
      "ĉ": 219,
      "Ċ": 220,
      "ċ": 221,
      "Č": 222,
      "č": 223,
      "Ď": 224,
      "ď": 225,
      "Đ": 226,
      "đ": 227,
      "Ē": 228,
      "ē": 229,
      "Ĕ": 230,
      "ĕ": 231,
      "Ė": 232,
      "ė": 233,
      "Ę": 234,
      "ę": 235,
      "Ě": 236,
      "ě": 237,
      "Ĝ": 238,
      "ĝ": 239,
      "Ğ": 240,
      "ğ": 241,
      "Ġ": 242,
      "ĩ": 243,
      "Ĭ": 244,
      "ĭ": 245,
      "Į": 246,
      "į": 247,
      "İ": 248,
      "ı": 249,
      "Ĳ": 250,
      "ĳ": 251,
      "Ĵ": 252,
      "ĵ": 253,
      "Ķ": 254,
      "ķ": 255,
      "ĸ": 256,
      "Ĺ": 257,
      "ĺ": 258,
      "Ļ": 259,
      "ļ": 260,
      "ŀ": 261,
      "ł": 262,
      "Âĵ": 263,
      "ÂĵÂĵ": 264,
      "ÂĵÂĵÂĵÂĵ": 265,
      "$$": 266,
      "ÂĵÂĵÂĵÂĵÂĵÂĵÂĵÂĵ": 267,
      "$$$$": 268,
      "ÂĵÂĵÂĵÂĵÂĵÂĵÂĵÂĵÂĵÂĵÂĵÂĵÂĵÂĵÂĵÂĵ": 269,
      "ÂĵÂĵÂĵÂĵÂĵÂĵÂĵÂĵÂĵÂĵÂĵÂĵÂĵÂĵÂĵÂĵÂĵÂĵÂĵÂĵÂĵÂĵÂĵÂĵÂĵÂĵÂĵÂĵÂĵÂĵÂĵÂĵ": 270,
      "$$$$$$": 271,
      "ÂĵÂĵÂĵÂĵÂĵÂĵÂĵÂĵÂĵÂĵÂĵÂĵÂĵÂĵÂĵÂĵÂĵÂĵÂĵÂĵÂĵÂĵÂĵÂĵÂĵÂĵÂĵÂĵÂĵÂĵÂĵÂĵÂĵÂĵÂĵÂĵÂĵÂĵÂĵÂĵÂĵÂĵÂĵÂĵÂĵÂĵÂĵÂĵÂĵÂĵÂĵÂĵÂĵÂĵÂĵÂĵÂĵÂĵÂĵÂĵÂĵÂĵÂĵÂĵ": 272,
      "ÂĵÂ": 273,
      "$$$$$$$$": 274,
      "$$$$$$$": 275,
      "ÂĴ": 276,
      "ÂĶ": 277,
      "Ĕ$": 278,
      "%$": 279,
      "ÂĵÂĵÂĵÂĵÂĵÂĵÂĵÂĵÂĵÂĵÂĵÂĵÂĵÂĵÂĵÂĵÂĵÂĵÂĵÂĵÂĵÂĵÂĵÂĵÂĵÂĵÂĵÂĵÂĵÂĵÂĵÂĵÂĵÂĵÂĵÂĵÂĵÂĵÂĵÂĵÂĵÂĵÂĵÂĵÂĵÂĵÂĵÂĵÂĵÂĵÂĵÂĵÂĵÂĵÂĵÂĵÂĵÂĵÂĵÂĵÂĵÂĵÂĵÂĵÂĵÂĵÂĵÂĵÂĵÂĵÂĵÂĵÂĵÂĵÂĵÂĵÂĵÂĵÂĵÂĵÂĵÂĵÂĵÂĵÂĵÂĵÂĵÂĵÂĵÂĵÂĵÂĵÂĵÂĵÂĵÂĵ": 280,
      "$&": 281,
      "ĕ$": 282,
      "ē$": 283,
      "ÂĵÂĵÂĵÂĵÂĵÂĵ": 284,
      "$$%": 285,
      ":&": 286,
      "#$": 287,
      "ÂĵÂĶ": 288,
      "!$$$$$$": 289,
      "Ē$": 290,
      "ÂĵÂĴ": 291,
      "Ė$": 292,
      "Âķ": 293,
      "Âĳ": 294,
      "đ$": 295,
      "ÂĵÂĵÂĵÂĵÂĵÂĵÂĵÂĵÂĵÂĵÂĵÂĵÂĵÂĵÂĵÂĵÂĵÂĵÂĵÂĵÂĵÂĵÂĵÂĵÂĵÂĵÂĵÂĵÂĵÂĵÂĵÂĵÂĵÂĵÂĵÂĵÂĵÂĵÂĵÂĵÂĵÂĵÂĵÂĵÂĵÂĵÂĵÂĵÂĵÂĵÂĵÂĵÂĵÂĵÂĵÂĵÂĵÂĵÂĵÂĵÂĵÂĵÂĵÂĵÂĵÂĵÂĵÂĵÂĵÂĵÂĵÂĵÂĵÂĵÂĵÂĵÂĵÂĵÂĵÂĵÂĵÂĵÂĵÂĵÂĵÂĵÂĵÂĵÂĵÂĵÂĵÂĵÂĵÂĵÂĵÂĵÂĵÂĵÂĵÂĵÂĵÂĵÂĵÂĵÂĵÂĵÂĵÂĵÂĵÂĵÂĵÂĵ": 296,
      "ÂĵÂĵÂĵÂĵÂĵÂĵÂĵÂĵÂĵÂĵ": 297,
      "$$$$$$$$$$$$$$$$": 298,
      ";-": 299,
      "Ġ<": 300,
      "#;-": 301,
      "27": 302,
      "ė$": 303,
      "'$": 304,
      "#$$%": 305,
      "#$$%#$": 306,
      "Ġ<.": 307,
      "Ę$": 308,
      "Âĸ": 309,
      "ÂĵÂĵÂĵÂĵÂĵÂĵÂĵÂĵÂĵÂĵÂĵÂĵ": 310,
      "ÂĲ": 311,
      "%$$%": 312,
      "%$$%%$": 313,
      "?Ĕ$": 314,
      ">ē$": 315,
      "ÂĴÂĵÂĵ": 316,
      "Đ$": 317,
      "<-": 318,
      "%%": 319,
      "Ė$$": 320,
      "ę$": 321,
      ">Ĕ$": 322,
      "ÂĵÂĳ": 323,
      "ÂĵÂķ": 324,
      "ÂĴÂĶ": 325,
      "$$#;-": 326,
      "/$": 327,
      "&$": 328,
      "<ĕ$": 329,
      "$$#": 330,
      "ÂĵÂĵÂĵ": 331,
      "&/": 332,
      ".$": 333,
      "\"Ě": 334,
      "ÂĵÂĸ": 335,
      "+$": 336,
      "%&": 337,
      "$$$$$$$$$$$$$$$$$$$$$$$$$$$$$$$$": 338,
      "($": 339,
      "ÂĵÂĵÂĵÂĵÂĵÂĵÂ": 340,
      "<Ę": 341,
      ",$": 342,
      "Ġ>": 343,
      "08": 344,
      "*$": 345,
      "\"$": 346,
      "ÂĵÂĲ": 347,
      ")$": 348,
      "ÂĶÂĴ": 349,
      "Ě$": 350,
      "ÂĵÂĵÂĵÂĵÂĵÂĵÂĵÂĵÂĵÂĵÂĵÂĵÂĵÂĵÂĵÂĵÂĵÂĵÂĵÂĵÂĵÂĵÂĵÂĵÂĵÂĵÂĵÂĵÂĵÂĵÂĵÂĵÂĵÂĵÂĵÂĵÂĵÂĵÂĵÂĵÂĵÂĵÂĵÂĵÂĵÂĵÂĵÂĵ": 351,
      "EA": 352,
      "@:": 353,
      "?ē$": 354,
      "-$": 355,
      "%$,": 356,
      "*$$$$$$": 357,
      "@Ē$": 358,
      "02": 359,
      "ÂĵÂĵÂĵÂĵÂĵÂĵÂĵÂĵÂĵÂĵÂĵÂĵÂĵÂĵ": 360,
      "ÂĵÂĵÂĵÂĵÂĵÂĵÂĵÂĵÂĵÂĵÂĵÂĵÂĵÂĵÂĵÂĵÂĵÂĵÂĵÂĵÂĵÂĵÂĵÂĵÂĵÂĵÂĵÂĵÂĵÂĵÂĵÂĵÂĵÂĵÂĵÂĵÂĵÂĵÂĵÂĵÂĵÂĵÂĵÂĵÂĵÂĵÂĵÂĵÂĵÂĵÂĵÂĵÂĵÂĵÂĵÂĵÂĵÂĵÂĵÂĵÂĵÂĵÂĵÂĵÂĵÂĵÂĵÂĵÂĵÂĵÂĵÂĵÂĵÂĵÂĵÂĵÂĵÂĵÂĵÂĵ": 361,
      "ě$": 362,
      "%$%": 363,
      "=/": 364,
      "ÂĵÂĵÂĵÂĵÂĵÂĵÂĵÂĵÂĵÂĵÂĵÂĵÂĵÂĵÂĵÂĵÂĵÂĵÂĵÂĵÂĵÂĵÂĵÂĵÂĵÂĵÂĵÂĵÂĵÂĵÂĵÂĵÂĵÂĵÂĵÂĵÂĵÂĵÂĵÂĵÂĵÂĵÂĵÂĵÂĵÂĵÂĵÂĵÂĵÂĵÂĵÂĵÂĵÂĵÂĵÂĵÂĵÂĵÂĵÂĵÂĵÂĵÂĵÂĵÂĵÂĵÂĵÂĵÂĵÂĵÂĵÂĵÂĵÂĵÂĵÂĵÂĵÂĵÂĵÂĵÂĵÂĵÂĵÂĵÂĵÂĵÂĵÂĵÂĵÂĵÂĵÂĵÂĵÂĵÂĵÂĵÂĵÂĵÂĵÂĵÂĵÂĵÂĵÂĵÂĵÂĵ": 365,
      "$$$$$$$$$$$$": 366,
      "@đ$": 367,
      "ď$": 368,
      "=Ĕ$": 369,
      "Âı": 370,
      ".:": 371,
      "ĝ$": 372,
      "Ĝ$": 373,
      ">ĕ$": 374,
      "ÂĶÂĵÂĵ": 375,
      "Ğ$": 376,
      "?Ē$": 377,
      "Ġ$": 378,
      "$$$$$$$ę": 379,
      "ÂĹ": 380,
      "!$": 381,
      "$$$": 382,
      "$$$$$$$$$$$$$": 383,
      "(?": 384,
      "$$\"": 385,
      "&?": 386,
      "Ġ?": 387,
      "ğ$": 388,
      "@:Ĕ$": 389,
      "-:": 390,
      "Ē%": 391,
      "\"Ě$$$$$$$$": 392,
      "ÂĵÂĵÂĵÂĵÂĵÂĵÂĵÂĵÂĵÂĵÂĵÂĵÂĵÂĵÂĵÂĵÂĵÂĵÂĵÂĵÂĵÂĵÂĵÂĵÂĵÂĵÂĵÂĵÂĵÂĵÂĵÂĵÂĵÂĵÂĵÂĵÂĵÂĵÂĵÂĵÂĵÂĵÂĵÂĵÂĵÂĵÂĵÂĵÂĵÂĵÂĵÂĵÂĵÂĵÂĵÂĵÂĵÂĵÂĵÂĵÂĵÂĵÂĵÂĵÂĵÂĵÂĵÂĵÂĵÂĵÂĵÂĵÂĵÂĵÂĵÂĵÂĵÂĵÂĵÂĵÂĵÂĵÂĵÂĵÂĵÂĵÂĵÂĵÂĵÂĵÂĵÂĵÂĵÂĵÂĵÂĵÂĵÂĵÂĵÂĵÂĵÂĵÂĵÂĵÂĵÂĵÂĵÂĵ": 393,
      "-$$$$$$": 394,
      "(>": 395,
      "$$$$$$$/": 396,
      ">Ĕ": 397,
      "ÂĵÂĵÂĵÂĵÂĵÂĵÂĵÂĵÂĵÂĵÂĵÂĵÂĵÂĵÂĵÂĵÂĵÂĵÂĵÂĵÂĵÂĵÂĵÂĵÂĵÂĵÂĵÂĵÂĵÂĵÂĵÂĵÂĵÂĵÂĵÂĵÂĵÂĵÂĵÂĵÂĵÂĵÂĵÂĵÂĵÂĵÂĵÂĵÂĵÂĵÂĵÂĵÂĵÂĵÂĵÂĵÂĵÂĵÂĵÂĵÂĵÂĵÂĵÂĵÂĵÂĵÂĵÂĵÂĵÂĵÂĵÂĵÂĵÂĵÂĵÂĵÂĵÂĵÂĵÂĵÂĵÂĵÂĵÂĵÂĵÂĵÂĵÂĵÂĵÂĵÂĵÂĵÂĵÂĵÂĵÂĵÂĵÂĵÂĵÂĵ": 398,
      "#&": 399,
      "%$$$$$$": 400,
      "ę$$$$$$$": 401,
      "$$#<-": 402,
      "'>": 403,
      "Ġ2": 404,
      "$%": 405,
      "ÂĵÂĵÂĵÂĵÂĵÂĵÂĵÂĵÂĵÂĵÂĵÂĵÂĵÂĵÂĵÂĵÂĵÂĵÂĵÂĵÂĵÂĵÂĵÂĵÂĵÂĵÂĵÂĵÂĵÂĵÂĵÂĵÂĵÂĵÂĵÂĵÂĵÂĵÂĵÂĵÂĵÂĵÂĵÂĵÂĵÂĵÂĵÂĵÂĵÂĵÂĵÂĵÂĵÂĵÂĵÂĵÂĵÂĵÂĵÂĵÂĵÂĵÂĵÂĵÂĵÂĵÂĵÂĵÂĵÂĵÂĵÂĵÂĵÂĵÂĵÂĵÂĵÂĵÂĵÂĵÂĵÂĵÂĵÂĵÂĵÂĵÂĵÂĵÂĵÂĵÂĵÂĵÂĵÂĵÂĵÂĵÂĵÂĵÂĵÂĵÂĵÂĵÂĵÂĵÂĵÂĵÂĵÂĵÂĵÂĵÂĵÂĵÂĵÂĵ": 406,
      "EB": 407,
      "'?": 408,
      "ÂĳÂĶ": 409,
      "#<-": 410,
      ";Ĕ$": 411,
      "&%": 412,
      "Ġ>-": 413,
      "$&$": 414,
      "=ĕ$": 415,
      "&$$$$$$": 416,
      "$&#": 417,
      "$$$$$$$.": 418,
      "'$$": 419,
      "ĠC": 420,
      ":&$": 421,
      "\"Ě$$$$$$$$ę": 422,
      "=ē$": 423,
      ".:Ĕ": 424,
      ">ē$.": 425,
      "$$$$$$$$.": 426,
      "ÂĵÂĶÂĵÂĵ": 427,
      "DA": 428,
      "'%": 429,
      "ÂĵÂĺ": 430,
      "@ē$": 431,
      "/$$$$$$$": 432,
      "ÂĵÂĴÂĶ": 433,
      "!>": 434,
      "ÂĵÂĵÂĵÂĵÂĵÂĵÂĵ": 435,
      "ÂĵÂĶÂĴ": 436,
      "#$$$$$$": 437,
      "<ē$": 438,
      "<Ę&/": 439,
      "ÂķÂĴ": 440,
      "ÂĵÂı": 441,
      "!?": 442,
      "$&%": 443,
      "Ġ=": 444,
      "DB": 445,
      "ÂĵÂĵÂĵÂĵÂĵÂĵÂĵÂĵÂĵÂĵÂĵÂĵÂĵÂĵÂĵÂĵÂĵÂĵÂĵÂĵÂĵÂĵÂĵÂĵÂĵÂĵÂĵÂĵÂĵÂĵÂĵÂĵÂĵÂĵÂĵÂĵÂĵÂĵÂĵÂĵÂĵÂĵÂĵÂĵÂĵÂĵÂĵÂĵÂĵÂĵÂĵÂĵÂĵÂĵÂĵÂĵÂĵÂĵÂĵÂĵÂĵÂĵÂĵÂĵÂĵÂĵÂĵÂĵÂĵÂĵÂĵÂĵÂĵÂĵÂĵÂĵÂĵÂĵÂĵÂĵÂĵÂĵÂĵÂĵÂĵÂĵÂĵÂĵÂĵÂĵÂĵÂĵÂĵÂĵÂĵÂĵÂĵÂĵÂĵÂĵÂĵÂĵÂĵÂĵÂĵÂĵÂĵÂĵÂĵÂĵÂĵÂĵÂĵÂĵÂĵÂĵÂĵÂĵÂĵÂĵ": 446,
      "<$": 447,
      "ÂĵÂĵÂĵÂĵÂĵÂĵÂĵÂĵÂĵÂĵÂĵÂĵÂĵÂĵÂĵÂĵÂĵÂĵÂĵÂĵÂĵÂĵÂĵÂĵÂĵÂĵÂĵÂĵÂĵÂĵÂĵÂĵÂĵÂĵÂĵÂĵÂĵÂĵÂĵÂĵÂĵÂĵÂĵÂĵÂĵÂĵÂĵÂĵÂĵÂĵÂĵÂĵÂĵÂĵÂĵÂĵÂĵÂĵÂĵÂĵÂĵÂĵÂĵÂĵÂĵÂĵÂĵÂĵÂĵÂĵÂĵÂĵÂĵÂĵÂĵÂĵÂĵÂĵÂĵÂĵÂĵÂĵÂĵÂĵÂĵÂĵÂĵÂĵÂĵÂĵÂĵÂĵÂĵÂĵÂĵÂĵÂĵÂĵÂĵÂĵÂĵÂĵÂĵÂĵÂĵÂĵÂĵÂĵÂĵÂĵÂĵÂĵÂĵÂĵÂĵ": 448,
      "ÂĵÂİ": 449,
      "*<": 450,
      ">ē$ę": 451,
      "ĠB": 452,
      "26": 453,
      ",$$$$$$": 454,
      "ÂĵÂĴÂĵÂĵ": 455,
      "'@": 456,
      "Ę$$$$$$$": 457,
      "<Ĕ$": 458,
      ";Ė$": 459,
      "ÂĵÂĵÂĵÂĵÂĵÂĵÂĵÂĴ": 460,
      "$%$$$$": 461,
      "<ĕ$ę": 462,
      "($$$$$$": 463,
      "*#": 464,
      "ē%": 465,
      "$&?": 466,
      "-!$$$$$$": 467,
      "Ġ<-": 468,
      "ÂĶÂĶ": 469,
      "ÂĵÂĵÂĵÂĵÂĵÂĵÂĵÂĵÂĵÂĵÂĵÂĵÂĵÂĵÂĵÂĵÂĵÂĵÂĵÂĵÂĵÂĵÂĵÂĵÂĵÂĵÂĵÂĵÂĵÂĵÂĵÂĵÂĵÂĵÂĵÂĵÂĵÂĵÂĵÂĵÂĵÂĵÂĵÂĵÂĵÂĵÂĵÂĵÂĵÂĵÂĵÂĵÂĵÂĵÂĵÂĵÂĵÂĵÂĵÂĵÂĵÂĵÂĵÂĵÂĵÂĵÂĵÂĵÂĵÂĵÂĵÂĵÂĵÂĵÂĵÂĵÂĵÂĵÂĵÂĵÂĵÂĵÂĵÂĵÂĵÂĵÂĵÂĵÂĵÂĵÂĵÂĵÂĵÂĵÂĵÂĵÂĵÂĵÂĵÂĵÂĵÂĵÂĵÂĵÂĵÂĵÂĵÂĵÂĵÂĵÂĵÂĵÂĵÂĵÂĵÂĵÂĵÂĵÂĵÂĵÂĵÂĵ": 470,
      "!@": 471,
      "ÂĵÂĵÂĵÂĵÂĵÂĵÂĵÂĵÂĵÂĵÂĵÂĵÂĵÂĵÂĵÂĵÂĵÂĵÂĵÂĵÂĵÂĵÂĵÂĵÂĵÂĵÂĵÂĵÂĵÂĵÂĵÂĵÂĵÂĵÂĵÂĵÂĵÂĵÂĵÂĵÂĵÂĵÂĵÂĵÂĵÂĵÂĵÂĵÂĵÂĵÂĵÂĵÂĵÂĵÂĵÂĵÂĵÂĵÂĵÂĵÂĵÂĵÂĵÂĵÂĵÂĵÂĵÂĵÂĵÂĵÂĵÂĵÂĵÂĵÂĵÂĵÂĵÂĵÂĵÂĵÂĵÂĵÂĵÂĵÂĵÂĵÂĵÂĵÂĵÂĵÂĵÂĵÂĵÂĵÂĵÂĵÂĵÂĵÂĵÂĵÂĵÂĵÂĵÂĵÂĵÂĵÂĵÂĵÂĵÂĵ": 472,
      "&$$#;-": 473,
      "'=": 474,
      "Âł": 475,
      ":Ė$": 476,
      "?đ$": 477,
      ">Ē$": 478,
      ":'$": 479,
      "ÂĵÂĵÂĵÂĵÂĵÂĵÂĵÂĵÂĵÂĵÂĵÂĵÂĵÂĵÂĵÂĵÂĵÂĵÂĵÂĵÂĵÂĵÂĵÂĵÂĵÂĵÂĵÂĵÂĵÂĵÂĵÂĵÂĵÂĵÂĵÂĵÂĵÂĵÂĵÂĵ": 480,
      "-:Ē%": 481,
      "?Ĕ": 482,
      "ĠA": 483,
      "%$$": 484,
      "\"ę": 485,
      "@;": 486,
      "<Ę\"Ě": 487,
      "ÂĴÂĵÂĵÂĵ": 488,
      "%'": 489,
      "ÂĵÂĹ": 490,
      "ÂĳÂķ": 491,
      "<Ė$": 492,
      "$%$%": 493,
      "Ĝ!$$$$$$": 494,
      "ÂĵÂĵÂĵÂĵÂĵÂĵÂĵÂĵÂĵÂĵÂĵÂĵÂĵÂĵÂĵÂĵÂĵÂĵÂĵÂĵÂĵÂĵÂĵÂĵÂĵÂĵÂĵÂĵÂĵÂĵÂĵÂĵÂĵÂĵÂĵÂĵÂĵÂĵÂĵÂĵÂĵÂĵÂĵÂĵÂĵÂĵÂĵÂĵÂĵÂĵÂĵÂĵÂĵÂĵÂĵÂĵÂĵÂĵÂĵÂĵÂĵÂĵÂĵÂĵÂĵÂĵÂĵÂĵÂĵÂĵÂĵÂĵÂĵÂĵÂĵÂĵÂĵÂĵÂĵÂĵÂĵÂĵ": 495,
      "ě!$$$$$$": 496,
      "<ĕ$/": 497,
      ">ĕ": 498,
      ",:": 499,
      "57": 500,
      "%$(": 501,
      "?Ĕ$Ę": 502,
      "@Ĕ$": 503,
      "Ġ@": 504,
      "ĠD": 505,
      "45": 506,
      "<$ė": 507,
      "32": 508,
      "%%$$": 509,
      "92": 510,
      "ę$%$$%%$": 511,
      "<ĕ": 512,
      "/$$$$$$": 513,
      "Đ$ė": 514,
      "ÂĵÂĵÂĵÂĵÂĵÂĵÂĵÂĵÂĵ": 515,
      "&.": 516,
      "CA": 517,
      "#)": 518,
      "ÂķÂĳ": 519,
      "62": 520,
      "(>-": 521,
      "&&": 522,
      ".$$$$$$": 523,
      "ÂĴÂĴ": 524,
      "12": 525,
      "=ĕ": 526,
      "%(": 527,
      "ğ?": 528,
      "DC": 529,
      "+;": 530,
      "ğ@": 531,
      ")<": 532,
      "ÂĵÂĵÂĵÂĵÂĵÂĵÂĵÂĵÂĵÂĵÂĵÂĵÂĵÂĵÂĵÂĵÂĵÂĵÂĵÂĵÂĵÂĵÂĵÂĵÂĵÂĵÂĵÂĵÂĵÂĵÂĵÂĵÂĵÂĵÂĵÂĵÂĵÂĵÂĵÂĵÂĵÂĵÂĵÂĵÂĵÂĵÂĵÂĵÂĵÂĵÂĵÂĵÂĵÂĵÂĵÂĵÂĵÂĵÂĵÂĵÂĵÂĵÂĵÂĵÂĵÂĵÂĵÂĵÂĵÂĵÂĵÂĵÂĵÂĵÂĵÂĵÂĵÂĵÂĵÂĵÂĵÂĵÂĵÂĵÂĵÂĵÂĵÂĵÂĵÂĵÂĵÂĵÂĵÂĵÂĵÂĵÂĵÂĵÂĵÂĵÂĵÂĵÂĵÂĵÂĵÂĵÂĵÂĵÂĵÂĵÂĵÂĵÂĵÂĵÂĵÂĵÂĵÂĵÂĵÂĵÂĵÂĵÂĵÂĵÂĵÂĵ": 533,
      ":ĕ$": 534,
      "$$$$$$$$$$$$$$$$$$$$$$$$$$$$$$$$$$$$$$$$$$$$$$$$$$$$$$$$$$$$$$$$": 535,
      "22": 536,
      "$$$$$$$Ę": 537,
      "ă$$$$$$$": 538,
      "Ď$": 539,
      "42": 540,
      "+$$$$$$": 541,
      "(@": 542,
      "ÂĵÂĵÂĵÂĵÂĵÂĵÂİ": 543,
      "$$&": 544,
      ".:Ĕ$$#;-": 545,
      "ÂĴÂķ": 546,
      "%$'": 547,
      ">/": 548,
      ":ė$": 549,
      ")$$$$$$": 550,
      "ÂĵÂĵÂĵÂĵÂĵÂĵÂĺ": 551,
      "#,": 552,
      "=Ē$": 553,
      "'$$$$$$": 554,
      "&/$$$$$$$$.": 555,
      "#-": 556,
      "ÂĶÂĳ": 557,
      "$&\"": 558,
      "ÂĵÂĵÂĵÂĵÂĵÂĵÂĵÂĵÂĵÂĵÂĵÂĵÂĵÂĵÂĵÂĵÂĵÂĵÂĵÂĵÂĵÂĵÂĵÂĵÂĵÂĵÂĵÂĵÂĵÂĵÂĵÂĵÂĵÂĵÂĵÂĵÂĵÂĵÂĵÂĵÂĵÂĵÂĵÂĵÂĵÂĵÂĵÂĵÂĵÂĵÂĵÂĵÂĵÂĵ": 559,
      "ĠE": 560,
      "%)": 561,
      "(<": 562,
      "ÂĶÂĵÂĶ": 563,
      "?:": 564,
      "52": 565,
      "71": 566,
      "ÂĴÂĵÂĴ": 567,
      "72": 568,
      "82": 569,
      "ÂıÂĸ": 570,
      "(?-": 571,
      "ĠF": 572,
      "ÂĹÂĲ": 573,
      "$&&": 574,
      ">Ĕ\"ę": 575,
      "#!$$$$$$": 576,
      ";ĕ$": 577,
      "81": 578,
      "ÂĶÂķ": 579,
      "ÂĲÂĸ": 580,
      "83": 581,
      "%+": 582,
      "!=": 583,
      "'$'": 584,
      "ÂĵÂĵÂĵÂĵÂĵÂĵÂĵÂĵÂĵÂĵÂĵÂĵÂĵÂĵÂĵÂĵÂĵÂĵÂĵÂĵÂĵÂĵÂĵÂĵÂĵÂĵ": 585,
      "14": 586,
      "Ğ@": 587,
      "Ė#": 588,
      "ÂĸÂĲ": 589,
      "(=": 590,
      "ÂĵÂĵÂĵÂĵÂĵÂĵÂĵÂĵÂĵÂĵÂĵÂĵÂĵÂĵÂĵÂĵÂĵÂĵÂĵÂĵÂĵÂĵÂĵÂĵÂĵÂĵÂĵÂĵÂĵÂĵÂĵÂĵÂĵÂĵÂĵÂĵÂĵÂĵÂĵÂĵÂĵÂĵÂĵÂĵÂĵÂĵÂĵÂĵÂĵÂĵÂĵÂĵÂĵÂĵÂĵÂĵÂĵÂĵÂĵÂĵÂĵÂĵÂĵÂĵÂĵÂĵÂĵÂĵ": 591,
      "ÂĵÂĵÂĵÂĵÂĵÂĵÂĵÂĵÂĵÂĵÂĵÂĵÂĵÂİ": 592,
      "50": 593,
      "$%$%$$": 594,
      "\"!$$$$$$": 595,
      "43": 596,
      "!<": 597,
      "70": 598,
      "80": 599,
      "Ė$&": 600,
      "ÂĵÂĵÂĵÂĵÂĵÂĵÂĵÂĵÂĵÂĵÂĵÂĵÂĵÂĵÂĵÂĵÂĵÂĵÂĵÂĵÂĵÂĵÂĵÂĵÂĵÂĵÂĵÂĵÂĵÂĵÂĵÂĵÂĵÂĵÂĵÂĵÂĵÂĵÂĵÂĵÂĵÂĵÂĵÂĵÂĵÂĵÂĵÂĵÂĵÂĵÂĵÂĵÂĵÂĵÂĵÂĵÂĵÂĵÂĵÂĵÂĵÂĵÂĵÂĵÂĵÂĵÂĵÂĵÂĵÂĵÂĵÂĵÂĵÂĵÂĵÂĵ": 601,
      "(%": 602,
      "/$#$$%#$": 603,
      "'$'$$": 604,
      "ÂĵÂĵÂĵÂĵÂĵÂĵÂ¶": 605,
      "#.": 606,
      "09": 607,
      "$&'": 608,
      "ÂĵÂĵÂĵÂĵÂĵÂĵÂĶ": 609,
      "ÂĵÂĵÂĶÂĴ": 610,
      "ED": 611,
      ")?": 612,
      "61": 613,
      "'%%": 614,
      "Ě$$": 615,
      "%*": 616,
      "ė$-": 617,
      "-$$$$$$$$": 618,
      "24": 619,
      "ğ>": 620,
      "17": 621,
      ")@": 622,
      "ÂĵÂĵÂĵÂĶ": 623,
      ",$$$$$$$$": 624,
      "ÂĵÂĵÂĵÂĵÂĵÂĵÂĵÂĵÂĵÂĵÂĵÂĵÂĵÂĵÂĵÂĵÂĵÂĵÂĵÂĵÂĵÂĵÂĵÂĵÂĵÂĵÂĵÂĵÂĵÂĵÂĵÂĵÂĵÂĵÂĵÂĵÂĵÂĵÂĵÂĵÂĵÂĵÂĵÂĵÂĵÂĵÂĵÂĵÂĵÂĵÂĵÂĵÂĵÂĵÂĵÂĵ": 625,
      "Ę$$": 626,
      "FC": 627,
      "<Ę\"Ě$$$$$$$$ę": 628,
      "ÂĵÂĲÂĴ": 629,
      "?ē$ě": 630,
      "73": 631,
      "ÂĵÂĵÂĵÂĵÂĵÂĵÂĵÂĵÂĵÂĵÂĵÂĵÂĵÂĵÂĵÂĵÂĵÂĵÂĵÂĵ": 632,
      "Ē#$": 633,
      "'<": 634,
      "ÂĶÂĵÂĵÂĵÂĵÂĵÂĵÂĵÂĵÂĵÂĵÂĵÂĵÂĵÂĵÂĵÂĵÂĵÂĵÂĵÂĵÂĵÂĵÂĵÂĵÂĵÂĵÂĵÂĵÂĵÂĵÂĵÂĵÂĵÂĵÂĵÂĵÂĵÂĵÂĵÂĵÂĵÂĵÂĵÂĵÂĵÂĵÂĵÂĵÂĵÂĵÂĵÂĵÂĵÂĵÂĵÂĵÂĵÂĵÂĵÂĵÂĵÂĵÂĵÂĵÂĵÂĵÂĵÂĵÂĵÂĵÂĵÂĵÂĵÂĵÂĵÂĵÂĵÂĵÂĵÂĵÂĵÂĵÂĵÂĵÂĵÂĵÂĵÂĵÂĵÂĵÂĵÂĵÂĵÂĵÂĵÂĵÂĵÂĵÂĵÂĵ": 635,
      "$&!": 636,
      "Ğ?": 637,
      "46": 638,
      "ÂĵÂĵÂĵÂĵÂĵÂĵÂĵÂĵÂĵÂĵÂĵÂĵÂĵÂĵÂĵÂĵÂĵÂĵÂĵÂĵÂĵÂĵÂĵÂĵÂĵÂĵÂĵÂĵÂĵÂĵÂĵÂĵÂĵÂĵÂĵÂĵÂĵÂĵÂĵÂĵÂĵÂĵÂĵÂĵÂĵÂĵÂĵÂĵÂĵÂĵÂĵÂĵÂĵÂĵÂĵÂĵÂĵÂĵÂĵÂĵÂĵÂĵÂĵÂĵÂĵÂĵÂĵÂĵÂĵÂĵÂĵÂĵÂĵÂĵÂĵÂĵÂĵÂĵÂĵÂĵÂĵÂĵÂĵÂĵÂĵÂĵÂĵÂĵÂĵÂĵÂĵÂĵÂĵÂĵÂĵÂĵÂĵÂĵÂĵÂĵÂĵÂĵÂĵÂĵÂĵÂĵÂĵÂĶ": 639,
      ">Ĕ$Ĝ": 640,
      "#(": 641,
      "ÂĸÂĳ": 642,
      ".$$$$$$$": 643,
      "ÂĵÂĵÂĵÂĵÂĵÂĵÂĵÂĵÂĵÂĵÂĵÂĵÂĵÂĵÂĵÂĵÂĵÂĵÂĵÂĵÂĵÂĵÂĵÂĵÂĵÂĵÂĵÂĵ": 644,
      "\"?": 645,
      "55": 646,
      ":Ĕ$": 647,
      "07": 648,
      "$&(": 649,
      "ÂĵÂĵÂĵÂĵÂĵÂĵÂĴ": 650,
      "EC": 651,
      "%$%#$": 652,
      "%$$$$$$%$$$$$$": 653,
      "'=*": 654,
      "%!$$$$$$": 655,
      "\"@": 656,
      "ÂĵÂĵÂĴÂĶ": 657,
      "64": 658,
      "ÂĵÂĵÂĵÂĵÂĵÂĵÂĵÂĵÂĵÂĵÂĵÂĵÂĵÂĵÂĵÂĵÂĵÂĵÂĵÂĵÂĵÂĵÂĵÂĵÂĵÂĵÂĵÂĵÂĵÂĵÂĵÂĵÂĵÂĵ": 659,
      "\">": 660,
      "#$$$$$$#$$$$$$": 661,
      "%$#": 662,
      "?Ĕ$ă": 663,
      "60": 664,
      "-$$$$$$-$$$$$$": 665,
      "#/": 666,
      "ÂĶÂĵÂĵÂĵÂĵ": 667,
      ";ē$": 668,
      "@đ$.": 669,
      "$$!$$$$$$": 670,
      "##": 671,
      "'&": 672,
      "ě$$": 673,
      "-!": 674,
      "ė$ā": 675,
      "33": 676,
      "@đ$ę": 677,
      ">ĕ$Ą": 678,
      "=Ĕ$ę$$$$$$$": 679,
      "%;": 680,
      "Ġ?.": 681,
      "'/": 682,
      "(?.": 683,
      ")>": 684,
      "':": 685,
      "20": 686,
      "$$$$$$$$$": 687,
      "40": 688,
      "Ě$$$$$$$": 689,
      "-$$$$$$$": 690,
      "\"$$$$$$$": 691,
      ".:Ĕ$$#<-": 692,
      "ÂĵÂĵÂĵÂĵÂĵÂĵÂĵÂĵÂĵÂĵÂĵÂĵÂĵÂĵÂĵÂĵÂĵÂĵÂĵÂĵÂĵÂĵÂĵÂĵÂĵÂĵÂĵÂĵÂĵÂĵÂĵÂĵÂĵÂĵÂĵÂĵÂĵÂĵÂĵÂĵÂĵÂĵÂĵÂĵÂĵÂĵÂĵÂĵÂĵÂĵÂĵÂĵÂĵÂĵÂĵÂĵÂĵÂĵÂĵÂĵÂĵÂĵÂĵÂĵÂĵÂĵÂĵÂĵÂĵÂĵÂĵÂĵÂĵÂĵÂĵÂĵÂĵÂĵÂĵÂĵÂĵÂĵÂĵÂĵÂĵÂĵÂĵÂĵÂĵÂĵ": 693,
      "21": 694,
      "ÂĵÂĵÂĵÂĵÂĵÂĵÂĹ": 695,
      "<ė": 696,
      "Ġ=.": 697,
      "<Ē$": 698,
      "%.": 699,
      "Ĝ$$": 700,
      "Ĕ$<$ė": 701,
      "ÂĵÂĺÂĵÂĵÂĵÂĵÂĵÂĵÂĵ": 702,
      "!$$$$$$$": 703,
      "ÂĶÂĲ": 704,
      ">ĕ\"Ě$$$$$$$$ę": 705,
      ".$#$$%#$": 706,
      "+$$$$$$$$": 707,
      "ĕ$Đ$ė": 708,
      "ÂĵÂĵÂĵÂĵÂĵÂĵÂĵÂĵÂĵÂĶÂĴ": 709,
      "+\"": 710,
      "56": 711,
      "+$$$$$$$": 712,
      "/$$$$$$$$": 713,
      "ÂĵÂĵÂĵÂĴ": 714,
      "ÂĲÂķ": 715,
      ")#": 716,
      "ÂĵÂĵÂĵÂĵÂĵÂĵÂĵÂĵÂĴ": 717,
      "¶ÂĵÂĵÂĵÂĵÂĵÂĵÂ¶": 718,
      "Â¶ÂĵÂĵÂĵÂĵÂĵÂĵÂ¶": 719,
      "%$)": 720,
      "#$$$$$$#$$$$$$-$$$$$$-$$$$$$": 721,
      ">đ$": 722,
      "ę$$": 723,
      "@Đ$": 724,
      "<Ę&/$$$$$$$$.": 725,
      "36": 726,
      ")=": 727,
      "23": 728,
      ",(": 729,
      "#$$$$$$$": 730,
      "ÂĶÂĸ": 731,
      "ė$&": 732,
      "\"#": 733,
      "Ğ>": 734,
      ";ĕ": 735,
      "93": 736,
      "#>": 737,
      "%$$$$$$$": 738,
      "*>": 739,
      "#+": 740,
      "ÂĵÂĵÂĵÂĵÂĵÂĵÂĵÂĵÂĵÂĵÂĵÂĵÂĵÂĵÂĵÂĵÂĵÂĵÂĵÂĵÂĵÂĵÂĵÂĵÂĵÂĵÂĵÂĵÂĵÂĵÂĵÂĵÂĵÂĵÂĵÂĵÂĵÂĵÂĵÂĵÂĵÂĵÂĵÂĵÂĵÂĵÂĵÂĵÂĵÂĵÂĵÂĵÂĵÂĵÂĵÂĵÂĵÂĵÂĵÂĵÂĵÂĵÂĵÂĵÂĵÂĵÂĵÂĵÂĵÂĵÂĵÂĵÂĵÂĵÂĵÂĵÂĵÂĵÂĵÂĵÂĵÂĵÂĵÂĵÂĵÂĵÂĵÂĵÂĵÂĵÂĵÂĵÂĵÂĵÂĵÂĵÂĵÂĵÂĵÂĵÂĵÂĵÂĵÂĵÂĵÂĵÂĵÂĵÂĵÂĵÂĵÂĵÂĵ": 741,
      "11": 742,
      "&@": 743,
      ":'": 744,
      "ě$$$$$$$": 745,
      "*?": 746,
      "&%$$%%$": 747,
      "!#": 748,
      "ē#$": 749,
      "ÂĵÂĵÂĵÂĵÂĵÂĵÂĵÂĵÂĵÂĵÂĵÂĵÂĵÂĺ": 750,
      "Ē#&": 751,
      "ÂĵÂĶÂĵÂĶ": 752,
      "ğ$$$$$$$": 753,
      ".$$$$$$$$": 754,
      ",!$$$$$$": 755,
      "Ġ$$$$$$$": 756,
      "90": 757,
      ">Ĕ$ę": 758,
      "'$$$$$$$": 759,
      ",!": 760,
      "ĕ$<$ė": 761,
      "=Ĕ": 762,
      ")$$$$$$$": 763,
      "ğ=": 764,
      "&<": 765,
      "ÂĵÂĵÂĵÂĵÂĵÂĵÂĵÂĵÂĵÂĵÂĵÂĵÂĵÂĵÂĵÂĵÂĵÂĵÂĵÂĵÂĵÂĵÂĵÂĵÂĵÂĵÂĵÂĵÂĵÂĵÂĵÂĵÂĵÂĵÂĵÂĵÂĵÂĵÂĵÂĵÂĵÂĵÂĵÂĵÂĵÂĵÂĵÂĵÂĵÂĵÂĵÂĵÂĵÂĵÂĵÂĵÂĵÂĵÂĵÂĵÂĵÂĵÂĵÂĵÂĵÂĵÂĵÂĵÂĵÂĵÂĵÂĵÂĵÂĵÂĵÂĵÂĵÂĵÂĵÂĵÂĵÂĵÂĵÂĵÂĵÂĵÂĵÂĵÂĵÂĵÂĵÂĵÂĵÂĵÂĵÂĵÂĵÂĵÂĵÂĵÂĵÂĵÂĵÂĵ": 766,
      "ÂĵÂĵÂĵÂĵÂĵÂĵÂĵÂĵÂĵÂĵÂĵÂĵÂĵÂĵÂĵÂĵÂĵÂĵÂĵÂĵÂĵÂĵÂĵÂĵÂĵÂĵÂĵÂĵÂĵÂĵÂĵÂĵÂĵÂĵÂĵÂĵÂĵÂĵÂĵÂĵÂĵÂĵÂĵÂĵÂĵÂĵÂĵÂĵÂĵÂĵÂĵÂĵÂĵÂĵÂĵÂĵÂĵÂĵÂĵÂĵÂĵÂĵÂĵÂĵÂĵÂĵÂĵÂĵÂĵÂĵÂĵÂĵÂĵÂĵÂĵÂĵÂĵÂĵÂĵÂĵÂĵÂĵÂĵÂĵÂĵÂĵÂĵÂĵÂĵÂĵÂĵÂĵ": 767,
      "%%$%": 768,
      "*$$$$$$$": 769,
      "%@": 770,
      "#?": 771,
      "25": 772,
      "*#+": 773,
      "ĠG": 774,
      "=Ė": 775,
      ">.": 776,
      "%$&": 777,
      "#'$$": 778,
      "&#$$%#$": 779,
      "*$$$$$$$$": 780,
      "ĝ$$": 781,
      "#@": 782,
      "&$$#<-": 783,
      "ÂĲÂĳ": 784,
      "ĕ$&": 785,
      "!!$$$$$$": 786,
      ")&%": 787,
      "51": 788,
      "03": 789,
      "ÂĵÂĵÂĵÂĵÂĵÂĵÂĵÂĵÂĵÂĵÂĵÂĵÂĵÂĵÂĵÂĵÂĵÂĵÂĵÂĵÂĵÂĵÂĵÂĵÂĵÂĵÂĵÂĵÂĵÂĵÂĵÂĵÂĵÂĵÂĵÂĵÂĵÂĵÂĵÂĵÂĵÂĵÂĵÂĵÂĵÂĵÂĵÂĵÂĵÂĵÂĵÂĵÂĵÂĵÂĵÂĵÂĵÂĵÂĵÂĵÂĵÂĵÂĵÂĵÂĵÂĵÂĵÂĵÂĵÂĵÂĵÂĵÂĵÂĵÂĵÂĵÂĵÂĵÂĵÂĵÂĵÂĵÂĵÂĵÂĵÂĵÂĵÂĵÂĵÂĵÂĵÂĵÂĵÂĵÂĵÂĵÂĵÂĵÂĵÂĵÂĵÂĵ": 790,
      "$$&#'$$": 791,
      "!ę": 792,
      "*=": 793,
      "ė%": 794,
      "ÂĴÂĸ": 795,
      ",$$$$$$$": 796,
      "($$$$$$$": 797,
      "Ĝ$$$$$$$": 798,
      "ÂĵÂĴÂĴ": 799,
      "ė$$": 800,
      "$$$$$$$$$$$$$$$$$$$$$$$$$$$$$$$$$$$$$$$$$$$$$$$$": 801,
      "04": 802,
      "91": 803,
      "?Ĕ&/$$$$$$$$.": 804,
      "Ĕ$Đ$ė": 805,
      "ğ<": 806,
      "ĕ$$": 807,
      "ÂĵÂĶÂĶ": 808,
      "%?": 809,
      "$>": 810,
      "ÂĴÂĶÂĵÂĵÂĵÂĵÂĵÂĵÂĵÂĵÂĵÂĵ": 811,
      "ē#&": 812,
      "ď$ě!$$$$$$": 813,
      "*@": 814,
      "Ą$$$$$$$": 815,
      "ÂĵÂĴÂĵÂĴ": 816,
      "ĝ>": 817,
      "$@": 818,
      "*;": 819,
      "&>": 820,
      "ÂĵÂİÂĵÂĵÂĵÂĵÂĵÂĵÂĵ": 821,
      "%%$%%$": 822,
      "ÂĶÂĵ": 823,
      "(;": 824,
      "FD": 825,
      "(%%": 826,
      "ÂĴÂĶÂĵÂĵ": 827,
      "Ė%": 828,
      "05": 829,
      "Ğ$$$$$$$": 830,
      "ÂĶÂĵÂĵÂĵÂĸ": 831,
      "ÂĴÂĳ": 832,
      "13": 833,
      "%>": 834,
      "&$%": 835,
      "%&(?-": 836,
      "ÂĵÂĵÂĵÂĵÂĵÂĵÂĵÂĵÂĵÂĵÂĵÂĵÂĵÂĵÂĵÂĵÂĵÂĵÂĵÂĵÂĵÂĵÂĵÂĵÂĵÂĵÂĵÂĵÂĵÂĵÂĵÂĵÂĵÂĵÂĵÂĵÂĵÂĵÂĵÂĵÂĵÂĵÂĵÂĵÂĵÂĵÂĵÂĵÂĵÂĵÂĵÂĵÂĵÂĵÂĵÂĵÂĵÂĵÂĵÂĵÂĵÂĵÂĵÂĵÂĵÂĵÂĵÂĵÂĵÂĵ": 837,
      "#%$$": 838,
      "ĝ$$$$$$$": 839,
      "Ė&": 840,
      "=Ĕ$/$$$$$$$": 841,
      "ÂĵÂĶÂĴÂĵÂĵÂĵ": 842,
      "%:": 843,
      "'!$$$$$$": 844,
      "44": 845,
      "/ğ": 846,
      "$?": 847,
      "ÂĵÂĵÂĵÂĵÂĵÂĵÂĵÂĵÂĵÂĴÂĶ": 848,
      "#%$$#$": 849,
      "ÂĶÂĴÂĵÂĵÂĵÂĵÂĵÂĵÂĵÂĵÂĵÂĵ": 850,
      "Ġ?-": 851,
      "ē$&": 852,
      "+>": 853,
      "ÂĵÂĵÂĵÂĵÂĵÂĵÂĵÂĳ": 854,
      "Ğ=": 855,
      ")%": 856,
      "ĕ&": 857,
      "/$$": 858,
      ",#-": 859,
      "'>.": 860,
      "%$+": 861,
      ");": 862,
      "ÂĵÂĴÂĴÂĶ": 863,
      ":&$$#;-": 864,
      "$$$$$$$$$$$$$$$$$$$$": 865,
      "'>*": 866,
      "ĝ?": 867,
      "%%$$%$": 868,
      "Ġ;": 869,
      "#Ğ": 870,
      "($(": 871,
      "'@+": 872,
      "*&%": 873,
      "/#": 874,
      "đ$Ę$$$$$$$": 875,
      "ď$-!$$$$$$": 876,
      ">Ĕ$.": 877,
      "$&%$": 878,
      "$:": 879,
      "Đ$Ĝ!$$$$$$": 880,
      "ę$&": 881,
      "@ē$-": 882,
      "#ğ": 883,
      ",:ē%": 884,
      "$'": 885,
      ";Ē$": 886,
      "FB": 887,
      "$&#'$$": 888,
      "#ĝ": 889,
      "CB": 890,
      "ÂĵÂĵÂĶ": 891,
      "ĝ@": 892,
      "Ē&": 893,
      ",\"": 894,
      "ÂĴÂĲ": 895,
      ",$$": 896,
      "$(": 897,
      ".$$": 898,
      "?ē$-": 899,
      "ē&": 900,
      "ÂĵÂĵÂĵÂĵÂĵÂĵÂĵÂĶ": 901,
      "Ĕ%": 902,
      "-$&?": 903,
      ",'%": 904,
      "28": 905,
      "54": 906,
      "ÂĵÂĵÂĵÂĵÂĴ": 907,
      "ē$$": 908,
      "01": 909,
      "#!": 910,
      "!;": 911,
      "&;": 912,
      "!<-": 913,
      "Ė$$$$$$$": 914,
      "Ğ$$": 915,
      "!=/": 916,
      "ĝ\"": 917,
      "<.": 918,
      "84": 919,
      "';": 920,
      "ĝ=": 921,
      "/)$": 922,
      "&=": 923,
      "*\"": 924,
      "ÂķÂķ": 925,
      "19": 926,
      "Ġ=/": 927,
      "#%$%#$": 928,
      "74": 929,
      "ÂĵÂĸÂĴÂĵÂĵ": 930,
      "@;ē$": 931,
      "ÂĵÂĵÂĵÂĵÂĵÂĵÂĳ": 932,
      ">Ĕ&/": 933,
      "%&(>-": 934,
      "+#,": 935,
      "ğ;": 936,
      "ě$&": 937,
      "Ĕ$$": 938,
      "94": 939,
      "ĕ%": 940,
      "%=": 941,
      "</": 942,
      "ÂĵÂĵÂĵÂĵÂĵÂĵÂĵÂĵÂĵÂĵÂĵÂĵÂĵÂĵÂĵÂĵÂĵÂĵÂĵÂĵÂĵÂĵÂĵÂĵÂĵÂĵÂĵÂĵÂĵÂĵÂĵÂĵÂĵÂĵÂĵÂĵÂĵÂĵÂĵÂĵÂĵÂĵÂĵÂĵÂĵÂĵÂĵÂĵÂĵÂĵÂĵÂĵÂĵÂĵÂĵÂĵÂĵÂĵ": 943,
      "+$$": 944,
      "ÂĸÂķ": 945,
      "ÂĵÂĳÂĵÂĵ": 946,
      "=Ĕ$.": 947,
      "(:": 948,
      "ĠĚ": 949,
      "Ĝğ": 950,
      "-$$": 951,
      "ÂĳÂĴ": 952,
      "ė$$$$$$$": 953,
      "Ě$&": 954,
      "#*": 955,
      "ÂĵÂĵÂĵÂĵÂĵÂĵÂĵÂĵÂĵÂĵÂĵÂĵÂĵÂķ": 956,
      "ĝ$&": 957,
      "ÂĶÂĵÂĵÂĵÂĵÂĵÂĵÂĵÂĵÂĵ": 958,
      "@đ$/$#$$%#$": 959,
      "$=": 960,
      "+=": 961,
      "-(": 962,
      "+'%": 963,
      "<ĕ$ę$$$$$$$": 964,
      "+<": 965,
      "ÂĴÂĶÂĵÂĵÂĵ": 966,
      "ÂĵÂķÂķ": 967,
      "ĝ!$$$$$$": 968,
      "+(": 969,
      "Ę$&": 970,
      "$&%%$$": 971,
      "ÂĵÂĴÂĶÂĵÂĵÂĵ": 972,
      "ÂĵÂĵÂĵÂĵÂĵÂĵÂĵÂĵÂĲ": 973,
      "($)": 974,
      "ÂĵÂĵÂĵÂĵÂĵÂĵÂĵÂĵÂĵÂĵÂĵ": 975,
      "!>.": 976,
      ")\"": 977,
      "ÂĵÂıÂĵÂı": 978,
      "30": 979,
      ":/": 980,
      "ğ#": 981,
      "%%%$": 982,
      "#=": 983,
      "Ġ>.": 984,
      "-:'$": 985,
      "Ĝ$&": 986,
      "$&#$": 987,
      "+'": 988,
      "=Ĕ$ę": 989,
      "47": 990,
      "#'": 991,
      "=đ$": 992,
      "ÂĵÂĵÂĵÂĵÂĵÂĵÂĵÂĵÂĵÂĵÂĵÂĵÂĵÂĵÂĵÂĵÂĵÂĵÂĵÂĵÂĵÂĵÂĵÂĵÂĵÂĵÂĵÂĵÂĵÂĵÂĵÂĵÂĵÂĵÂĵÂĵÂĵÂĵÂĵÂĵÂĵÂĵÂĵÂĵÂĵÂĵÂĵÂĵÂĵÂĵÂĵÂĵÂĵÂĵÂĵÂĵÂĵÂĵÂĵÂĵÂĵÂĵÂĵÂĵÂĵÂĵÂĵÂĵÂĵÂĵÂĵÂĵÂĵÂĵÂĵÂĵÂĵÂĵÂĵÂĵÂĵÂĵÂĵÂĵÂĵÂĵÂĵÂĵÂĵÂĵÂĵÂĵÂĵÂĵÂĵÂĵÂĵÂĵÂĵÂĵÂĵÂĵÂĵÂĵÂĵÂĵÂĵÂĸ": 993,
      "$&!$$$$$$": 994,
      "+?": 995,
      "#%": 996,
      "FA": 997,
      "ÂĵÂĳÂĴ": 998,
      "'.": 999,
      "95": 1000,
      "ÂĵÂĵÂĵÂĵÂĵÂĵÂĵÂĵÂĵÂĵÂĵÂĵÂĵÂĵÂĵÂĵÂĵÂĵÂĵÂĵÂĵÂĵÂĵÂĵÂĵÂĵÂĵÂĵÂĵÂĵÂĵÂĵÂĵÂĵÂĵÂĵÂĵÂĵÂĵÂĵÂĵÂĵ": 1001,
      "?đ": 1002,
      "ÂĳÂĵÂĵ": 1003,
      "%-": 1004,
      "+!": 1005,
      "%$(>-": 1006,
      "?ĕ$": 1007,
      "\"=": 1008,
      "ÂĵÂĴÂĵÂĵÂĵÂĵÂĵÂĵÂĵÂĵÂĵÂĵÂĵÂĵÂĵÂĵÂĵÂĵÂĵÂĵÂĵÂĵÂĵÂĵÂĵÂĵÂĵÂĵÂĵÂĵÂĵÂĵÂĵÂĵÂĵÂĵÂĵÂĵÂĵÂĵÂĵÂĵÂĵÂĵÂĵÂĵÂĵÂĵÂĵÂĵÂĵÂĵÂĵÂĵÂĵÂĵÂĵÂĵÂĵÂĵÂĵÂĵÂĵÂĵÂĵÂĵÂĵÂĵÂĵÂĵÂĵÂĵÂĵÂĵÂĵÂĵÂĵÂĵÂĵÂĵÂĵÂĵÂĵÂĵÂĵÂĵÂĵÂĵÂĵÂĵÂĵÂĵÂĵÂĵÂĵÂĵÂĵÂĵÂĵÂĵÂĵÂĵÂĵÂĵÂĵÂĵÂĵÂĵÂĵÂĵ": 1009,
      ")&": 1010,
      "\"ě": 1011,
      "ė$\"": 1012,
      "đ$Ę": 1013,
      "ÂĵÂĶÂĵÂĵÂĵÂĶÂĵÂĵ": 1014,
      "Ē$$": 1015,
      "@đ$ę$%$$%%$": 1016,
      "*!": 1017,
      ";/": 1018,
      ">Ĕ$Ą": 1019,
      ".:ĕ": 1020,
      "$$$%$%#$": 1021,
      "-:ē$": 1022,
      "18": 1023,
      "<ĕ$/$$$$$$$": 1024,
      "*'": 1025,
      "Ĕ&": 1026,
      "Ĝ$$$$$$$$": 1027,
      ").": 1028,
      "#\"": 1029,
      "ÂĵÂĵÂĵÂĵÂĵÂĵÂĵÂĵÂı": 1030,
      "Ĝĝ": 1031,
      "ÂĵÂĵÂĵÂĵÂĵÂĵÂĵÂĵÂĵÂĵÂĵÂĵÂĵÂĵÂĵÂĵÂĵÂĵÂĵÂĵÂĵÂĵÂĵÂĵÂĵÂĵÂĵÂĵÂĵÂĵÂĵÂĵÂĵÂĵÂĵÂĵÂĵÂĵÂĵÂĵÂĵÂĵÂĵÂĵÂĵÂĵÂĵÂĵÂĵÂĵÂĵÂĵÂĵÂĵÂĵÂĵÂĵÂĵÂĵÂĵÂĵÂĵÂĵÂĵÂĵÂĵÂĵÂĵÂĵÂĵÂĵÂĵÂĵÂĵÂĵÂĵÂĵ": 1032,
      "Ğ$&": 1033,
      "ĕ$$\"": 1034,
      "Ġ=-": 1035,
      "):": 1036,
      "@Ē$ă$$$$$$$": 1037,
      "*&": 1038,
      "ĕ$$$$$$$": 1039,
      "Ğ#": 1040,
      "(.": 1041,
      "ÂĵÂĵÂĵÂĵÂĵÂĵÂĵÂĵÂĵÂĵÂĵÂĵÂĵÂĵÂĵÂĵÂĵÂĵÂĵÂĵÂĵÂĵÂĵÂĵÂĵÂĵÂĵÂĵÂĵÂĵÂĵÂĵÂĵÂĵÂĵÂĵÂĵÂĵÂĵÂĵÂĵÂĵÂĵÂĵÂĵÂĵÂĵÂĵÂĵÂĵÂĵÂĵÂĵÂĵÂĵÂĵÂĵÂĵÂĵÂĵÂĵÂĵ": 1042,
      "ÂĵÂĵÂĵÂĵÂĵÂĵÂĵÂĵÂĵÂĵÂĵÂĵÂĵÂİÂĵÂĵÂĵÂĵÂĵÂĵÂĵÂĵÂĵÂĵÂĵÂĵÂĵÂĵÂĵÂĵÂĵÂĵÂĵÂĵÂĵÂĵÂĵÂĵÂĵÂĵÂĵÂĵÂĵÂĵÂĵÂĵÂĵÂĵÂĵÂĵÂĵÂĵÂĵÂĵÂĵÂĵÂĵÂĵÂĵÂĵÂĵÂĵÂĵÂĵÂĵÂĵÂĵÂĵ": 1043,
      "ĕ$$\"<-": 1044,
      "Ę%": 1045,
      "Ġ:": 1046,
      ">Ĕ$,": 1047,
      "31": 1048,
      "ÂĲÂĴ": 1049,
      "(&": 1050,
      ",'": 1051,
      "$$$$$$%$$$$$$%$$$$$$": 1052,
      "ÂĵÂĵÂĵÂĵÂĵÂĵÂĵÂĵÂĵÂĵÂĵÂĵÂĵÂĵÂĵÂĵÂĵÂĵÂĵÂĵÂĵÂĵÂĵÂĵÂĵÂĵÂĵÂĵÂĵÂĵÂĵÂĵÂĵÂĵÂĵÂĵÂĵÂĵÂĵÂĵÂĵÂĵÂĵÂĵÂĵÂĵÂĵÂĵÂĵÂĵÂĵÂĵÂĵÂĵÂĵÂĵÂĵÂĵÂĵÂĵÂĵÂĵÂĵÂĵÂĵÂĵÂĵÂĵÂĵÂĵÂĵÂĵÂĵÂĵÂĵÂĵÂĵÂĵÂĵÂĵÂĵÂĵÂĵÂĲ": 1053,
      "Ē\"$": 1054,
      "Ğ<": 1055,
      ".ğ": 1056,
      "ÂĵÂĵÂĴ": 1057,
      "$$$%$$": 1058,
      "Ė$%": 1059,
      "ÂĵÂĵÂĵÂĵÂĵÂĵÂĵÂĵÂĵÂĵÂĵÂĵÂĵÂĵÂĵÂĵÂĵÂĵÂĵÂĵÂĵÂĵÂĵÂĵÂĵÂĵÂĵÂĵÂĵÂĵÂĵÂĵÂĵÂĵÂĵÂĵÂĵÂĵÂĵÂĵÂĵÂĵÂĵÂĵÂĵÂĵÂĵÂĵÂĵÂĵÂĵÂĵÂĵÂĵÂĵÂĵÂĵÂĵÂĵÂĵÂĵÂĵÂĵÂĵÂĵÂĵÂĵÂĵÂĵÂĵÂĵÂĵÂĵÂĵÂĵÂĵÂĵÂĵÂĵÂĵÂĵÂĵÂĵÂĵÂĵÂĵÂĵÂĵÂĵÂĵÂĵÂĵÂĵÂĵÂĵÂĵÂĵÂĵÂĵÂĵÂĵÂĵÂĵÂĵÂĵÂĵÂĵÂĵÂĵÂĵÂĵÂĵÂĵÂĵÂĵÂĵÂĵÂĵÂĵÂĵÂĵ": 1060,
      "!<.": 1061,
      ",;": 1062,
      "$$$$$$#$$$$$$#$$$$$$-$$$$$$-$$$$$$": 1063,
      "16": 1064,
      "FE": 1065,
      "$#$$%#$": 1066,
      "ÂĵÂĵÂĵÂĵÂĵÂĵÂĵÂĵÂĵÂĵÂĵÂĵÂĵÂĵÂĵÂĵÂĵÂĵÂĵÂĵÂĵÂĵÂĵÂĵÂĵÂĵÂĵÂĵÂĵÂĵÂĵÂĵÂĵÂĵÂĵÂĵÂĵÂĵÂĵÂĵÂĵÂĵÂĵÂĵÂĵÂĵÂĵÂĵÂĵÂĵÂĵÂĵÂĵÂĵÂĵÂĵÂĵÂĵÂĵÂĵÂĵÂĵÂĵÂĵÂĵÂĵÂĵÂĵÂĵÂĵÂĵÂĵÂĵÂĵÂĵÂĵÂĵÂĵÂĵÂĵÂĵÂĵÂĵÂĵÂĵÂĵÂĵÂĵÂĵÂĵÂĵÂĵÂĵÂĵÂĵÂĵÂĵÂĵÂĵÂĵÂĵÂĵÂĵÂĵÂĵÂĵÂĵÂĴ": 1067,
      "'$'\"$": 1068,
      "ÂĶÂĴÂĵÂĵ": 1069,
      "35": 1070,
      "?Ĕ&/": 1071,
      "@đ": 1072,
      "ė&": 1073,
      "''": 1074,
      ")$$$$$$$$": 1075,
      "?ē$ě!$$$$$$": 1076,
      "\"&": 1077,
      "*%": 1078,
      "GA": 1079,
      "'>/": 1080,
      "&:": 1081,
      ".:'$": 1082,
      "Ġ#": 1083,
      "ÂĵÂĵÂĵÂĵÂĴÂĵÂĴ": 1084,
      "&$'": 1085,
      "ÂĵÂĵÂĵÂĵÂĵÂĵÂĵÂĵÂĵÂĵÂĵÂĵÂĵÂĸ": 1086,
      "ÂĵÂĶÂĴÂĵÂĵÂĵÂĵÂĵÂĵÂĵÂĵÂĵÂĵ": 1087,
      "GE": 1088,
      "ÂĵÂĵÂĵÂĵÂĵÂĵÂĵÂĵÂĵÂĵÂĵÂĵÂĵÂĵÂĵÂĵÂĵÂĵÂĵÂĵÂĵÂĵÂĵÂĵÂĵÂĵÂĵÂĵÂĵÂĵÂĵÂĵÂĵÂĵÂĵÂĵÂĵÂĵÂĵÂĵÂĵÂĵÂĵÂĵÂĵÂĵÂĵÂĵÂĵÂĵÂĵÂĵÂĵÂĵÂĵÂĵÂĵÂĵÂĵÂĵÂĵÂĵÂĵÂĵÂĵÂĵÂĵÂĵÂĵÂĵÂĵÂĵÂĵÂĵÂĵÂĵÂĵÂĵÂĵÂĵÂĵÂĵÂĵÂĵÂĵÂĵÂĵÂĵÂĵÂĵÂĵÂĵÂĵÂĵÂĵÂĵÂĵÂĵ": 1089,
      ")&$": 1090,
      "=$": 1091,
      "Ġ>/": 1092,
      "$$$$$$$Ě": 1093,
      "Ė$-": 1094,
      "ÂĵÂķÂĵÂĵ": 1095,
      "37": 1096,
      "Ĕ#": 1097,
      "ÂĵÂĻ": 1098,
      "Ĕ$&": 1099,
      "@:Ĕ$ā": 1100,
      "Ğ!$$$$$$": 1101,
      ":ē$": 1102,
      "ĝĝ": 1103,
      ">ē$ę$%$$%%$": 1104,
      ">Ĕ$Ę": 1105,
      ":&$+": 1106,
      "(/": 1107,
      "*$$": 1108,
      "ē#": 1109,
      ">ē$.$#$$%#$": 1110,
      "EE": 1111,
      "Ę&": 1112,
      "ÂĵÂĵÂĵÂĵÂĵÂĵÂı": 1113,
      "ÂĵÂĵÂĵÂĵÂĶÂĵÂĶ": 1114,
      "ÂĵÂĵÂĴÂĶÂĵÂĵÂĵÂĵÂĵÂĵÂĵÂĵÂĵÂĵÂĵÂĵÂĵÂĵÂĵÂĵÂĵÂĵÂĵÂĵÂĵÂĵÂĵÂĵÂĵÂĵÂĵÂĵÂĵÂĵÂĵÂĵÂĵÂĵÂĵÂĵÂĵÂĵÂĵÂĵÂĵÂĵÂĵÂĵÂĵÂĵÂĵÂĵÂĵÂĵÂĵÂĵÂĵÂĵÂĵÂĵÂĵÂĵÂĵÂĵÂĵÂĵÂĵÂĵÂĵÂĵÂĵÂĵÂĵÂĵÂĵÂĵÂĵÂĵÂĵÂĵÂĵÂĵÂĵÂĵÂĵÂĵÂĵÂĵÂĵÂĵÂĵÂĵÂĵÂĵÂĵÂĵÂĵÂĵÂĵÂĵÂĵÂĵÂĵÂĵÂĵÂĵÂĵÂĵÂĵÂĵÂĵÂĵÂĵÂĵÂĵÂĵÂĵÂĵÂĵÂĵÂĵÂĵÂĵÂĵÂĵÂĵ": 1115,
      ":Ē$": 1116,
      "$$'$'$$": 1117,
      ";&": 1118,
      "%&!$$$$$$": 1119,
      "%<": 1120,
      "ĝ!": 1121,
      "*#*": 1122,
      "?Ĕ$Ę$$$$$$$": 1123,
      "ÂĵÂĵÂĵÂĵÂĵÂĵÂĵÂĵÂĵÂĵÂĵÂĵÂĵÂĵÂĵÂĵÂĵÂĵÂĵÂĵÂĵÂĵÂĵÂĵÂĵÂĵÂĵÂĵÂĵÂĵÂĵÂĵÂĵÂĵÂĵÂĵÂĵÂĵÂĵÂĵÂĵÂĵÂĵÂĵÂĵÂĵÂĵÂĵÂĵÂĵÂĵÂĵÂĵÂĵÂĵÂĵÂĵÂĵÂĵÂĵÂĵÂĵÂĵÂĵÂĵÂĵÂĵÂĵÂĵÂĵÂĵÂĵÂĵÂĵÂĵÂĵÂĵÂĵÂĵÂĵÂĵÂĵÂĵÂĵ": 1124,
      "ÂĵÂĵÂĵÂĵÂĵÂĵÂĵÂĵÂĵÂĴÂĶÂĵÂĵÂĵÂĵÂĵÂĵÂĵÂĵÂĵÂĵÂĵÂĵÂĵÂĵÂĵÂĵÂĵÂĵÂĵÂĵÂĵÂĵÂĵÂĵÂĵÂĵÂĵÂĵÂĵÂĵÂĵÂĵÂĵÂĵÂĵÂĵÂĵÂĵÂĵÂĵÂĵÂĵÂĵÂĵÂĵÂĵÂĵÂĵÂĵÂĵÂĵÂĵÂĵÂĵÂĵÂĵÂĵÂĵÂĵÂĵÂĵÂĵÂĵÂĵÂĵÂĵÂĵÂĵÂĵÂĵÂĵÂĵÂĵÂĵÂĵÂĵÂĵÂĵÂĵÂĵÂĵÂĵÂĵÂĵÂĵÂĵÂĵÂĵÂĵÂĵÂĵÂĵÂĵÂĵÂĵÂĵÂĵÂĵÂĵÂĵÂĵÂĵÂĵÂĵÂĵÂĵÂĵÂĵÂĵÂĵÂĵÂĵÂĵÂĵÂĵ": 1125,
      "\"ě$$$$$$$$": 1126,
      "ğ!$$$$$$": 1127,
      "ÂĴÂĵÂĵÂĴ": 1128,
      "*:": 1129,
      "ğ:": 1130,
      "$%$$": 1131,
      "ÂĴÂĵÂĵÂĵÂĴÂĵÂĵ": 1132,
      "!:": 1133,
      "+:": 1134,
      "ÂĵÂĴÂĳÂĶ": 1135,
      "Ě$%$$%%$": 1136,
      "+&": 1137,
      "ÂķÂĶÂĶ": 1138,
      "<-$": 1139,
      "ÂĵÂĵÂĵÂĵÂĵÂĵÂĵÂĵÂĵÂĵÂĵÂĵÂĵÂĵÂĵÂĵÂĵÂĵÂĵÂĵÂĵÂĵÂĵÂĵÂĵÂĵÂĵÂĵÂĵÂĵÂĵÂĵÂĵÂĵÂĵÂĵÂĵÂĵÂĵÂĵÂĵÂĵÂĵÂĵÂĵÂĵÂĵÂĵÂĵÂĵÂĵÂĵÂĵÂĵÂĵÂĵÂĵÂĵÂĵÂĵÂĵÂĵÂĵÂĵÂĵÂĵÂĵÂĵÂĵÂĵÂĵÂĵÂĵÂĵÂĵÂĵÂĵÂĵÂĵÂĵÂĵÂĵÂĵÂĵÂĵÂĵÂĵÂĵÂĵÂĵÂĵÂĵÂĵÂĵÂĵÂĵÂĵÂĵÂĵÂĵÂĵÂĵÂĵÂĵÂĵÂĵÂĵÂĵÂĵÂĵÂĵÂĵÂĵÂĵÂĵÂĵÂĵÂĵ": 1140,
      "41": 1141,
      "Ė$'": 1142,
      "ÂĵÂĵÂĵÂĵÂĵÂĵÂĵÂĵÂĵÂĵÂĵÂĵÂĵÂĵÂĵÂĵÂĵÂĵÂĵÂĵÂĵÂĵÂĵÂĵÂĵÂĵÂĵÂĵÂĵÂĵÂĵÂĵÂĵÂĵÂĵÂĵÂĵÂĵÂĵÂĵÂĵÂĺ": 1143,
      "Ġ!$$$$$$": 1144,
      "ÂĵÂĵÂĵÂĵÂĵÂĵÂĵÂĵÂĵÂĵÂĵÂĵÂĵÂĵÂĵÂĵÂĵÂĵÂĵÂĵÂĵÂĵÂĵÂĵÂĵÂĵÂĵÂĵÂĵÂĵÂĵÂĵÂĵÂĵÂĵÂĵÂĵÂĵÂĵÂĵÂĵÂĵÂĵÂĵÂĵÂĵÂĵÂĵÂĵÂĵÂĵÂĵÂĵÂĵÂĵÂĵÂĵÂĵÂĵÂĵÂĵÂĵÂĵÂĵÂĵÂĵÂĵÂĵÂĵÂĵÂĵÂĵÂĵÂĵÂĵÂĵÂĵÂĵÂĵÂĵÂĵÂĵÂĵÂĵÂĵÂĵÂĵÂĵÂĵÂĵÂĵÂĵÂĵÂĵÂĵÂĵÂĵÂĵÂĵÂĵÂĵÂĵÂĵÂĵÂĵÂĵÂĵÂĵÂĵÂĵÂĵÂĵÂĵÂĵÂĶÂĴÂĵÂĵÂĵÂĵÂĵÂĵÂĵÂĵÂĵÂĵ": 1145,
      "-#.": 1146,
      "Ė$\"": 1147,
      "%,": 1148,
      ">Ĕ$Ĝ!$$$$$$": 1149,
      "&.$$$$$$$$.": 1150,
      "ÂĵÂĵÂĵÂĵÂĳ": 1151,
      "%+$$$$$$$$": 1152,
      "%#": 1153,
      "Ġ$$$$$$$$": 1154,
      "$'%%$$": 1155,
      "$%$%%$": 1156,
      "Ę$\"": 1157,
      ")'": 1158,
      "ÂĵÂĲÂĶÂĵÂĵÂĵÂĵÂĵÂĵÂĵÂĵÂĵÂĵÂĵÂĵÂĵÂĵÂĵÂĵÂĵÂĵÂĵÂĵÂĵÂĵÂĵÂĵÂĵÂĵÂĵÂĵÂĵÂĵÂĵÂĵÂĵÂĵÂĵÂĵÂĵÂĵÂĵÂĵÂĵÂĵÂĵÂĵÂĵÂĵÂĵÂĵÂĵÂĵÂĵÂĵÂĵÂĵÂĵÂĵÂĵÂĵÂĵÂĵÂĵÂĵÂĵÂĵÂĵÂĵÂĵÂĵÂĵÂĵÂĵÂĵÂĵÂĵÂĵÂĵÂĵÂĵÂĵÂĵÂĵÂĵÂĵÂĵÂĵÂĵÂĵÂĵÂĵÂĵÂĵÂĵÂĵÂĵÂĵÂĵÂĵÂĵÂĵÂĵ": 1159,
      "#ĝ$$$$$$$$": 1160,
      "+@": 1161,
      "ĜĞ": 1162,
      "ÂĵÂĶÂķ": 1163,
      ",?": 1164,
      "'?.": 1165,
      "%&$&%$": 1166,
      "%/": 1167,
      "\"\"": 1168,
      "%%!$$$$$$": 1169,
      "ÂĵÂĵÂĵÂĵÂĴÂĵÂĴÂĵÂĵÂĵ": 1170,
      "/$$\"": 1171,
      "ĝĞ": 1172,
      "$!": 1173,
      "#Ğ$$$$$$$$": 1174,
      "ÂĶÂĵÂĵÂĵÂĵÂĵÂĵÂĵÂĵÂĵÂĵÂĵÂĵÂĵÂĵÂĵÂĵÂĵÂĵÂĵÂĵÂĵÂĵÂĵÂĵÂĵÂĵÂĵÂĵÂĵÂĵÂĵÂĵÂĵÂĵÂĵÂĵÂĵÂĵÂĵÂĵÂĵÂĵÂĵÂĵÂĵÂĵÂĵÂĵÂĵÂĵÂĵÂĵÂĵÂĵÂĵÂĵÂĵÂĵÂĵÂĵÂĵÂĵÂĵÂĵÂĵÂĵÂĵÂĵÂĵÂĵÂĵÂĵÂĵÂĵÂĵÂĵÂĵÂĵÂĵÂĵÂĵÂĵÂĵÂĵÂĵÂĵÂĵÂĵÂĵÂĵÂĵÂĵÂĵÂĵÂĵÂĵÂĵÂĵÂĵÂĵÂĵÂĵÂĵÂĵÂĵÂĵ": 1175,
      ",$$#": 1176,
      "$$$$$$$$$$$$$$$$$$$$$$$$$$$$$$$$$$$$$$$$": 1177,
      "ĝ<": 1178,
      "Ĝ!": 1179,
      "ÂĵÂĵÂĵÂĵÂķ": 1180,
      "%'$'": 1181,
      "&'": 1182,
      ")#)": 1183,
      "ÂĵÂĵÂĵÂĵÂĵÂĵÂİÂĵÂĵÂĵÂĵÂĵÂĵÂĵÂĵÂĵÂĵÂĵÂĵÂĵÂĵÂĵÂĵÂĵÂĵÂĵÂĵÂĵÂĵÂĵÂĵÂĵÂĵÂĵÂĵÂĵÂĵÂĵÂĵÂĵÂĵÂĵÂĵÂĵÂĵÂĵÂĵ": 1184,
      "-ğ": 1185,
      "*'$": 1186,
      "Ĝ>": 1187,
      "ÂĵÂĵÂĵÂĵÂĵÂĵÂĺÂĵÂĵÂĵÂĵÂĵÂĵÂĺ": 1188,
      "&$$": 1189,
      "ÂĵÂį": 1190,
      "?Ĕ$ă$$$$$$$": 1191,
      "ÂĸÂĶ": 1192,
      "%*$$$$$$$$": 1193,
      "ÂĵÂĵÂĶÂĴÂĵÂĵÂĵÂĵÂĵÂĵÂĵÂĵÂĵÂĵÂĵÂĵÂĵÂĵÂĵÂĵÂĵÂĵÂĵÂĵÂĵÂĵÂĵÂĵÂĵÂĵÂĵÂĵÂĵÂĵÂĵÂĵÂĵÂĵÂĵÂĵÂĵÂĵÂĵÂĵÂĵÂĵÂĵÂĵÂĵÂĵÂĵÂĵÂĵÂĵÂĵÂĵÂĵÂĵÂĵÂĵÂĵÂĵÂĵÂĵÂĵÂĵÂĵÂĵÂĵÂĵÂĵÂĵÂĵÂĵÂĵÂĵÂĵÂĵÂĵÂĵÂĵÂĵÂĵÂĵÂĵÂĵÂĵÂĵÂĵÂĵÂĵÂĵÂĵÂĵÂĵÂĵÂĵÂĵÂĵÂĵÂĵÂĵÂĵÂĵÂĵÂĵÂĵÂĵÂĵÂĵÂĵÂĵÂĵÂĵÂĵÂĵÂĵÂĵÂĵÂĵÂĵÂĵÂĵÂĵÂĵÂĵ": 1194,
      "$$$$$$$-": 1195,
      "(!$$$$$$": 1196,
      "ĠH": 1197,
      "$$$$$$$$$$$$$$$$$$$$$$$$$$$$$$$$$$$$$$$$$$$$$$$$$$$$$$$$": 1198,
      "ÂĵÂĳÂĳ": 1199,
      "%$*": 1200,
      "=ĕ$ę": 1201,
      "#=/": 1202,
      "?Đ$": 1203,
      "ā$&?": 1204,
      "%&(?.": 1205,
      ">đ": 1206,
      "/$$#": 1207,
      "ÂĵÂĶÂĵ": 1208,
      "$&)": 1209,
      "-$$#": 1210,
      "ÂķÂĵÂĵÂĵ": 1211,
      "'(": 1212,
      "=ė": 1213,
      "/Ğ": 1214,
      "$$$$$$$$$$$$$$$$$$$$$$$$$$$$$$$$$$$$$$$$$$$$$$$$$$$$$$$$$$$$$$$$$$$$$$$$$$$$$$$$$$$$$$$$$$$$$$$$$$$$$$$$": 1215,
      "Ĕ$$$$$$$": 1216,
      "Ĝ$$#;-": 1217,
      "ÂĵÂĵÂĵÂĵÂĵÂĵÂĵÂĵÂĵÂĵÂĵÂĵÂĵÂĵÂĵÂĵÂĵÂĵÂĵÂĵÂĵÂĵÂĵÂĵÂĵÂĵÂĵÂĵÂĵÂĵÂĵÂĵÂĵÂĵÂĵ": 1218,
      "ė$!": 1219,
      "GF": 1220,
      "(>.": 1221,
      ",>": 1222,
      "ÂĵÂĵÂĵÂĵÂĴÂĵÂĵ": 1223,
      "+'$": 1224,
      "ÂĵÂĵÂĵÂĵÂĵÂĵÂĵÂĵÂĵÂĵÂĵÂĵÂĵÂİÂĵÂĵÂĵÂĵÂĵÂĵÂĵÂĵÂĵÂĵÂĵÂĵÂĵÂĵÂĵÂĵÂĵÂĵÂĵÂĵÂĵÂĵÂĵÂĵÂĵÂĵÂĵÂĵÂĵÂĵÂĵÂĵÂĵÂĵÂĵÂĵÂĵÂĵÂĵÂĵ": 1225,
      "&(": 1226,
      "Ē$&": 1227,
      "+-": 1228,
      "ÂĵÂĲÂĴÂĵÂĵ": 1229,
      "ÂĵÂĵÂĵÂĵÂĵÂĵÂĲ": 1230,
      "ÂĵÂķÂĵÂķ": 1231,
      "ğĚ": 1232,
      "$<": 1233,
      "ÂĶÂĵÂĵÂĵÂĵÂĵÂĵÂĶ": 1234,
      "\"=/": 1235,
      "#ğ$$$$$$$$": 1236,
      "'$%": 1237,
      "ē$$$$$$$": 1238,
      "?Ē$ę$%$$%%$": 1239,
      "?:ē$": 1240,
      "&/$": 1241,
      "$$$$$$$$$$$$$$$$$$$$$$$$$$$$$$$$$$$$$$$$$$$$$$$$$$$$$$$$$$$$$$$$$$$$$$$$$$$$": 1242,
      "Đ$-!$$$$$$": 1243,
      "ÂĵÂĵÂĵÂĵÂĵÂĵÂĵÂĵÂĵÂĵÂĵÂĵÂĵÂĳ": 1244,
      "ÂĵÂĵÂĵÂĵÂĵÂĵÂĵÂĵÂĵÂĵÂĵÂĵÂĵÂĵÂĵÂĵÂĵÂĵÂĵÂĵÂĵÂĵÂĵÂĵÂĵÂĵÂĵÂĵÂĵÂĵÂĵÂĵÂĵÂĵÂĵÂĵÂĵÂĵÂĵÂĵÂĵÂĵÂĵÂĵÂĵÂĵÂĵÂĵÂĵÂĵÂĵÂĵÂĵÂĵÂĵÂĵÂĵÂĵÂĵÂĵÂĵÂĵÂĵÂĵÂĵÂĵÂĵÂĵÂĵÂĵÂĵÂĵÂĵÂĵÂĵÂĵÂĵÂĵÂĵÂĵÂĵÂĵÂĵÂĵÂĵÂĵÂĵÂĵÂĵÂĵÂĵÂĵÂĵÂĵÂĵÂĵÂĵÂĵÂĵÂĵÂĵÂĵÂĵÂĵÂĵÂĵÂĵÂķ": 1245,
      "Ġ\"": 1246,
      "$$$$$$$ě": 1247,
      ".!": 1248,
      "ÂĵÂĵÂĵÂĵÂĵÂĵÂĵÂĵÂĴÂĵÂĴ": 1249,
      "'?*": 1250,
      "53": 1251,
      "Ė$(": 1252,
      "ÂĵÂĵÂĵÂĵÂĵÂĵÂĵÂĵÂĵÂĵÂĴ": 1253,
      ")@:Ĕ$": 1254,
      "ÂĵÂĶÂĵÂĵÂĵÂĵÂĵÂĵÂĵÂĵÂĵÂĵÂĵÂĵÂĵÂĵÂĵÂĵÂĵÂĵÂĵÂĵÂĵÂĵÂĵÂĵÂĵÂĵÂĵÂĵÂĵÂĵÂĵÂĵÂĵÂĵÂĵÂĵÂĵÂĵÂĵÂĵÂĵÂĵÂĵÂĵÂĵÂĵÂĵÂĵÂĵÂĵÂĵÂĵÂĵÂĵÂĵÂĵÂĵÂĵÂĵÂĵÂĵÂĵÂĵÂĵÂĵÂĵÂĵÂĵÂĵÂĵÂĵÂĵÂĵÂĵÂĵÂĵÂĵÂĵÂĵÂĵÂĵÂĵÂĵÂĵÂĵÂĵÂĵÂĵÂĵÂĵÂĵÂĵÂĵÂĵÂĵÂĵÂĵÂĵÂĵÂĵÂĵÂĵÂĵÂĵÂĵÂĵÂĵÂĵÂĵÂĵÂĵÂĵÂĵÂĵ": 1255,
      "ÂĶÂĵÂĶÂĵÂĵÂĵ": 1256,
      "%$\"": 1257,
      ".($": 1258,
      ":&$+#;-": 1259,
      ",)": 1260,
      "ÂķÂĴÂĴÂĵÂĵ": 1261,
      "Ĝ?": 1262,
      "DD": 1263,
      "ÂĶÂĵÂĵÂĴ": 1264,
      "?Ē$ę": 1265,
      "Ĝ=": 1266,
      "ÂĵÂĵÂĵÂĵÂĵÂĵÂĵÂĵÂĵÂĵÂĵÂĵÂĵÂĵÂĵÂĵÂĵÂĵÂĵÂĵÂĵÂĵÂĵÂĵÂĵÂĵÂĵÂĵÂĵÂĵÂĵÂĵÂĵÂĵÂĵÂĵÂĵÂĵÂĵÂĵÂĵÂĵÂĵÂĵÂĵÂĵÂĵÂĵÂĵÂĵÂĵÂĵÂĵÂĵÂĵÂĵÂĵÂĵÂĵÂĵÂĵÂĵÂĵÂĵÂĵÂĵÂĵÂĵÂĵÂĵÂĵÂĵÂĴ": 1267,
      "ÂĵÂĵÂĵÂĵÂĵÂĵÂĵÂĵÂĵÂĵÂĶ": 1268,
      "%=/": 1269,
      "%$&$": 1270,
      ".$$#": 1271,
      "Ğ;": 1272,
      "@;Ė": 1273,
      "((": 1274,
      "$$$$$$$$$$$$$$$$$$$$$$$$$$$$$$$$$$$$$$$$$$$$$$$$$$$$$$$$$$$$$$$$$$$$$$$$$$$$$$$$$$$$": 1275,
      "ÂĹÂĸÂĲ": 1276,
      "=Ė$": 1277,
      "?/": 1278,
      "ÂĶÂĴÂĴÂĵÂĵ": 1279,
      ":.": 1280,
      "-#$$%#$": 1281,
      "34": 1282,
      "%$!$$$$$$": 1283,
      ">Ĕ'/": 1284,
      "ÂĵÂĶÂĵÂĵÂĵÂĵÂĵÂĵÂĵÂĵÂĵ": 1285,
      "<Ė": 1286,
      "$'$'$$": 1287,
      "@:Ĕ$-": 1288,
      "\"Ě$$$$$$$$Ě": 1289,
      "%$%@": 1290,
      "\"Ĝ$$$$$$$$": 1291,
      ",*": 1292,
      "ÂĵÂĵÂĵÂĵÂĵÂĵÂĵÂĵÂĵÂĵÂĵÂĵÂĵÂĵÂĵÂĵÂĵÂĵÂĵÂĵÂĵÂĵÂĵÂĵÂĵÂĵÂĵÂĵÂĵÂĵÂĵÂĵÂĵÂĵÂĵÂĵÂĵÂĵÂĵÂĵÂĵÂĵÂĵÂĵÂĵÂĵÂĵÂĵÂĵÂĵÂĵÂĵÂĵÂĵÂĵÂĵÂĵÂĵÂĵÂĵÂĵÂĵÂĵÂĵÂĵÂĵÂĵÂĵÂĵÂĵÂĵÂĵÂĵÂĵÂĵÂĵÂĵÂĵÂĵÂĵÂĵÂĵÂĵÂĵÂĵÂĵÂĵÂĵÂĵÂĵÂĵÂĵÂĵÂĵÂĵÂĵÂĵÂĵÂĵÂĵÂĵÂĵÂĵÂĵÂĵÂĵÂĵÂĶÂĵÂĵÂĵÂĶÂĵÂĵ": 1293,
      "/:'$": 1294,
      "*:ĕ$": 1295,
      "+:Ĕ$": 1296,
      "=':": 1297,
      "?)": 1298,
      "ÂĵÂĵÂĵÂĵÂĵÂĵÂĵÂĵÂĵÂĵÂĵÂĴÂĵÂĵÂĵÂĵÂĵÂĵÂĵÂĵÂĵÂĵÂĵÂĵÂĵÂĵÂĵÂĵÂĵÂĵÂĵÂĵÂĵÂĵÂĵÂĵÂĵÂĵÂĵÂĵÂĵÂĵÂĵÂĵÂĵÂĵÂĵÂĵÂĵÂĵÂĵÂĵÂĵÂĵÂĵÂĵÂĵÂĵÂĵÂĵÂĵÂĵÂĵÂĵÂĵÂĵÂĵÂĵÂĵÂĵÂĵÂĵÂĵÂĵÂĵÂĵÂĵÂĵÂĵÂĵÂĵÂĵÂĵÂĵÂĵÂĵÂĵÂĵÂĵÂĵÂĵÂĵÂĵÂĵÂĵÂĵÂĵÂĵÂĵÂĵÂĵÂĵÂĵÂĵÂĵÂĵÂĵÂĵÂĵÂĵÂĵÂĵÂĵÂĵÂĵÂĵÂĵÂĵÂĵÂĵ": 1299,
      "Ė$$ÂĵÂĵÂĵÂĵÂĵÂĵÂİ": 1300,
      "Ė$$ÂĵÂĵÂĵÂĵÂĵÂĵÂĵÂĵÂĵÂĵÂĵÂĵÂĵÂĺ": 1301,
      ".:Ĕ$$": 1302,
      "ÂĵÂĵÂĵÂĵÂĵÂĵÂĵÂĵÂĵÂĵÂĵÂĵÂĵÂĵÂĵÂĵÂĵÂĵÂĵÂĵÂĵÂĵÂĵÂĵÂĵÂĵÂĵÂĵÂĵÂĵÂĵÂĵÂĵÂĵÂĵÂĵÂĵÂĵÂĵÂĵÂĵÂĵÂĵÂĵÂĵÂĵÂĵÂĵÂĵÂĵÂĵÂĵÂĵÂĵÂĵÂĵÂĵÂĵÂĵÂĵÂĵÂĵÂĵÂĵÂĵÂĵÂĵÂĵÂĵÂĵÂĵÂĵÂĵÂĵÂĵÂĵÂĵÂĵÂĵÂĵÂĵÂĵÂĵÂĵÂĵÂĵÂĵÂĵÂĵÂĵÂĵÂĵÂĵÂĵÂĵÂĵÂĵÂĵÂĵÂĵÂĵÂĵÂĵÂĵÂĵÂĵÂĵÂĵÂĵÂĵÂĵÂĵÂĵÂĵÂĵÂĵÂĵÂĵÂĵÂĵÂĲÂĳ": 1303,
      "ÂĵÂĲÂĴÂĳÂķ": 1304,
      "%$%@*:ĕ$": 1305,
      "=':Ę$": 1306,
      "ÂĵÂĵÂĵÂĵÂĵÂĵÂĵÂĵÂĵÂĵÂĵÂĴÂĵÂĵÂĵÂĵÂĵÂĵÂĵÂĵÂĵÂĵÂĵÂĵÂĵÂĵÂĵÂĵÂĵÂĵÂĵÂĵÂĵÂĵÂĵÂĵÂĵÂĵÂĵÂĵÂĵÂĵÂĵÂĵÂĵÂĵÂĵÂĵÂĵÂĵÂĵÂĵÂĵÂĵÂĵÂĵÂĵÂĵÂĵÂĵÂĵÂĵÂĵÂĵÂĵÂĵÂĵÂĵÂĵÂĵÂĵÂĵÂĵÂĵÂĵÂĵÂĵÂĵÂĵÂĵÂĵÂĵÂĵÂĵÂĵÂĵÂĵÂĵÂĵÂĵÂĵÂĵÂĵÂĵÂĵÂĵÂĵÂĵÂĵÂĵÂĵÂĵÂĵÂĵÂĵÂĵÂĵÂĵÂĵÂĵÂĵÂĵÂĵÂĵÂĵÂĵÂĵÂĵÂĵÂĵÂĶÂĵÂĶÂĵÂĵÂĵ": 1307,
      "ÂĵÂĵÂĵÂĵÂĵÂĵÂĵÂĵÂĵÂĵÂĵÂĵÂĵÂĵÂĵÂĵÂĵÂĵÂĵÂĵÂĵÂĵÂĵÂĵÂĵÂĵÂĵÂĵÂĵÂĵÂĵÂĵÂĵÂĵÂĵÂĵÂĵÂĵÂĵÂĵÂĵÂĵÂĵÂĵÂĵÂĵÂĵÂĵÂĵÂĵÂĵÂĵÂĵÂĵÂĵÂĵÂĵÂĵÂĵÂĵÂĵÂĵÂĵÂĵÂĵÂĵÂĵÂĵÂĵÂĵÂĵÂĵÂĵÂĵÂĵÂĵÂĵÂĵÂĵÂĵÂĵÂĵÂĵÂĵÂĵÂĵÂĵÂĵÂĵÂĵÂĵÂĵÂĵÂĵÂĵÂĵÂĵÂĵÂĵÂĵÂĵÂĵÂĵÂĵÂĵÂĵÂĵÂĵÂĵÂĵÂĵÂĵÂĵÂĵÂĵÂĵÂĵÂĵÂĵÂĵÂĲÂĳÂĴÂĵÂĵÂĵ": 1308,
      "ÂĵÂĶÂĵÂĵÂĵÂĸ": 1309,
      "đ$ă$$$$$$$": 1310,
      "-(%": 1311,
      "ĕ#": 1312,
      "ÂĴÂĴÂĵÂĵ": 1313,
      "?đ$ę$%$$%%$": 1314,
      "\"$$$$$$": 1315,
      ":'$$#;-": 1316,
      "ÂĵÂĳÂĳÂķ": 1317,
      "Ē#": 1318,
      "%&*$$$$$$": 1319,
      "ÂĵÂĹÂĴÂĵÂĵ": 1320,
      "ė$%": 1321,
      "Ē$$$$$$$": 1322,
      "ĕ$Đ$": 1323,
      "Ę&%$$%%$": 1324,
      "%$(?-": 1325,
      "$$$$$$$$$$$$$$$$$$$$$$$$$$$$": 1326,
      ".Ğ": 1327,
      "85": 1328,
      "-#-": 1329,
      "ÂıÂĸÂĵÂĵÂĵÂĵÂĵÂĵÂĵÂĵÂĵÂĵÂĵÂĵÂĵÂĵÂĵÂĵÂĵÂĵÂĵÂĵÂĵÂĵÂĵÂĵÂĵÂĵÂĵÂĵÂĵÂĵÂĵÂĵÂĵÂĵÂĵÂĵÂĵÂĵÂĵÂĵÂĵÂĵÂĵÂĵÂĵÂĵÂĵÂĵÂĵÂĵÂĵÂĵÂĵÂĵÂĵÂĵÂĵÂĵÂĵÂĵÂĵÂĵÂĵÂĵÂĵÂĵÂĵÂĵÂĵÂĵÂĵÂĵÂĵÂĵÂĵÂĵÂĵÂĵÂĵÂĵÂĵÂĵÂĵÂĵÂĵÂĵÂĵÂĵÂĵÂĵÂĵÂĵÂĵÂĵÂĵÂĵÂĵÂĵÂĵÂĵÂĵÂĵÂĵÂĵÂĵÂĵÂĵÂĵ": 1330,
      "$;": 1331,
      "ÂĵÂĶÂĵÂĵÂĵÂĵÂĵÂĵÂĵÂĵÂĵÂĵÂĵÂĵÂĵÂĵÂĵÂĵÂĵÂĵÂĵÂĵÂĵÂĵÂĵÂĵÂĵÂĵÂĵÂĵÂĵÂĵÂĵÂĵÂĵÂĵÂĵÂĵÂĵÂĵÂĵÂĵÂĵÂĵÂĵÂĵÂĵÂĵÂĵÂĵÂĵÂĵÂĵÂĵÂĵÂĵÂĵÂĵÂĵÂĵÂĵÂĵÂĵÂĵÂĵÂĵÂĵÂĵÂĵÂĵÂĵÂĵÂĵÂĵÂĵÂĵÂĵÂĵÂĵÂĵÂĵÂĵÂĵÂĵÂĵÂĵÂĵÂĵÂĵÂĵÂĵÂĵÂĵÂĵÂĵÂĵÂĵÂĵÂĵÂĵÂĵÂĵ": 1332,
      "ÂĴÂĶÂĵ": 1333,
      "ÂĵÂĵÂĴÂĶÂĵÂĵÂĵÂĵÂĵÂĵÂĵÂĵÂĵÂĵÂĵÂĵÂĵÂĵÂĵÂĵÂĵÂĵÂĵÂĵÂĵÂĵÂĵÂĵÂĵÂĵÂĵÂĵÂĵÂĵÂĵÂĵÂĵÂĵÂĵÂĵÂĵÂĵÂĵÂĵÂĵÂĵÂĵÂĵÂĵÂĵÂĵÂĵÂĵÂĵÂĵÂĵÂĵÂĵÂĵÂĵÂĵÂĵÂĵÂĵÂĵÂĵÂĵÂĵÂĵÂĵÂĵÂĵÂĵÂĵÂĵÂĵÂĵÂĵÂĵÂĵÂĵÂĵÂĵÂĵÂĵÂĵÂĵÂĵÂĵÂĵÂĵÂĵÂĵÂĵÂĵÂĵÂĵÂĵÂĵÂĵÂĵÂĵÂĵÂĵÂĵÂĵÂĵÂĵÂĵÂĵÂĵÂĵ": 1334,
      ",ğ": 1335,
      ".?": 1336,
      "ė$#": 1337,
      "ÂĵÂĵÂĵÂĵÂĵÂĵÂĵÂĵÂĵÂĵÂĵÂĵÂĵÂĵÂĵÂĵÂĵÂĵÂĵÂĵÂĵÂĵÂĵÂĵÂĵÂĵÂĵÂĵÂĵÂĵÂĵÂĵÂĵÂĵÂĵÂĵÂĵÂĵÂĵÂĵÂĵÂĵÂĵÂĵÂĵÂĵÂĵÂĵÂĵÂĵÂĵÂĵÂĵÂĵÂĵÂĵÂĵÂĵÂĵÂĵÂĵÂĵÂĵÂĵÂĵÂĵÂĵÂĵÂĵÂĵÂĵÂĵÂĵÂĵÂĵÂĵÂĵÂĵÂĵÂĵÂĵÂĵÂĵÂĵÂĵÂĵÂĵÂĵÂĵÂĵÂĵÂĵÂĵÂĶÂĴÂĵÂĵÂĵÂĵÂĵÂĵÂĵÂĵÂĵÂĵ": 1338,
      "ÂĵÂĵÂĵÂĵÂĵÂĵÂĵÂĵÂķÂĶÂĶ": 1339,
      "ÂĵÂĵÂĵÂĵÂĵÂĵÂĵÂĵÂķÂĶÂĶÂĵÂĵÂĵÂĵÂĵÂĵÂĵÂĵÂĵÂĵÂĵÂĵÂĵÂĵÂĵÂĵÂĵÂĵÂĵÂĵÂĵÂĵÂĵÂĵÂĵÂĵÂĵÂĵÂĵÂĵÂĵÂĵÂĵÂĵÂĵÂĵÂĵÂĵÂĵÂĵÂĵÂĵÂĵÂĵÂĵÂĵÂĵÂĵÂĵÂĵÂĵÂĵÂĵÂĵÂĵÂĵÂĵÂĵÂĵÂĵÂĵÂĵÂĵÂĵÂĵÂĵÂĵÂĵÂĵÂĵÂĵÂĵÂĵÂĵÂĵÂĵÂĵÂĵÂĵÂĵÂĵÂĵÂĵÂĵÂĵÂĵÂĵÂĵÂĵÂĵÂĵÂĵÂĵÂĵÂĵÂĵÂĵÂĵÂĵÂĵÂĵÂĵÂĵÂĵÂĵÂĵÂĵÂĵÂĵÂĵÂĵÂĵÂĵÂĵÂĵ": 1340,
      "Ġ?/": 1341,
      "<Ė$/": 1342,
      "ÂĸÂĸÂĲ": 1343,
      "ÂĵÂĵÂĵÂĵÂĵÂĵÂĵÂĴÂĴÂĴ": 1344,
      "/$&%": 1345,
      ":Ė": 1346,
      "$&\"$": 1347,
      "ÂĵÂĵÂĵÂĵÂĵÂĵÂĵÂĵÂĵÂĵÂĵÂĵÂĵÂĵÂĵÂĵÂĵÂĵÂĵÂĵÂĵÂĵÂĵÂĵÂĵÂĵÂĵÂĵÂĵÂĵÂĵÂĵÂĵÂĵÂĵÂĵÂĵÂĵÂĵÂĵÂĵÂĵÂĵÂĵÂĵÂĵÂĵÂĵÂĵÂĵÂĵÂĵÂĵÂĵÂĵÂĵÂĵÂĵÂĵÂĵÂĵÂĵÂĵÂĵÂĵÂĵÂĵÂĵÂĵÂĵÂĵÂĵÂĵÂĵÂĵÂĵÂĵÂĵÂĵÂĵÂĵÂĵÂĵÂĵÂĵÂĵÂĵÂĵÂĵÂĵÂĵÂĵÂĵÂĵÂĵÂĵÂĵÂĵÂĵÂĴ": 1348,
      "ÂĵÂĵÂĵÂĵÂĵÂĵÂĵÂĵÂĵÂĵÂĵÂĵÂĵÂĵÂĵÂĵÂĵÂĵÂĵÂĵÂĵÂĵÂĵÂĵÂĵÂĵÂĵÂĳ": 1349,
      "ÂĵÂĲÂĳ": 1350,
      "ÃĲ": 1351,
      "$ğ": 1352,
      "%%*$$$$$$": 1353,
      "<ė\"Ě": 1354,
      "(-": 1355,
      "ę%": 1356,
      "ÂĵÂĵÂĵÂĵÂĵÂĵÂĵÂĵÂĵÂĵÂĵÂĵÂĵÂĵÂĵÂĵÂĵÂĵÂĵÂĵÂĵÂĵÂĵÂĵÂĵÂĵÂĵÂĵÂĵÂĵÂĵÂĵÂĵÂĵÂĵÂĵÂĵÂĵÂĵÂĵÂĵÂĵÂĵÂĵÂĵÂĵÂĵÂĵÂĵÂĵÂĵÂĵÂĵÂĵÂĵÂĵÂĵÂĵÂĵÂĵÂĵÂĵÂĵÂĵÂĵÂĵÂĵÂĵÂĵÂĵÂĵÂĵÂĵÂĵÂĵÂĵÂĵÂĵÂĵÂĵÂĵÂĵÂĵÂĵÂĵÂĵÂĵÂĵÂĵÂĵÂĵÂĵÂĵÂĵÂĵÂĵÂĵÂķ": 1357,
      "ÂĵÂĵÂĵÂĵÂĵÂĵÂĵÂĵÂĵÂĶÂĴÂĵÂĵÂĵÂĵÂĵÂĵÂĵÂĵÂĵÂĵÂĵÂĵÂĵÂĵÂĵÂĵÂĵÂĵÂĵÂĵÂĵÂĵÂĵÂĵÂĵÂĵÂĵÂĵÂĵÂĵÂĵÂĵÂĵÂĵÂĵÂĵÂĵÂĵÂĵÂĵÂĵÂĵÂĵÂĵÂĵÂĵÂĵÂĵÂĵÂĵÂĵÂĵÂĵÂĵÂĵÂĵÂĵÂĵÂĵÂĵÂĵÂĵÂĵÂĵÂĵÂĵÂĵÂĵÂĵÂĵÂĵÂĵÂĵÂĵÂĵÂĵÂĵÂĵÂĵÂĵÂĵÂĵÂĵÂĵÂĵÂĵÂĵÂĵÂĵÂĵÂĵÂĵÂĵÂĵÂĵÂĵÂĵÂĵÂĵÂĵÂĵÂĵÂĵÂĵÂĵÂĵÂĵÂĵÂĵÂĵÂĵÂĵÂĵÂĵÂĵ": 1358,
      ",+": 1359,
      "ď$ě": 1360,
      "$&%$$$": 1361,
      "ÂĵÂĸÂĶÂĵÂĵ": 1362,
      "+*": 1363,
      "ÂĵÂĴÂĳ": 1364,
      "%%#$": 1365,
      "+!$$$$$$": 1366,
      "-%$$%%$": 1367,
      ".:ē$": 1368,
      "'>-": 1369,
      "-)": 1370,
      "\".": 1371,
      "ÂĵÂĵÂĵÂĵÂĵÂĵÂĵÂĵÂĵÂĵÂĵÂĵÂĵÂĵÂĵÂĵÂĵÂĵÂĵÂĵÂĵÂĵÂĵÂĵÂĵÂĵÂĵÂĵÂĵÂĵÂĵÂĵÂĵÂĵÂĵÂĵÂĵÂĵÂĵÂĵÂĵÂĵÂĵÂĵÂĵÂĵÂĵÂĵÂĵÂĵÂĵÂĵÂĵÂĵÂĵÂĵÂĵÂĵÂĵÂĵÂĵÂĵÂĵÂĵÂĵÂĵÂĵÂĵÂĵÂĵÂĵÂĵÂĵÂĵÂĵÂĵÂĵÂĵÂĵÂĵÂĵÂĵÂĵÂĳ": 1372,
      "Ė$*": 1373,
      "63": 1374,
      "*@:Ĕ$": 1375,
      "$$%=/": 1376,
      "ğ\"": 1377,
      "ÂĵÂĴÂĵÂĳ": 1378,
      "+#+": 1379,
      "-?": 1380,
      "ÂĵÂĵÂĵÂĵÂĵÂĵÂĵÂĵÂĵÂĵÂĵÂĵÂĵÂĵÂĵÂĵÂĵÂĵÂĵÂĵÂĵÂĵÂĵÂĵÂĵÂĵÂĵÂĵÂĵÂĵÂĵÂĵÂĵÂĵÂĵÂĵÂĵÂĵÂĵÂĵÂĵÂĵÂĵÂĵÂĵÂĵÂĵÂĵÂĵÂĵÂĵÂĵÂĵÂĵÂĵÂĵÂĵÂĵÂĵÂĵÂĵÂĵÂĵÂĵÂĵÂĵÂĵÂĵÂĵÂĵÂĵÂĵÂĵÂĵÂĵÂĵÂĵÂĵÂĵÂĵÂĵÂĵÂĵÂĵÂĵÂĵÂĵÂĵÂĵÂĵÂĵÂĵÂĵÂĵÂĵÂĵÂĵÂĵÂĵÂĵÂĵÂĵÂĴ": 1381,
      "*&&": 1382,
      "=.": 1383,
      "ÂĹÂĹÂĲ": 1384,
      "->": 1385,
      "ÂĳÂĴÂĵÂĵ": 1386,
      "/+": 1387,
      "Ě%": 1388,
      "=ĕ$ę$$$$$$$": 1389,
      "15": 1390,
      "ę&": 1391,
      "#'%%": 1392,
      "ÂĶÂĵÂĵÂĵÂĵÂĵÂĵÂĵÂĵÂĵÂĵÂĵ": 1393,
      "ÂıÂĵÂĵÂĵÂĵÂĵÂĵÂĵÂĵÂĵÂĵÂĵÂĵÂĵÂĵÂĵÂĵÂĵÂĵÂĵÂĵÂĵÂĵÂĵÂĵÂĵÂĵÂĵÂĵÂĵÂĵÂĵÂĵÂĵÂĵÂĵÂĵÂĵÂĵÂĵÂĵÂĵÂĵÂĵÂĵÂĵÂĵÂĵÂĵÂĵÂĵÂĵÂĵÂĵÂĵ": 1394,
      "ÂĵÂĵÂĵÂĵÂĵÂĵÂĵÂĵÂĵÂĵÂĵÂĵÂĵÂĵÂĵÂĵÂĵÂĵÂĵÂĵÂĵÂĵÂĵÂĵÂĵÂĵÂĵÂĵÂĵÂĵÂĵÂĵÂĵÂĵÂĵÂĵÂĵÂĵÂĵÂĵÂĵÂĵÂĵÂĵÂĵÂĵÂĵÂĵÂĵÂĵÂĵÂĵÂĵÂĵÂĵÂĵÂĵÂĵÂıÂĵÂĵÂĵÂĵÂĵÂĵÂĵÂĵÂĵÂĵÂĵÂĵÂĵÂĵÂĵÂĵÂĵÂĵÂĵÂĵÂĵÂĵÂĵÂĵÂĵÂĵÂĵÂĵÂĵÂĵÂĵÂĵÂĵÂĵÂĵÂĵÂĵÂĵÂĵÂĵÂĵÂĵÂĵÂĵÂĵÂĵÂĵÂĵÂĵÂĵÂĵÂĵÂĵÂĵ": 1395,
      "Ĕ#&": 1396,
      "Ė$)": 1397,
      "%)$$$$$$$$": 1398,
      "ÂĵÂĵÂĵÂĵÂĵÂĵÂĵÂĵÂĵÂĵÂĵÂĵÂĵÂĵÂĵÂĵÂĵÂĵÂĵÂĵÂĵÂĵÂĵÂĵÂĵÂĵÂĵÂĵÂĵÂĵÂĵÂĵÂĵÂĵÂĵÂĵÂĵÂĵÂĵÂĵÂĵÂĵÂĵÂĵÂĵÂĵÂĵÂĵÂĵÂĵÂĵÂĵÂĵÂĵÂĵÂĵÂĵÂĵÂĵÂĵÂĵÂĵÂĵÂĵÂĵÂĵÂĵÂĵÂĵÂĵÂĵÂĵÂĵÂĵÂĵÂĵÂĵÂĵÂĵÂĵÂĵÂĵÂĵÂĵÂĵÂĵÂĵÂĵÂĵÂĵÂĵÂĵÂĵÂĶÂĴÂĵÂĵÂĵ": 1399,
      "$$$=/": 1400,
      "$$$$$$$,": 1401,
      "ÂĵÂĵÂĵÂĵÂĵÂĵÂķ": 1402,
      "Ė$+": 1403,
      "Âİ": 1404,
      "ÂĵÂĵÂĵÂĵÂĵÂĵÂĵÂĵÂĳ": 1405,
      "ÂĴÂĵÂĵÂĵÂĵÂĵÂĵÂĵÂĵÂĵÂĵÂĵÂĵÂĵÂĵÂĵÂĵÂĵÂĵÂĵÂĵÂĵÂĵÂĵÂĵÂĵÂĵÂĵÂĵÂĵÂĵÂĵÂĵÂĵÂĵÂĵÂĵÂĵÂĵÂĵÂĵÂĵÂĵÂĵÂĵÂĵÂĵÂĵÂĵÂĵÂĵÂĵÂĵÂĵÂĵÂĵÂĵÂĵÂĵÂĵÂĵÂĵÂĵÂĵÂĵÂĵÂĵÂĵÂĵ": 1406,
      "ÂİÂĵÂĵÂĵÂĵÂĵÂĵÂİ": 1407,
      "-Ğ": 1408,
      "ÂĵÂıÂĵÂıÂĶÂĵÂĵÂĵÂĵÂĵÂĵÂĵÂĵÂĵÂĵÂĵÂĵÂĵÂĵÂĵÂĵÂĵÂĵÂĵÂĵÂĵÂĵÂĵÂĵÂĵÂĵÂĵÂĵÂĵÂĵÂĵÂĵÂĵÂĵÂĵÂĵÂĵÂĵÂĵÂĵÂĵÂĵÂĵÂĵÂĵÂĵÂĵÂĵÂĵÂĵÂĵÂĵÂĵÂĵÂĵÂĵÂĵÂĵÂĵÂĵÂĵÂĵÂĵÂĵÂĵÂĵÂĵÂĵÂĵÂĵÂĵÂĵÂĵÂĵÂĵÂĵÂĵÂĵÂĵÂĵÂĵÂĵÂĵÂĵÂĵÂĵÂĵÂĵÂĵÂĵÂĵÂĵÂĵÂĵÂĵÂĵÂĵÂĵÂĵÂĵ": 1409,
      "$%$%#$": 1410,
      "ĕ$-": 1411,
      "ÂĵÂĲÂĲÂĸ": 1412,
      "('": 1413,
      ")%&": 1414,
      "Ē$Ę": 1415,
      "ÂĵÂĵÂĵÂĶÂĵÂĵÂĵÂĵÂĵÂĵÂĵÂĵÂĵÂĵÂĵÂĵÂĵÂĵÂĵÂĵÂĵÂĵÂĵÂĵÂĵÂĵÂĵÂĵÂĵÂĵÂĵÂĵÂĵÂĵÂĵÂĵÂĵÂĵÂĵÂĵÂĵÂĵÂĵÂĵÂĵÂĵÂĵÂĵÂĵÂĵÂĵÂĵÂĵÂĵÂĵÂĵÂĵÂĵÂĵÂĵÂĵÂĵÂĵÂĵÂĵÂĵÂĵÂĵÂĵÂĵÂĵÂĵÂĵÂĵÂĵÂĵÂĵÂĵÂĵÂĵÂĵÂĵÂĵÂĵÂĵÂĵÂĵÂĵÂĵÂĵÂĵÂĵÂĵÂĵÂĵÂĵÂĵÂĵÂĵÂĵÂĵÂĵÂĵÂĵÂĵÂĵÂĵÂĵÂĵÂĵÂĵÂĵÂĵÂĵÂĵÂĵÂĵÂĵÂĵÂĵÂĵÂĵÂĵÂĵÂĵÂĵ": 1416,
      "$$$$$$$+": 1417,
      "Ė$#": 1418,
      "đ&": 1419,
      "ÂĵÂĵÂĵÂĵÂĵÂĵÂĵÂĵÂĵÂĵÂĵÂĵÂĵÂĵÂĵÂĵÂĵÂĵÂĵÂĵÂĵÂĵÂĵÂĵÂĵÂĵÂĵÂĵÂĵÂĵÂĵÂĵÂĵÂĵÂĵÂĵÂĵÂĵÂĵÂĵÂĵÂĵÂĵÂĵÂĵÂĵÂĵÂĵÂĵÂĵÂĵÂĵÂĵÂĵÂĵÂĵÂĵÂĵÂĵÂĵÂĵÂĵÂĵÂĵÂĵÂĵÂĵÂĵÂĵÂĵÂĵÂĵÂĵÂĵÂĵÂĵÂĵÂĵÂĵÂĵÂĵÂĵÂĵÂĵÂĵÂĵÂĵÂĵÂĵÂĵÂĵÂĵÂĵÂĵÂĵÂĵÂĵÂĵÂĵÂĵÂĵÂĵÂĵÂĵÂĵÂĵÂĵÂĵÂĵÂĵÂĵÂĵÂĵÂĵÂĵÂĵÂĵÂĵÂĵÂĵÂĵÂĶÂĴÂĵÂĵÂĵ": 1420,
      "+)": 1421,
      "ě&": 1422,
      "ÂĵÂĵÂĵÂĵÂĵÂĵÂĵÂĵÂĵÂĵÂĵÂĵÂĵÂĵÂĵÂĵÂĵÂĵÂĵÂĵÂĵÂĵÂĵÂĵÂĵÂĵÂĵÂĵÂĵÂĵÂĵÂĵÂĵÂĵÂĵÂĵÂĵÂĵÂĵÂĵÂĵÂĵÂĵÂĵÂĵÂĵÂĵÂĵÂĵÂĵÂĵÂĵÂĵÂĵÂĵÂĵÂĵÂĵÂĵÂĵÂĵÂĵÂĵÂĵÂĵÂĵÂĵÂĵÂĵÂĵÂĵÂĵÂĵÂĵÂĵÂĵÂĵÂĵÂĵÂĵÂĵÂĵÂĵÂĵÂĵÂĵÂĵÂĵÂĵÂĵÂĵÂĵÂĵÂĵÂĵÂĵÂĵÂĵÂĵÂĵÂĵÂĵÂĵÂĵÂĵÂĵÂĵÂĵÂĵÂĵÂĵÂĵÂĵÂĵÂĵÂĵ": 1423,
      "ě?": 1424,
      "Ĕ$Đ$": 1425,
      "Ę$#": 1426,
      "=ĕ\"ę": 1427,
      "!\"": 1428,
      "@:Ė": 1429,
      "ÂıÂĲÂĸ": 1430,
      "ÂĴÂĵÂĵÂĵÂĴÂĵÂĵÂĶÂĵÂĶ": 1431,
      ";ė$": 1432,
      "ÂĵÂĵÂĵÂĵÂĵÂĵÂĵÂĵÂĵÂĵÂĵÂĵÂĵÂĵÂĵÂĵÂĵÂĵÂĵÂĵÂĵÂĵÂĵÂĵÂĵÂĵÂĵÂĵÂĵÂĵÂĵÂĵÂĵÂĵÂĵÂĵÂĵÂĵÂĵÂĵÂĵÂĵÂĵÂĵÂĵÂĵÂĵÂĵÂĴÂĵÂĵÂĵÂĵÂĵÂĵÂĵÂĵÂĵÂĵÂĵÂĵÂĵÂĵÂĵÂĵÂĵÂĵÂĵÂĵÂĵÂĵÂĵÂĵÂĵÂĵÂĵÂĵÂĵÂĵÂĵÂĵÂĵÂĵÂĵÂĵÂĵÂĵÂĵÂĵÂĵÂĵÂĵÂĵÂĵÂĵÂĵÂĵÂĵÂĵÂĵÂĵÂĵÂĵÂĵÂĵÂĵÂĵÂĵÂĵÂĵÂĵÂĵÂĵÂĵÂĵÂĵÂĵ": 1433,
      "ÂĵÂĴÂĵÂĵÂĵÂĵÂĵÂĵÂĵÂĵ": 1434,
      "!?/": 1435,
      "*-": 1436,
      ")-": 1437,
      "ÂĸÂĸÂĳ": 1438,
      "Ė$,": 1439,
      "#<": 1440,
      "ÂĵÂķÂĵ": 1441,
      "Ĕ$<$": 1442,
      "(>/": 1443,
      "'?/": 1444,
      "#;": 1445,
      "*#Ĝ": 1446,
      "ÂĵÂĵÂĵÂĵÂĵÂĵÂĵÂĵÂĵÂĵÂĵÂĵÂĵÂĵÂĵÂĵÂĵÂĵÂĵÂĵÂĵÂĵÂĵÂĵÂĵÂĵÂĵÂĺ": 1447,
      "<ĕ!ę": 1448,
      "ğ$&": 1449,
      "ÂĳÂĵÂĵÂĵÂĵÂĵÂĵÂĳ": 1450,
      "ÂĵÂĶÂĵÂĵÂĵÂĵÂĵÂĵÂĵÂĵÂĵÂĵ": 1451,
      ".:Ĕ$$ÂĴÂĵÂĵÂĵÂĴÂĵÂĵÂĶÂĵÂĶ": 1452,
      "ÂĶÂĴÂĳÂĶ": 1453,
      "=-": 1454,
      "+,": 1455,
      "Ğ\"": 1456,
      "FF": 1457,
      "Ĕ#$": 1458,
      ".$$\"": 1459,
      "ÂĵÂĵÂĵÂĵÂĵÂĵÂĵÂĵÂĵÂĵÂĵÂĵÂĵÂĵÂĵÂĵÂĵÂĵÂĵÂĵÂĵÂĵÂĵÂĵÂĵÂĵÂĵÂĵÂĵÂĵÂĵÂĵÂĵÂĵÂı": 1460,
      "<Ĕ": 1461,
      "Ę$!": 1462,
      ".:ĕ$$#<-": 1463,
      "ÂĵÂķÂĳ": 1464,
      "ÂĶÂĴÂĵÂĵÂĵÂĵÂĵÂĵÂĵÂĵÂĵÂĵÂĵÂĵÂĵÂĵÂĵÂĵÂĵÂĵÂĵÂĵÂĵÂĵÂĵÂĵÂĵÂĵÂĵÂĵÂĵÂĵÂĵÂĵÂĵÂĵÂĵÂĵÂĵÂĵÂĵÂĵÂĵÂĵÂĵÂĵÂĵÂĵÂĵÂĵÂĵÂĵÂĵÂĵÂĵÂĵÂĵÂĵÂĵÂĵÂĵÂĵÂĵÂĵÂĵÂĵÂĵÂĵÂĵÂĵÂĵÂĵÂĵÂĵÂĵÂĵÂĵÂĵÂĵÂĵÂĵÂĵÂĵÂĵÂĵÂĵÂĵÂĵÂĵÂĵÂĵÂĵÂĵÂĵÂĵÂĵÂĵÂĵÂĵÂĵÂĵÂĵÂĵÂĵÂĵÂĵÂĵÂĵÂĵÂĵÂĵÂĵÂĵÂĵÂĵÂĵ": 1465,
      "Â¶ÂĵÂĵÂĵÂĵÂĵÂĵÂ¶ÂĵÂĵÂĵÂĵÂĵÂĵÂĵÂĵÂĵÂĵÂĵÂĵÂĵÂĵÂĵÂĵÂĵÂĵÂĵÂĵÂĵÂĵÂĵÂĵÂĵÂĵÂĵÂĵ": 1466,
      "Ā$&?": 1467,
      "ÂĵÂĶÂĵÂĵÂĵÂĵ": 1468,
      "ÂĶÂĶÂĵÂĵ": 1469,
      "?Ē$.": 1470,
      ";Ė": 1471,
      "Ę!": 1472,
      "Ğ:": 1473,
      ",$#$$%#$": 1474,
      "*(": 1475,
      ":ĕ": 1476,
      ".>": 1477,
      "ÂĴÂĵÂĵÂĵÂĵ": 1478,
      "ÂĵÂĴÂĵ": 1479,
      "Ĝ<": 1480,
      "ď$-": 1481,
      "\"<": 1482,
      "*,": 1483,
      "%($$$$$$$$": 1484,
      ">ē$.-#$$%#$": 1485,
      "\";": 1486,
      "%$%\"$": 1487,
      "!.": 1488,
      "%$#$": 1489,
      "ė$'": 1490,
      "$\"": 1491,
      "'=)": 1492,
      "ÂĸÂĵÂĵ": 1493,
      "ĝ;": 1494,
      "65": 1495,
      "&.!$$$$$$": 1496,
      "%$#;&": 1497,
      "ĕ$<$": 1498,
      "ÂĵÂĵÂĵÂĵÂĵÂĵÂĵÂĵÂĵÂĵÂĵÂĵÂĵÂĲ": 1499,
      "ÂķÂĵÂĵ": 1500,
      "ÂĵÂĵÂĵÂĵÂĵÂĵÂĵÂĵÂĵÂĵÂĵÂĵÂĵÂĵÂĵÂĵÂĵÂĵÂĵÂĵÂĵÂĵÂĵÂĵÂĵÂĵÂĵÂĵÂĵÂĵÂĵÂĵÂĵÂĵÂıÂĵÂĵÂĵÂĵÂĵÂĵÂĵÂĵÂĵÂĵÂĵÂĵÂĵÂĵÂĵÂĵÂĵÂĵÂĵÂĵÂĵÂĵÂĵÂĵÂĵÂĵÂĵÂĵÂĵÂĵÂĵÂĵÂĵÂĵÂĵÂĵÂĵÂĵÂĵÂĵÂĵÂĵÂĵÂĵÂĵÂĵÂĵÂĵÂĵÂĵÂĵÂĵÂĵÂĵÂĵÂĵÂĵÂĵÂĵÂĵÂĵÂĵÂĵÂĵÂĵÂĵÂĵÂĵÂĵÂĵÂĵÂĵÂĵÂĵÂĵÂĵÂĵÂĵÂĵÂĵÂĵÂĵ": 1501,
      "Ġ.": 1502,
      "Ę$$'$'$$": 1503,
      "ė$-$&?": 1504,
      "!>/": 1505,
      "')": 1506,
      "Ė$!": 1507,
      "&%$$": 1508,
      "@;Ē$": 1509,
      "ĚĞ": 1510,
      "ÂĵÂĵÂĵÂĵÂĵÂĵÂĵÂĵÂĵÂĵÂĶÂĵÂĵÂĵÂĵÂĵÂĵÂĵÂĵÂĵÂĵÂĵÂĵÂĵÂĵÂĵÂĵÂĵÂĵÂĵÂĵÂĵÂĵÂĵÂĵÂĵÂĵÂĵÂĵÂĵÂĵÂĵÂĵÂĵÂĵÂĵÂĵÂĵÂĵÂĵÂĵÂĵÂĵÂĵÂĵÂĵÂĵÂĵÂĵÂĵÂĵÂĵÂĵÂĵÂĵÂĵÂĵÂĵÂĵÂĵÂĵÂĵÂĵÂĵÂĵÂĵÂĵÂĵÂĵÂĵÂĵÂĵÂĵÂĵÂĵÂĵÂĵÂĵÂĵÂĵÂĵÂĵÂĵÂĵÂĵÂĵÂĵÂĵÂĵÂĵÂĵÂĵÂĵÂĵÂĵÂĵÂĵÂĵÂĵÂĵÂĵÂĵÂĵÂĵÂĵÂĵÂĵÂĵÂĵÂĵÂĵÂĵÂĵÂĵÂĵÂĵ": 1511,
      "ÂĵÂĳÂĵÂĳ": 1512,
      "Đ$Ĝ": 1513,
      "Ě&": 1514,
      ")#*": 1515,
      "$$(?.": 1516,
      "Đ$ě!$$$$$$": 1517,
      "ÂĵÂĵÂĵÂĵÂĵÂĵÂĵÂĵÂĵÂĵÂĵÂĵÂĵÂĵÂĵÂĵÂĵÂĵÂĵÂĵÂĵÂĵÂĵÂĵÂĵÂĵÂĵÂĵÂĵÂĵÂĵÂĵÂĵÂĵÂĵÂĵÂĵÂĵÂĵÂĵÂĵÂĵÂĵÂĵ": 1518,
      "ÂĵÂĵÂĵÂĵÂĵÂĵÂĵÂĵÂĵÂĵÂĵÂĵÂĵÂĵÂĵÂĵÂĵÂĵÂĵÂĵÂĵÂĵÂĵÂĵÂĵÂĵÂĵÂĵÂĵÂĵÂĵÂĵÂĵÂĵÂĵÂĵÂĵÂĵÂĵÂĵÂĵÂĵÂĵÂĵÂĵÂĵÂĵÂĵÂĵÂĵÂĵÂĵÂĵÂĵÂĵÂĵÂĵÂĵÂĵÂĵÂĵÂĵÂĵÂĵÂĵÂĵÂĵÂĵÂĵÂĵÂĵÂĵ": 1519,
      ")$)": 1520,
      "ÂĵÂĵÂĵÂĵÂĵÂĵÂĵÂĵÂĵÂĵÂĵÂĵÂĵÂĵÂĵÂĵÂĵÂĵÂĵÂĵÂĵÂĵÂĵÂĵÂĵÂĵÂĵÂĵÂĵÂĵÂĵÂĵÂĵÂĵÂĵÂĵÂĵÂĵÂĵÂĵÂĵÂĵÂĵÂĵÂĵÂĵÂĵÂĵÂĵÂĵÂĵÂĵÂĵÂĵÂĵÂĵÂĵÂĵÂĵÂĵÂĵÂĵÂĵÂĵÂĵÂĵÂĵÂĵÂĵÂĵÂĵÂĵÂĵÂĵÂĵÂĵÂĵÂĵÂĵÂĵÂĵÂĵÂĵÂĵÂĵÂĵÂĴ": 1521,
      "#&$&#$": 1522,
      "'?-": 1523,
      ">ē$ę$$$$$$$": 1524,
      "ÂĵÂĶÂĵÂĶÂĵÂĵÂĵÂĵÂĵÂĵÂĵÂĵÂĵÂĵÂĵÂĵÂĵÂĵÂĵÂĵÂĵÂĵÂĵÂĵÂĵÂĵÂĵÂĵÂĵÂĵÂĵÂĵÂĵÂĵÂĵÂĵÂĵÂĵÂĵÂĵÂĵÂĵÂĵÂĵÂĵÂĵÂĵÂĵÂĵÂĵÂĵÂĵÂĵÂĵÂĵÂĵÂĵÂĵÂĵÂĵÂĵÂĵÂĵÂĵÂĵÂĵÂĵÂĵÂĵÂĵÂĵÂĵÂĵÂĵÂĵÂĵÂĵÂĵÂĵÂĵÂĵÂĵÂĵÂĵÂĵÂĵÂĵÂĵÂĵÂĵÂĵÂĵÂĵÂĵÂĵÂĵÂĵÂĵÂĵÂĵÂĵÂĵÂĵÂĵÂĵÂĵÂĵÂĵÂĵÂĵÂĵÂĵÂĵÂĵÂĵÂĵÂĵÂĵÂĵÂĵÂĵÂĵÂĵÂĵÂĵÂĵ": 1525,
      ",@": 1526,
      "ÂĴÂĳÂĶ": 1527,
      "$.": 1528,
      "%'!$$$$$$": 1529,
      "\"ě$$$$$$$$ě": 1530,
      "$$$$$$$ĝ": 1531,
      "ÂĵÂĵÂĵÂĵÂĵÂĵÂĵÂĵÂĵÂĵÂĵÂĵÂĵÂĵÂĵÂĵÂĵÂĵÂĵÂĵÂĵÂĵÂĵÂĵÂĵÂĵÂĵÂĵÂĵÂĵÂĵÂĵÂĵÂĵÂĵÂĵÂĵÂĵÂĵÂĵÂĵÂĵÂĵÂĵÂĵÂĵÂĵÂĵÂĵÂĵÂĵÂĵÂĵÂĵÂĵÂĵÂĵÂĵÂĵÂĵÂĵÂĵÂĵÂĵÂĵÂĵÂĵÂĵÂĵÂĵÂĵÂĵÂĵÂĵÂĵÂĵÂĵÂĵÂĵÂĵÂĵÂĵÂĵÂĵÂĵÂĵÂĵÂĵÂĵÂĵÂĵÂĵÂĵÂĵÂĵÂĵÂĵÂĵÂĵÂĵÂĵÂĵÂĵÂĵÂĵÂĵÂĵÂĸÂĹÂĲ": 1532,
      "96": 1533,
      ":'$$#<-": 1534,
      "ÂĵÂĵÂĵÂĵÂĵÂĵÂĵÂĵÂĵÂĵÂĵÂĵÂĵÂĵÂĵÂĵÂĵÂĵÂĵÂĵÂĵÂĵÂĵÂĵÂĵÂĵÂĵÂĵÂĵÂĵÂĵÂĵÂĵÂĵÂĵÂĵÂĵÂĵÂĵÂĵÂĵÂĵÂĵÂĵÂĵÂĵÂĵÂĵÂĵÂĵÂĵÂĵÂĵÂĵÂĵÂĵÂĵÂĵÂĵÂĵÂĵÂĵÂĵÂĵÂĵÂĵÂĵÂĵÂĵÂĵÂĵÂĵÂĵÂĵÂĵÂĵÂĵÂĵÂĵÂĵÂĵÂĵÂĵÂĵÂĵÂĵÂĵÂĵÂĵÂĵÂĵÂĵÂĵÂĵÂĵÂĵÂĵÂĵÂĵÂĵÂĵÂĵÂĵÂĵÂĵÂĵÂĵÂĵÂĵÂĵÂĵÂĵÂĵÂĵÂĴÂĶÂĵÂĵÂĵÂĵÂĵÂĵÂĵÂĵÂĵÂĵ": 1535,
      "ÂķÂĵÂĵÂĵÂĵÂĵÂĵÂĵÂĵÂĵÂĵÂĵÂĵÂĵÂĵÂĵÂĵÂĵÂĵÂĵÂĵÂĵÂĵÂĵÂĵÂĵÂĵÂĵÂĵÂĵÂĵÂĵÂĵÂĵÂĵÂĵÂĵÂĵÂĵÂĵÂĵÂĵÂĵÂĵÂĵÂĵÂĵÂĵÂĵÂĵÂĵÂĵÂĵÂĵÂĵÂĵÂĵÂĵÂĵÂĵÂĵÂĵÂĵÂĵÂĵÂĵÂĵÂĵÂĵÂĵÂĵÂĵÂĵÂĵÂĵÂĵÂĵÂĵÂĵÂĵÂĵÂĵÂĵÂĵÂĵÂĵÂĵÂĵÂĵÂĵÂĵÂĵÂĵÂĵÂĵÂĵÂĵÂĵÂĵÂĵÂĵÂĵÂĵÂĵÂĵÂĵÂĵÂĵÂĵÂĵÂĵÂĵÂĵÂĵÂĵÂĵ": 1536,
      "$$$$$$$#%$$#$": 1537,
      "BA": 1538,
      "đ$$$$$$$": 1539,
      "$&'@": 1540,
      "ÂĶÂĵÂĴÂĶ": 1541,
      "=Ė&/": 1542,
      ",($": 1543,
      "ě$%$$%%$": 1544,
      "ÂĵÂĸÂĵÂĵÂĵÂĵÂĵÂĵÂĵÂĵÂĵÂĵÂĵÂĵÂĵÂĵÂĵÂĵÂĵÂĵÂĵÂĵÂĵÂĵÂĵÂĵÂĵÂĵÂĵÂĵÂĵÂĵÂĵÂĵÂĵÂĵÂĵÂĵÂĵÂĵÂĵÂĵÂĵÂĵÂĵÂĵÂĵÂĵÂĵÂĵÂĵÂĵÂĵÂĵÂĵÂĵÂĵÂĵ": 1545,
      "%$*$$$$$$": 1546,
      "ÂĵÂĵÂĵÂĵÂĵÂĵÂĸ": 1547,
      "ÂĵÂĵÂĵÂĵÂĵÂĵÂĵÂĵÂĵÂĵÂĵÂĵÂĵÂİÂĵÂĵÂĵÂĵÂĵÂĵÂĵÂĵÂĵÂĵÂĵÂĵÂĵÂĵÂĵÂĵÂĵÂĵÂĵÂĵÂĵÂĵÂĵÂĵÂĵÂĵÂĵÂĵÂĵÂĵÂĵÂĵÂĵÂĵÂĵÂĵÂĵÂĵÂĵÂĵÂĵÂĵÂĵÂĵÂĵÂĵÂĵÂĵÂĵÂĵÂĵÂĵÂĵÂĵÂĵÂĸÂĵÂĵÂĵÂĵÂĵÂĵÂĵÂĵÂĵÂĵÂĵÂĵÂĵÂĵÂĵÂĵÂĵÂĵÂĵÂĵÂĵÂĵÂĵÂĵÂĵÂĵÂĵÂĵÂĵÂĵÂĵÂĵÂĵÂĵÂĵÂĵÂĵÂĵÂĵÂĵÂĵÂĵÂĵÂĵÂĵÂĵÂĵÂĵÂĵÂĵÂĵÂĵÂĵÂĵÂĵÂĵ": 1548,
      ">Ĕ$Ą$$$$$$$": 1549,
      "ÂĶÂĵÂĵÂĵÂĸÂĵÂĸÂĴÂĵÂĵ": 1550,
      "ÂĵÂĵÂĵÂĵÂĵÂĵÂĵÂĵÂĵÂĵÂĵÂĵÂĵÂĵÂĵÂĵÂĵÂĵÂĵÂĵÂĵÂĵÂĵÂĵÂĵÂĵÂĵÂĵÂĵÂĵÂĵÂĵÂĵÂĵÂĵÂĵÂĵÂĵÂĵÂĵÂĵÂĵÂĵÂĵÂĵÂĵÂĵÂĵÂĵÂĵÂĵÂĵÂĵÂĵÂĵÂĵÂĵÂĵÂĵÂĵÂĵÂĵÂĵÂĵÂĵÂĵÂĵÂĵÂĵÂĵÂĵÂĵÂĵÂĵÂĵÂĵÂĵÂĵÂĵÂĵÂĵÂĵÂĵÂĵÂĵÂĵÂĵÂĵÂĵÂĵÂĵÂĵÂĵÂĵÂĵÂĵÂĵÂĵÂĵÂĵÂĵÂĵÂĵÂĵÂĵÂĵÂĵÂĵÂĵÂĵÂĵÂĵÂĵÂĵÂĵÂĵÂĵÂĵÂĵÂĵÂĵÂĴÂĶÂĵÂĵÂĵ": 1551,
      "Ġě": 1552,
      "$'$'": 1553,
      "ę?": 1554,
      "#/ğ$": 1555,
      "?.": 1556,
      "ÂĵÂĶÂĳ": 1557,
      "ÂıÂıÂĸ": 1558,
      "!'": 1559,
      "!'%%": 1560,
      "/ĝ": 1561,
      "*+": 1562,
      "Ġ1": 1563,
      ">Ĕ\"Ě$$$$$$$$ę": 1564,
      ">ē$ę-%$$%%$": 1565,
      "$&$&%$": 1566,
      "ÂĵÂĵÂĵÂĵÂĵÂĵÂĵÂĵÂĵÂĵÂĵÂĵÂĵÂĵÂĵÂĵÂĵÂĵÂĵÂĵÂĵÂĵÂĵÂĵÂĵÂĵÂĵÂĵÂĵÂĵÂĵÂĵÂĵÂĵÂĵÂĵÂĵÂĵÂĵÂĵÂĵÂĵÂĵÂĵÂĵÂĵÂĵÂĵÂĵÂĵÂĵÂĵÂĵÂĵÂĵÂĵÂĵÂĵÂĵÂĵÂĵÂĵÂĵÂĵÂĵÂĵÂĵÂĵÂĵÂİÂĵÂĵÂĵÂĵÂĵÂĵÂĵ": 1567,
      "ď$$$$$$$": 1568,
      "Ď$-!$$$$$$": 1569,
      "#:": 1570,
      "ÂķÂĵ": 1571,
      "#!$$$$$$$$": 1572,
      "Ġ(": 1573,
      "ÂĵÂĵÂĵÂĵÂĵÂĵÂĵÂĵÂĵÂĵÂĵÂĵÂĵÂĵÂĵÂĵÂĵÂĵÂĵÂĵÂĵÂĵÂĵÂĵÂĵÂĵÂĵÂĵÂĵÂĵÂĵÂĵÂĵÂĵÂĵÂĵÂĵÂĵÂĵÂĵÂĵÂĵÂĵÂĵÂĵÂĵÂĵÂĵÂĵÂĵÂĵÂĵÂĵÂĵÂĵÂĵÂĵÂĵÂĵÂĵÂĵÂĵÂĵÂĵÂĵÂĵÂĵÂĵÂĵÂĵÂĵÂĵÂĵÂĵÂĵÂĵÂĵÂĵÂĵÂĵÂĵÂĵÂĵÂĵÂĵÂĵÂĵÂĵÂĵÂĵÂĵÂĵÂĵÂĵÂĵÂĵÂĵÂĵÂĵÂĵÂĶ": 1574,
      "ÂĵÂĳÂĵÂĵÂĵÂĵÂĵÂĵÂĵÂĵ": 1575,
      "*<ė$": 1576,
      "ÂĵÂĵÂĵÂĵÂĵÂĵÂĵÂĵÂĵÂĵÂĵÂĵÂĵÂĵÂĵÂĵÂĵÂĵÂĵÂĵÂĵÂĵÂĵÂĵÂĵÂĵÂĵÂĵÂĵÂĵÂĵÂĵÂĵÂĵÂĵÂĵÂĵÂĵÂĵÂĵÂĵÂĵÂĵÂĵÂĵÂĵÂĵÂĵÂĵÂĵÂĵÂĵÂĵÂĵÂĵÂĵÂĵÂĵÂĵÂĵÂĵÂĵÂĵÂĵÂĵÂĵÂĵÂĵÂĵÂĵÂĵÂĵÂı": 1577,
      "$$$$$$$%%$$%$": 1578,
      "%$%$": 1579,
      "ÂĵÂĵÂĵÂĵÂĵÂĵÂĵÂĵÂĵÂĵÂĵÂĵÂĵÂĵÂĵÂĵÂĵÂĵÂĵÂĵÂĵÂĵÂĵÂĵÂĵÂĵÂĵÂĵÂĵÂĵÂĵÂĵÂĵÂĵÂĵÂĵÂĵÂĵÂĵÂĵÂĵÂĺÂĵÂĵÂĵÂĵÂĵÂĵÂĵ": 1580,
      "Ė$.": 1581,
      "%'$$$$$$$$": 1582,
      "Đ%": 1583,
      "ÂĵÂĵÂĵÂĵÂĵÂĵÂĵÂĵÂĴÂĴÂĶ": 1584,
      "!$$#;-": 1585,
      "#$$#;-": 1586,
      "ė$$#;-": 1587,
      "Ę$$#;-": 1588,
      "Ė$$#;-": 1589,
      "ÂĵÂķÂĵÂĵÂĵÂĵÂĵÂĵÂĵÂĵÂĵÂĵÂĵÂĵÂĵÂĵÂĵÂĵÂĵÂĵÂĵÂĵÂĵÂĵÂĵÂĵÂĵÂĵÂĵÂĵÂĵÂĵÂĵÂĵÂĵÂĵÂĵÂĵÂĵÂĵÂĵÂĵÂĵÂĵÂĵÂĵÂĵÂĵÂĵÂĵÂĵÂĵÂĵÂĵÂĵÂĵÂĵÂĵ": 1590,
      "$$$#;-": 1591,
      ".:ĕ$$#;-": 1592,
      "ÂĵÂĵÂĵÂĵÂĵÂĵÂĵÂĵÂĵÂĵÂĵÂĵÂĵÂĵÂĵÂĵÂĵÂĵÂĵÂĵÂĵÂĵÂĵÂĵÂĵÂĵÂĵÂĵÂĵÂĵÂĵÂĵÂĵÂĵÂĵÂĵÂĵÂĵÂĵÂĵÂĵÂĵÂĵÂĵÂĵÂĵÂĵÂĵÂĵÂĵÂĵÂĵÂĵÂĵÂĵÂĵÂĵÂĵÂĵÂĵÂĵÂĵÂĵÂĵÂĵÂĵÂĵÂĵÂĵÂĵÂĵÂĵÂĵÂĵÂĵÂĵÂĵÂĵÂĵÂĵÂĵÂĵÂĵÂĵÂĵÂĵÂĴÂĵÂĵÂĵÂĵÂĵÂĵÂĵÂĵÂĵÂĵÂĵÂĵÂĵÂĵÂĵÂĵÂĵÂĵÂĵÂĵÂĵÂĵÂĵÂĵÂĵÂĵÂĵÂĺ": 1593,
      "ÂĵÂĵÂĵÂĵÂĵÂĵÂĵÂĵÂĵÂĵÂĵÂĵÂĵÂĵÂĵÂĵÂĵÂĵÂĵÂĵÂĵÂĵÂĵÂĵÂĵÂĵÂĵÂĵÂĵÂĵÂĵÂĵÂĵÂĵÂĵÂĵÂĵÂĵÂĵÂĵÂĵÂĵÂĵÂĵÂĵÂĵÂĵÂĵÂĵÂĵÂĵÂĵÂĵÂĵÂĵÂĵÂĵÂĵÂĵÂĵÂĵÂĵÂĵÂĵÂĵÂĵÂĵÂĵÂĵÂĵÂĵÂĵÂĵÂĵÂĵÂĵÂĵÂĵÂĵÂĵÂĵÂĵÂĵÂĵÂĵÂĵÂĵÂĵÂĵÂĵÂĵÂĵÂĵÂĵÂĵÂĵÂĵÂĵÂĵÂĶ": 1594,
      ",#,": 1595,
      "\":": 1596,
      "-$#$$%#$": 1597,
      "ÂĵÂĴÂĴÂĶÂĵÂĵÂĵÂĵÂĵÂĵÂĵÂĵÂĵÂĵÂĵÂĵÂĵÂĵÂĵÂĵÂĵÂĵÂĵÂĵÂĵÂĵÂĵÂĵÂĵÂĵÂĵÂĵÂĵÂĵÂĵÂĵÂĵÂĵÂĵÂĵÂĵÂĵÂĵÂĵÂĵÂĵÂĵÂĵÂĵÂĵÂĵÂĵÂĵÂĵÂĵÂĵÂĵÂĵÂĵÂĵÂĵÂĵÂĵÂĵÂĵÂĵÂĵÂĵÂĵÂĵÂĵÂĵÂĵÂĵÂĵÂĵÂĵÂĵÂĵÂĵÂĵÂĵÂĵÂĵÂĵÂĵÂĵÂĵÂĵÂĵÂĵÂĵÂĵÂĵÂĵÂĵÂĵÂĵÂĵÂĵÂĵÂĵÂĵÂĵÂĵÂĵÂĵÂĵÂĵÂĵÂĵÂĵÂĵÂĵ": 1598,
      ">ĕ&/$$$$$$$$.": 1599,
      "Đ&": 1600,
      "-$-": 1601,
      "ÂĵÂĵÂĵÂĵÂĵÂĵÂĵÂĵÂĵÂĵÂĵÂĵÂĵÂİÂĵÂĵÂĵÂĵÂĵÂĵÂĵÂĵÂĵÂĵÂĵÂĵÂĵÂĵÂĵÂĵÂĵÂĵÂĵÂĵÂĵÂĵÂĵÂĵÂĵÂĵÂĵÂĵÂĵÂĵÂĵÂĵÂĵÂĵÂĵÂĵÂĵÂĵÂĵÂĵÂĵÂĵÂĵÂĵÂĵÂĵÂĵÂĵÂĵÂĵÂĵÂĵÂĵÂĵÂĵÂķÂĵÂĵÂĵÂĵÂĵÂĵÂĵÂĵÂĵÂĵÂĵÂĵÂĵÂĵÂĵÂĵÂĵÂĵÂĵÂĵÂĵÂĵÂĵÂĵÂĵÂĵÂĵÂĵÂĵÂĵÂĵÂĵÂĵÂĵÂĵÂĵÂĵÂĵÂĵÂĵÂĵÂĵÂĵÂĵÂĵÂĵÂĵÂĵÂĵÂĵÂĵÂĵÂĵÂĵÂĵÂĵ": 1602,
      "ď$Ĝ": 1603,
      "Ġ!": 1604,
      "&&%$&$": 1605,
      "GD": 1606,
      "+#": 1607,
      "<Ē": 1608,
      "=ē": 1609,
      "@Ē$ě": 1610,
      "%$$$": 1611,
      ".(": 1612,
      "Ď$$$$$$$": 1613,
      "ÂĵÂĶÂĴÂķ": 1614,
      "+$&#": 1615,
      "Ğ@:Ĕ$": 1616,
      ")!$$$$$$": 1617,
      "Ę$%": 1618,
      "ÂĶÂĵÂĵÂĵÂĵÂĵÂĵÂĵÂĵÂĵÂĵÂĵÂĵÂĵÂĵÂĵÂĵÂĵÂĵÂĵÂĵÂĵÂĵÂĵÂĵÂĵÂĵÂĵÂĵÂĵÂĵÂĵÂĵÂĵÂĵÂĵÂĵÂĵÂĵÂĵÂĵÂĵÂĵÂĵÂĵÂĵÂĵÂĵÂĵÂĵÂĵÂĵÂĵÂĵÂĵÂĵÂĵÂĵÂĵÂĵÂĵÂĵÂĵÂĵÂĵÂĵÂĵÂĵÂĵÂĵÂĵÂĵÂĵÂĵÂĵÂĵÂĵÂĵÂĵÂĵÂĵÂĵÂĵÂĵÂĵÂĵÂĵÂĵÂĵÂĵÂĵÂĵÂĵÂĵÂĵÂĵÂĵÂĵÂĵÂĵÂĵÂĵÂĵÂĵÂĵÂĵÂĵÂĵÂĵÂĵÂĵÂĵÂĵÂĵÂĵ": 1619,
      "$&(@": 1620,
      "ÂĵÂĵÂĵÂĵÂĵÂĵÂĵÂĵÂĵÂĵÂĵÂĵÂĵÂĵÂĵÂĵÂĵÂĵÂĵÂĵÂĵÂĵÂĵÂĵÂĵÂĵÂĵÂĵÂĵÂĵÂĵÂĵÂĵÂĵÂĵÂĵÂĵÂĵÂĵÂĵÂĵÂĵÂĵÂĵÂĵÂĵÂĵÂĵÂĵÂĵÂĵÂĵÂĵÂĵÂĵÂĵÂĵÂĵÂĵÂĵÂĵÂĵÂĵÂĵÂĵÂĵÂĵÂĵÂĵÂĵÂĵÂĵÂĵÂĵÂĵÂĵÂĵÂĵÂĵÂĵÂĵÂĵÂĵÂĶ": 1621,
      "*!$$$$$$": 1622,
      "?ē$-!$$$$$$": 1623,
      "*&$": 1624,
      ":'$*": 1625,
      "\"(": 1626,
      "ÂĵÂĵÂĵÂĵÂĶ": 1627,
      "ÂķÂĳÂĵÂĵ": 1628,
      "%$\"$": 1629,
      "ÂĴÂĶÂĵÂĵÂĵÂĵÂĵÂĵÂĵÂĵÂĵ": 1630,
      "ÂĵÂĵÂĵÂĵÂĵÂĵÂĵÂĵÂĵÂĵÂĵÂĵÂĵÂĵÂĵÂĵÂĵÂĵÂĵÂĵÂĵÂĵÂĵÂĵÂĵÂĵÂĵÂĵÂĵÂĵÂĵÂĵÂĵÂĵÂĵÂĵÂĵÂĵÂĵÂĵÂĵÂĵÂĵÂĵÂĵÂĵÂĵÂĵÂĵÂĵÂĵÂĵÂĵÂĵÂĵÂĵÂĵÂĵÂĵÂĵÂĵÂĵÂĵÂĵÂĵÂĵÂĵÂĵÂĵÂĵÂĵÂĵÂĵÂĵÂĵÂĵÂĵÂĵÂĵÂĵÂĵÂĵÂĵÂĲÂĵÂĵÂĵÂĵÂĵÂĵÂĵÂĵÂĵÂĵÂĵÂĵÂĵÂĵÂĵÂĵÂĵÂĵÂĵÂĵÂĵÂĵÂĵÂĵÂĵÂĵÂĵÂĵ": 1631,
      "ÂĵÂĵÂĵÂĵÂĵÂĵÂĵÂĵÂĵÂĵÂĵÂĵÂĵÂĵÂĵÂĵÂĵÂĵÂĵÂĵÂĵÂĵÂĵÂĵÂĵÂĵÂĵÂĵÂĵÂĵÂĵÂĵÂĵÂĵÂĵÂĵÂĵÂĵÂĵÂĵÂĵÂĵÂĵÂĵÂĵÂĵÂĵÂĵÂĵÂĵÂĵÂĵÂĵÂĵÂĵÂĵÂĵÂĵÂĵÂĵÂĵÂĵÂĵÂĵÂĵÂĵÂĵÂĵÂĵÂĵÂĵÂĵÂĵÂĵÂĵÂĵÂĵÂĵÂĵÂĵÂĵÂĵÂĵÂĵÂĵÂĵÂĵÂĵÂĵÂĵÂĵÂĵÂĵÂĵÂĵÂĵÂĵÂĵÂĵÂĵÂĵÂĵÂĵÂĵÂĵÂĵÂĵÂĵÂĵÂĵÂĵÂĵÂĵÂĵÂĵÂĵÂĵÂĵÂĵÂķ": 1632,
      "),": 1633,
      "/Ĝ": 1634,
      "=Ē": 1635,
      "Ė@": 1636,
      ")(": 1637,
      "ė$Ğ": 1638,
      ",=": 1639,
      "ÂĵÂĵÂĵÂĵÂĵÂĵÂĵÂĵÂĵÂĵÂĵÂĵÂĵÂĵÂĵÂĵÂĵÂĵÂĵÂĵÂĵÂĵÂĵÂĵÂĵÂĵÂĵÂĵÂĵÂĵÂĵÂĵÂĵÂĵÂĵÂĵÂĵÂĵÂĵÂĵÂĵÂĵÂĵÂĵÂĵÂĵÂĵÂĵÂĵÂĵÂĵÂĵÂĵÂĵÂĵÂĵÂĵÂĵÂĵÂĵÂĵÂĵÂĵÂĵÂĵÂĵÂĵÂĵÂĵÂĵÂĵÂĵÂĵÂĵÂĵÂĵÂĵÂĵÂĵÂĵÂĵÂĵÂĵÂĵÂĵÂĵÂĵÂĵÂĵÂĵÂĵÂĵÂĵÂĵÂĵÂĵÂĵÂĵÂĵÂĵÂĵÂĵÂĵÂĵÂĵÂĵÂĴÂĶ": 1640,
      "Ġ(%%": 1641,
      "+&&": 1642,
      "đ%": 1643,
      "Ė$$!<-": 1644,
      "ÂĵÂĶÂĵÂĶÂĵÂĵÂĵÂĵÂĶÂĵÂĶ": 1645,
      "ÂĵÂĵÂĵÂĵÂĵÂĵÂĵÂĵÂĵÂĵÂĵÂĵÂĵÂĵÂĵÂĵÂĵÂĵÂĵÂĵÂĵÂĵÂĵÂĵÂĵÂĵÂĵÂĵÂĵÂĵÂĵÂĵÂĵÂĵÂĵÂĵÂĵÂĵÂĵÂĵÂĵÂĵÂĵÂĵÂĵÂĵÂĵÂĵÂĵÂĵÂĵÂĵÂĵÂĵÂĵÂĵÂĵÂĵÂĵÂĵÂĵÂĵÂĵÂĵÂĵÂĵÂĵÂĵÂĵÂĵÂĵÂĵÂĵÂĵÂĵÂĵÂĵÂĵÂĵÂĵÂĵÂĵÂĵÂĵÂĵÂĵÂĵÂĵÂĵÂĵÂĵÂĵÂĵÂĵÂĵÂĵÂĵÂĵÂĵÂĵÂĵÂĵÂĵÂĵÂĵÂĵÂĵÂĵÂĵÂĵÂĵÂĵÂĵÂĵÂĵÂĵÂĵÂĵÂĵÂĴ": 1646,
      "ÂĵÂĵÂĵÂĵÂĵÂĵÂĵÂĵÂĵÂĵÂĵÂĵÂĵÂĵÂĵÂĵÂĵÂĵÂĵÂĵÂĵÂĵÂĵÂĵÂĵÂĵÂĵÂĵÂĵÂĵÂĵÂĵÂĵÂĵÂĵÂĵÂĵÂĵÂĵÂĵÂĵÂĵÂĵÂĵÂĵÂĵÂĵÂĵÂĵÂĵÂĵÂĵÂĵÂĵÂĵÂĵÂĵÂĵÂĵÂĵÂĵÂĵÂĵÂĵÂĵÂĵÂĵÂĵÂĵÂĵÂĵÂĵÂıÂĵÂĵÂĵÂĵÂĵÂĵÂĵÂĵÂĵÂĵÂĵÂĵÂĵÂĵÂĵÂĵÂĵÂĵÂĵÂĵÂĵÂĵÂĵÂĵÂĵÂĵÂĵÂĵÂĵÂĵÂĵÂĵÂĵÂĵÂĵÂĵÂĵÂĵÂĵÂĵÂĵÂĺ": 1647,
      "ĝğ": 1648,
      "Ġ0": 1649,
      "Ę$+": 1650,
      "@.": 1651,
      "$&$$$$$$": 1652,
      "ÂĵÂĵÂĵÂĵÂĵÂĵÂĵÂĵÂĵÂĵÂĵÂĵÂĵÂĵÂĵÂĵÂĵÂĵÂĵÂĵÂĵÂĵÂĵÂĵÂĵÂĵÂĵÂĵÂĵÂĵÂĵÂĵÂĵÂĵÂĵÂĵÂĵÂĵÂĵÂĵÂĵÂĵÂĵÂĵÂĵÂĵÂĵÂĵÂĵÂĵÂĵÂĵÂĵÂĵÂĵÂĵÂĵÂĵÂĵÂĵÂĵÂĵÂĵÂĵÂĵÂĵÂĵÂĵÂĵÂĵÂĵÂĵÂĵÂĵÂĵÂĵÂĵÂĵÂĵÂĵÂĵÂĵÂĵÂĵÂĵÂĵÂĵÂĵÂĵÂĵÂĵÂĵÂĵÂĵÂĵÂĵÂĵÂĵÂĵÂĵÂĵÂĵÂĵÂĵÂĵÂĵÂĵÂĵÂĵÂĸ": 1653,
      "ÂĵÂĴÂĵÂĵÂĵÂĵÂĵÂĵÂĵÂĵÂĵÂĵÂĵÂĵÂĵÂĵÂĵÂĵÂĵÂĵÂĵÂĵÂĵÂĵÂĵÂĵÂĵÂĵÂĵÂĵÂĵÂĵÂĵÂĵÂĵÂĵÂĵÂĵÂĵÂĵÂĵÂĵÂĵÂĵÂĵÂĵÂĵÂĵÂĵÂĵÂĵÂĵÂĵÂĵÂĵÂĵÂĵÂĵÂĵÂĵÂĵÂĵÂĵÂĵÂĵÂĵÂĵÂĵÂĵÂĵÂĵÂĵÂĵÂĵÂĵÂĵÂĵÂĵÂĵÂĵÂĵÂĵÂĵÂĵÂĵÂĵÂĵÂĵÂĵÂĵÂĵÂĵÂĵÂĵÂĵÂĵÂĵÂĵÂĵÂĵÂĵÂĵÂĵÂĵÂĵÂĵÂĵÂĵÂĵÂĵÂĵÂĵ": 1654,
      "ÂĲÂıÂĸ": 1655,
      "ÂĲÂĲÂĸ": 1656,
      "ÂĳÂĶÂĵÂĵÂĵÂĵÂĵÂĵÂĵÂĵÂĵÂĵÂĵÂĵÂĵÂĵÂĵÂĵÂĵÂĵÂĵÂĵÂĵÂĵÂĵÂĵÂĵÂĵÂĵÂĵÂĵÂĵÂĵÂĵÂĵÂĵÂĵÂĵÂĵÂĵÂĵÂĵÂĵÂĵÂĵÂĵÂĵÂĵÂĵÂĵÂĵÂĵÂĵÂĵÂĵÂĵÂĵÂĵÂĵÂĵÂĵÂĵÂĵÂĵÂĵÂĵÂĵÂĵÂĵÂĵÂĵÂĵÂĵÂĵÂĵÂĵÂĵÂĵÂĵÂĵÂĵÂĵÂĵÂĵÂĵÂĵÂĵÂĵÂĵÂĵÂĵÂĵÂĵÂĵÂĵÂĵÂĵÂĵÂĵÂĵÂĵÂĵ": 1657,
      ".$&%": 1658,
      ",<": 1659,
      "ÂĵÂĳÂĲ": 1660,
      ".$.": 1661,
      "ě>": 1662,
      "ÂĵÂķÂķÂĳ": 1663,
      ">ĕ$Ą$$$$$$$": 1664,
      "ÂĵÂĵÂĵÂĵÂĵÂĵÂĹÂĵÂĵÂĵÂĵÂĵÂĵÂĹ": 1665,
      "$$=/": 1666,
      "Ĕ$=$": 1667,
      "ė#": 1668,
      "/*": 1669,
      "ÂĶÂĶÂĶÂĵÂĵ": 1670,
      "ÂĵÂĵÂĵÂĵÂĵÂĵÂĵÂĵÂĵÂĵÂĵÂĵÂĵÂĵÂĵÂĵÂĵÂĵÂĵÂĵÂĵÂĵÂĵÂĵÂĵÂĵÂĵÂĵÂĵÂĵÂĵÂĵÂĵÂĵÂĵÂĵÂĵÂĵÂĵÂĵÂĵÂĵÂĵÂĵÂĵÂĵÂĵÂĵÂĵ": 1671,
      "ě$&$": 1672,
      "'!": 1673,
      "ě%": 1674,
      "/$&$": 1675,
      "\"!": 1676,
      "*.": 1677,
      "@:ē$": 1678,
      ";-$": 1679,
      "@Ē$Ą": 1680,
      "Ĝ$&#": 1681,
      ")ÂĵÂĵÂĵÂĵÂĵÂĵÂĵÂĵÂĴÂĵÂĴ": 1682,
      ")ÂĵÂĵÂĵÂĵÂĵÂĵÂĵÂĵÂĴÂĵÂĴÂĵÂĵÂĵÂĵÂĵÂĵÂĵÂĵÂĵÂĵÂĵÂĵÂĵÂĵÂĵÂĵÂĵÂĵÂĵÂĵÂĵÂĵÂĵÂĵÂĵÂĵÂĵÂĵÂĵÂĵÂĵÂĵÂĵÂĵÂĵÂĵÂĵÂĵÂĵÂĵÂĵÂĵÂĵÂĵÂĵÂĵÂĵÂĵÂĵÂĵÂĵÂĵÂĵÂĵÂĵÂĵÂĵÂĵÂĵÂĵÂĵÂĵÂĵÂĵÂĵÂĵÂĵÂĵÂĵÂĵÂĵÂĵÂıÂĵÂĵÂĵÂĵÂĵÂĵÂĵÂĵÂĵÂĵÂĵÂĵÂĵÂĵÂĵÂĵÂĵÂĵÂĵÂĵÂĵÂĵÂĵÂĵÂĵÂĵÂĵÂĵÂĵÂĵÂĵÂĵÂĵÂĵÂĵÂĵÂĵÂĵÂĵÂĵÂĵÂĺ": 1683,
      "ÂĴÂĵÂĵÂĵÂĵÂĵÂĵÂĵÂĵÂĵÂĵÂĵÂĵÂĵÂĵÂĵÂĵÂĵÂĵÂĵÂĵÂĵÂĵÂĵÂĵÂĵÂĵÂĵÂĵÂĵÂĵÂĵÂĵÂĵÂĵÂĵÂĵÂĵÂĵÂĵÂĵÂĵÂĵÂĵÂĵÂĵÂĵÂĵÂĵÂĵÂĵÂĵÂĵÂĵÂĵÂĵÂĵÂĵÂĵÂĵÂĵÂĵÂĵÂĵÂĵÂĵÂĵÂĵÂĵÂĵÂĵÂĵÂĵÂĵÂĵÂĵÂĵÂĵÂĵÂĵÂĵÂĵÂĵÂĵÂĵÂĵÂĵÂĵÂĵÂĵÂĵÂĵÂĵÂĵÂĵÂĵÂĵÂĵÂĵÂĵÂĵÂĵÂĵÂĵÂĵÂĵÂĵÂĵÂĵ": 1684,
      "?:Ė": 1685,
      ")/": 1686,
      "Ě<": 1687,
      "/$/": 1688,
      ")#$$%#$": 1689,
      ")#)!$": 1690,
      "(@:Ĕ$": 1691,
      ":&$%": 1692,
      ":&$'": 1693,
      ":&$-": 1694,
      ":&$/": 1695,
      ":&$)ÂĵÂĵÂĵÂĵÂĵÂĵÂĵÂĵÂĴÂĵÂĴÂĵÂĵÂĵÂĵÂĵÂĵÂĵÂĵÂĵÂĵÂĵÂĵÂĵÂĵÂĵÂĵÂĵÂĵÂĵÂĵÂĵÂĵÂĵÂĵÂĵÂĵÂĵÂĵÂĵÂĵÂĵÂĵÂĵÂĵÂĵÂĵÂĵÂĵÂĵÂĵÂĵÂĵÂĵÂĵÂĵÂĵÂĵÂĵÂĵÂĵÂĵÂĵÂĵÂĵÂĵÂĵÂĵÂĵÂĵÂĵÂĵÂĵÂĵÂĵÂĵÂĵÂĵÂĵÂĵÂĵÂĵÂĵÂıÂĵÂĵÂĵÂĵÂĵÂĵÂĵÂĵÂĵÂĵÂĵÂĵÂĵÂĵÂĵÂĵÂĵÂĵÂĵÂĵÂĵÂĵÂĵÂĵÂĵÂĵÂĵÂĵÂĵÂĵÂĵÂĵÂĵÂĵÂĵÂĵÂĵÂĵÂĵÂĵÂĵÂĺ": 1696,
      "&$$ÂĵÂĵÂĵÂĵÂĵÂĵÂĵÂĵÂĵÂĵÂĵÂĴÂĵÂĵÂĵÂĵÂĵÂĵÂĵÂĵÂĵÂĵÂĵÂĵÂĵÂĵÂĵÂĵÂĵÂĵÂĵÂĵÂĵÂĵÂĵÂĵÂĵÂĵÂĵÂĵÂĵÂĵÂĵÂĵÂĵÂĵÂĵÂĵÂĵÂĵÂĵÂĵÂĵÂĵÂĵÂĵÂĵÂĵÂĵÂĵÂĵÂĵÂĵÂĵÂĵÂĵÂĵÂĵÂĵÂĵÂĵÂĵÂĵÂĵÂĵÂĵÂĵÂĵÂĵÂĵÂĵÂĵÂĵÂĵÂĵÂĵÂĵÂĵÂĵÂĵÂĵÂĵÂĵÂĵÂĵÂĵÂĵÂĵÂĵÂĵÂĵÂĵÂĵÂĵÂĵÂĵÂĵÂĵÂĵÂĵÂĵÂĵÂĵÂĵÂĵÂĵÂĵÂĵÂĵÂĵÂĶÂĵÂĶÂĵÂĵÂĵ": 1697,
      "ÂĵÂĵÂĵÂĵÂĵÂĵÂĵÂĵÂĵÂĵÂĵÂĵÂĵÂĵÂĵÂĵÂĵÂĵÂĵÂĵÂĵÂĵÂĵÂĵÂĵÂĵÂĵÂĵÂĵÂĵÂĵÂĵÂĵÂĵÂĵÂĵÂĵÂĵÂĵÂĵÂĵÂĵÂĵÂĵÂĵÂĵÂĵÂĵÂĵÂĵÂĵÂĵÂĵÂĵÂĵÂĵÂĵÂĵÂĵÂĵÂĵÂĵÂĵÂĵÂĵÂĵÂĵÂĵÂĵÂĵÂĵÂĵÂĵÂĵÂĵÂĵÂĵÂĵÂĵÂĵÂĵÂĵÂĵÂĳÂĵÂĵÂĵÂĵÂĵÂĵÂĵÂĵÂĵÂĵÂĵÂĵÂĵÂĵÂĵÂĵÂĵÂĵÂĵÂĵÂĵÂĵÂĵÂĵÂĵÂĵÂĵÂĵ": 1698,
      ":$": 1699,
      "Ĝ@": 1700,
      "ÂĵÂĵÂĵÂĵÂĵÂĵÂĵÂĵÂĵÂĵÂĵÂĵÂĵÂĴ": 1701,
      "ÂĵÂĲÂıÂĸ": 1702,
      "Ę$ğ": 1703,
      "ÂĲÂĵÂĵ": 1704,
      "$$$$$$$*": 1705,
      "ÂĶÂĶÂķÂĴ": 1706,
      "-$$\"": 1707,
      "'$(": 1708,
      ".$&$": 1709,
      "ė$ā$&?": 1710,
      "+$&'": 1711,
      ";$": 1712,
      "HG": 1713,
      "06": 1714,
      "*<Ę$": 1715,
      "ěğ": 1716,
      "Ě$&\"": 1717,
      ">Ĕ$ę$$$$$$$": 1718,
      "&$(>-": 1719,
      "Ď$-": 1720,
      "@ē$Ę": 1721,
      "ė$ę": 1722,
      ";.": 1723,
      "Ğ*&%": 1724,
      "ÂĵÂĲÂĶÂĵÂĵÂĵÂĵÂĵÂĵÂĵÂĵÂĵÂĵÂĵÂĵÂĵÂĵÂĵÂĵÂĵÂĵÂĵÂĵÂĵÂĵÂĵÂĵÂĵÂĵÂĵÂĵÂĵÂĵÂĵÂĵÂĵÂĵÂĵÂĵÂĵÂĵÂĵÂĵÂĵÂĵÂĵÂĵÂĵÂĵÂĵÂĵÂĵÂĵÂĵÂĵÂĵÂĵÂĵÂĵÂĵÂĵÂĵÂĵÂĵÂĵÂĵÂĵÂĵÂĵÂĵÂĵÂĵÂĵÂĵÂĵÂĵÂĵÂĵÂĵÂĵÂĵÂĵÂĵÂĵÂĵÂĵÂĵÂĵÂĵÂĵÂĵÂĵÂĵÂĵÂĵÂĵÂĵÂĵÂĵÂĵÂĵÂĵÂĵÂĵÂĸ": 1725,
      "-$&$": 1726,
      "ė$)": 1727,
      "($(\"$": 1728,
      "+$&%": 1729,
      ".$&&": 1730,
      ":ė": 1731,
      "$*": 1732,
      "Ė$/": 1733,
      "ÂĸÂĹÂĲ": 1734,
      "*#*!$": 1735,
      "ÂĴÂĵÂĵÂĵÂĵÂĵÂĵÂĵÂĵÂĵÂĵ": 1736,
      "ę>": 1737,
      "#Ě": 1738,
      "+$$#": 1739,
      "+$#$$%#$": 1740,
      ".@": 1741,
      "ě=": 1742,
      "ÂĴÂĶÂĵÂĵÂĵÂĵÂĵÂĵÂĵÂĵÂĵÂĵÂĵÂĵÂĵÂĵÂĵÂĵÂĵÂĵÂĵÂĵÂĵÂĵÂĵÂĵÂĵÂĵÂĵÂĵÂĵÂĵÂĵÂĵÂĵÂĵÂĵÂĵÂĵÂĵÂĵÂĵÂĵÂĵÂĵÂĵÂĵÂĵÂĵÂĵÂĵÂĵÂĵÂĵÂĵÂĵÂĵÂĵÂĵÂĵÂĵÂĵÂĵÂĵÂĵÂĵÂĵÂĵÂĵÂĵÂĵÂĵÂĵÂĵÂĵÂĵÂĵÂĵÂĵÂĵÂĵÂĵÂĵÂĵÂĵÂĵÂĵÂĵÂĵÂĵÂĵÂĵÂĵÂĵÂĵÂĵÂĵÂĵÂĵÂĵÂĵÂĵÂĵÂĵÂĵÂĵÂĵÂĵÂĵÂĵÂĵÂĵÂĵÂĵÂĵÂĵ": 1743,
      "Ę$*": 1744,
      ">$": 1745,
      "#&%%#$": 1746,
      ")%$$%%$": 1747,
      "+$&$": 1748,
      "-@": 1749,
      "ÂĶÂĵÂĳ": 1750,
      "ÂĶÂĵÂĴÂĵÂĵ": 1751,
      "ÂĵÂĴÂĶÂı": 1752,
      "ÂĵÂĵÂĵÂĵÂĵÂĵÂİÂĵÂĵÂĵÂĵÂĵÂĵÂĵÂĵÂĵÂĵÂĵÂĵÂĵÂĵÂĵÂĵÂĵÂĵÂĵÂĵÂĵÂĵÂĵÂĵÂĵÂĵÂĵÂĵÂĵÂĵÂĵÂĵÂĵÂĵÂĵÂĵÂĵÂĵÂĵÂĵÂĵÂĸ": 1753,
      "ÂĵÂĵÂĵÂĵÂĵÂĵÂİÂĵÂĵÂĵÂĵÂĵÂĵÂĵÂĵÂĵÂĵÂĵÂĵÂĵÂĵÂĵÂĵÂĵÂĵÂĵÂĵÂĵÂĵÂĵÂĵÂĵÂĵÂĵÂĵÂĵÂĵÂĵÂĵÂĵÂĵÂĵÂĵÂĵÂĵÂĵÂĵÂĵÂĸÂĵÂĵÂĵÂĵÂĵÂĵÂĵÂĵÂĵÂĵÂĵÂĵÂĵÂĵÂĵÂĵÂĵÂĵÂĵÂĵÂĵÂĵÂĵÂĵÂĵÂĵÂĵÂĵÂĵÂĵÂĵÂĵÂĵÂĵÂĵÂĵÂĵÂĵÂĵÂĵÂĵÂĵÂĵÂĵÂĵÂĵÂĵÂĵÂĵÂĵÂĵÂĵÂĵÂĵÂĵÂĵÂĵÂĵÂĵÂĵÂĵÂĵÂĵÂĵÂĵÂĵÂĵÂĵÂĵÂĵÂĵÂĵÂĵÂĵÂĵÂĵÂĵ": 1754,
      "00": 1755,
      "GB": 1756,
      "ĝ*$$$$$$": 1757,
      ">Ĕ$/$$$$$$$": 1758,
      "/&": 1759,
      "<đ$": 1760,
      "Ğ!": 1761,
      ")!": 1762,
      "Ē!$": 1763,
      "@ē": 1764,
      "Ě$&!": 1765,
      "Ĝ$%$$%%$": 1766,
      "-;": 1767,
      ">Ē": 1768,
      "ÂĵÂĵÂĵÂĵÂĵÂĵÂĵÂĵÂĵÂĵÂĵÂĵÂĵÂĵÂĵÂĵÂĵÂĵÂĵÂĵÂĵÂĵÂĵÂĵÂĵÂĵÂĵÂĵÂĵÂĵÂĵÂĵÂĵÂĵÂĵÂĵÂĵÂĵÂĵÂĵÂĵÂĵÂĵÂĵÂĵÂĵÂĵÂĵÂĵÂĵÂĵÂĵÂĵÂĵÂĵÂĵÂĵÂĵÂĵÂĵÂĵÂĵÂĵÂĵÂĵÂĵÂĵÂĵÂĵÂĵÂĵÂĵÂĵÂĵÂĵÂĵÂĵÂĵÂĵÂĵÂĵÂĵÂĵÂĵÂĵÂĵÂĵÂĵÂĵÂĵÂĵÂĵÂĵÂĵÂĵÂĵÂĵÂĵÂĵÂĵÂĵÂĵÂĵÂĵÂĵÂĵÂĵÂĵÂĵÂĵÂĴÂĶÂĵÂĵÂĵ": 1769,
      "-$&%": 1770,
      "ē%'": 1771,
      "ÂĶÂĵÂĵÂĵÂĵÂĵÂĵÂĶÂĵÂĵÂĵÂĵÂĵÂĵÂĵÂĵÂĵÂĵÂĵÂĵÂĵÂĵÂĵÂĵÂĵÂĵÂĵÂĵÂĵÂĵÂĵÂĵÂĵÂĵÂĵÂĵÂĵÂĵÂĵÂĵÂĵÂĵÂĵÂĵÂĵÂĵÂĵÂĵÂĵÂĵÂĵÂĵÂĵÂĵÂĵÂĵÂĵÂĵÂĵÂĵÂĵÂĵÂĵÂĵÂĵÂĵÂĵÂĵÂĵÂĵÂĵÂĵÂĵÂĵÂĵÂĵÂĵÂĵÂĵÂĵÂĵÂĵÂĵÂĵ": 1772,
      "ÂĵÂĵÂĵÂĵÂĵÂĵÂĵÂĵÂĵÂĵÂĵÂĵÂĵÂĵÂĵÂĵÂĵÂĵÂĵÂĵÂĵÂĵÂĵÂĵÂĵÂĵÂĵÂĵÂĵÂĵÂĵÂĵÂĵÂĵÂĵÂĵÂĵÂĵÂĵÂĵÂĵÂĵÂĵÂĵÂĵÂĵÂĵÂĵÂĵÂĵÂĵÂĵÂĵÂĵÂĵÂĵÂĵÂĵÂĵÂĵÂĵÂĵÂĵÂĵÂĵÂĵÂĵÂĵÂĵÂĵÂĵÂĵÂĵÂĵÂĵÂĵÂĵÂĵÂĵÂĵÂĵÂĵÂĵÂĵÂĵÂĵÂĵÂĵÂĵÂĵÂĵÂĵÂĵÂĵÂĵÂĵÂĵÂĵÂĵÂķ": 1773,
      ".;": 1774,
      "ÂĵÂĵÂĵÂĵÂĵÂĵÂĵÂĵÂĵÂĵÂĵÂĵÂĵÂĵÂĵÂĵÂĵÂĵÂĵÂĵÂĵÂĵÂĵÂĵÂĵÂĵÂĵÂĵÂĵÂĵÂĵÂĵÂĵÂĵÂĵÂĵÂĵÂĵÂĵÂĵÂĵÂĵÂĵÂĵÂĵÂĵÂĵÂĵÂĵÂĵÂĵÂĵÂĵÂĵÂĵÂĵÂĵÂĵÂĵÂĵÂĵÂĵÂĵÂĵÂĵÂĵÂĵÂĵÂĵÂĵÂĵÂĵÂĵÂĵÂĵÂĵÂĵÂĵÂĵÂĵÂĵÂĵÂĵÂĵÂĵÂĵÂĵÂĵÂĵÂĵÂĵÂĵÂĵÂĵÂĵÂĵÂĵÂĵÂĵÂĵÂĵÂĵÂĵÂĵÂĵÂĵÂĵÂĵÂĵÂĵÂĵÂĳ": 1775,
      "@;ĕ": 1776,
      "ą$$$$$$$": 1777,
      "ÂĶÂĴÂĵÂĵÂĵ": 1778,
      "Ė#ĝ": 1779,
      ";Ĕ": 1780,
      "$/": 1781,
      "ě<": 1782,
      "ÂĵÂĵÂĵÂĵÂĵÂĵÂĵÂĵÂĵÂĵÂĵÂĵÂĵÂĵÂĵÂĵÂĵÂĵÂĵÂĵÂĵÂĵÂĵÂĵÂĵÂĵÂĵÂĵÂĵÂĵÂĵÂĵÂĵÂĵÂĵÂĵÂĵÂĵÂĵÂĵÂĵÂĵÂĵÂĵÂĵÂĵÂĵÂĵÂĵÂĵÂĵÂĵÂĵÂĵÂĵÂĵÂĵÂĵÂĵÂĵÂĵÂĵÂĵÂĵÂĵÂĵÂĵÂĵÂĵÂĵÂĵÂĵÂĵÂĵÂĵÂĵÂĵÂĵÂĵÂĵÂĵÂĵÂĵÂĵÂĵÂĵÂĵÂĵÂĵÂĵÂĵÂĵÂĵÂĵÂĵÂĵÂĵÂĵÂĵÂĵÂĵÂĵÂĵÂĵÂĵÂĵÂĵÂĵÂĵÂĹ": 1783,
      "Ę$)": 1784,
      "&/!$$$$$$": 1785,
      "ė$ğ": 1786,
      "?:ė": 1787,
      "/$&(": 1788,
      "<ē": 1789,
      "Ė?": 1790,
      "ĝ$%$$%%$": 1791,
      "ěĞ": 1792,
      "Ę$(": 1793,
      "&&$%": 1794,
      "-$&#": 1795,
      "#'%%#$": 1796,
      "ÂĵÂĲÂĴÂĳÂĴÂĵÂĵ": 1797,
      "ÂĵÂĲÂĴÂĳÂķÂĵÂĵÂĵÂĵÂĵÂĵÂĵÂĵÂĵÂĵÂĵÂĵÂĵÂĵÂĵÂĵÂĵÂĵÂĵÂĵÂĵÂĵÂĵÂĵÂĵÂĵÂĵÂĵÂĵÂĵÂĵÂĵÂĵÂĵÂĵÂĵÂĵÂĵÂĵÂĵÂĵÂĵÂĵÂĵÂĵÂĵÂĵÂĵÂĵÂĵÂĵÂĵÂĵÂĵÂĵÂĵÂĵÂĵÂĵÂĵÂĵÂĵÂĵÂĵÂĵÂĵÂĵÂĵÂĵÂĵÂĵÂĵÂĵÂĵÂĵÂĵÂĵÂĵÂĵÂĵÂĵÂĵÂĵÂĵÂĵÂĵÂĵÂĵÂĵÂĵÂĵÂĵÂĵÂĵÂĵÂĵÂĵÂĵÂĵÂĵÂĵÂĵÂĵÂĵÂĵÂĵÂĵÂĶ": 1798,
      "/#$$%#$": 1799,
      "ď$,": 1800,
      "ÂĳÂĵ": 1801,
      "ÂĴÂĶÂĵÂĵÂĵÂĵÂĵÂĵÂĵÂĵÂĵÂĵÂĵÂĵÂĵÂĵÂĵÂĵÂĵÂĵÂĵÂĵÂĵÂĵÂĵÂĵÂĵÂĵÂĵÂĵÂĵÂĵÂĵÂĵÂĵÂĵÂĵÂĵÂĵÂĵÂĵÂĵÂĵÂĵÂĵÂĵÂĵÂĵÂĵÂĵÂĵÂĵÂĵÂĵÂĵÂĵÂĵÂĵÂĵÂĵÂĵÂĵÂĵÂĵÂĵÂĵÂĵÂĵÂĵÂĵÂĵÂĵÂĵÂĵÂĵÂĵÂĵÂĵÂĵÂĵÂĵÂĵÂĵÂĵÂĵÂĵÂĵÂĵÂĵÂĵÂĵÂĵÂĵÂĵÂĵÂĵÂĵÂĵÂĵÂĵÂĵÂĵ": 1802,
      "ÂĵÂĵÂĵÂĵÂĵÂĵÂĵÂĵÂĵÂĵÂĵÂĵÂĵÂĵÂĵÂĵÂĵÂĵÂĵÂĵÂĵÂĵÂĵÂĵÂĵÂĵÂĵÂĵÂĵÂĵÂĵÂĵÂĵÂĵÂĵÂĵÂĵÂĵÂĵÂĵÂĵÂĵÂĵÂĵÂĵÂĵÂĵÂĵÂĵÂĵÂĵÂĵÂĵÂĵÂĵÂĵÂĵÂĵÂĵÂĵÂĵÂĵÂĵÂĵÂĵÂĵÂĵÂĵÂĵÂĵÂĵÂĵÂĵÂĵÂĵÂĵÂĵÂĵÂĵÂĵÂĵÂĵÂĵÂĵÂĵÂĵÂĵÂĵÂĵÂĵÂĵÂĵÂĵÂĵÂĵÂĵÂĵÂĵÂĵÂĵÂĵÂĵÂĵÂĵÂĵÂĵÂĵÂĵÂĵÂĵÂĵÂĵÂĳ": 1803,
      "?đ$/$#$$%#$": 1804,
      "<ė\"Ě$$$$$$$$ę": 1805,
      "-=": 1806,
      "$$$$$$$(": 1807,
      "%'$'&$": 1808,
      "ÂĸÂķÂĴ": 1809,
      "ÂĵÂĶÂĴÂĴÂĵÂĵ": 1810,
      "%$$$%$": 1811,
      "'#": 1812,
      "Ĝ$&$": 1813,
      "ÂĵÂĵÂĵÂĵÂĵÂĵÂĵÂĵÂĵÂĵÂĵÂĵÂĵÂĸÂĵÂĵÂĵÂĵÂĵÂĵÂĵÂĵÂĵÂĵÂĵÂĵÂĵÂĵÂĵÂĵÂĵÂĵÂĵÂĵÂĵÂĵÂĵÂĵÂĵÂĵÂĵÂĵÂĵÂĵÂĵÂĵÂĵÂĵÂĵÂĵÂĵÂĵÂĵÂĵÂĵÂĵÂĵÂĵÂĵÂĵÂĵÂĵÂĵÂĵÂĵÂĵÂĵÂĵÂĵÂĵÂĵÂĵÂĵÂĵÂĵÂĵÂĵÂĵÂĵÂĵÂĵÂĵÂĵÂĵÂĵÂĵÂĵÂĵÂĵÂĵÂĵÂĵÂĵÂĵÂĵÂĵÂĵÂĵÂĵÂĵÂĵÂĵÂĵÂĵ": 1814,
      "ė\"Ě": 1815,
      "ÂĶÂĵÂĵÂĵÂĵÂĵÂĵÂĵÂĵÂĵÂĵÂĵÂĵÂĵÂĵÂĵÂĵÂĵÂĵÂĵÂĵÂĵÂĵÂĵÂĵÂĵÂĵÂĵÂĵÂĵÂĵÂĵÂĵÂĵÂĵÂĵÂĵÂĵÂĵÂĵÂĵÂĵÂĵÂĵÂĵÂĵÂĵÂĵÂĵÂĵÂĵÂĵÂĵÂĵÂĵÂĵÂĵÂĵÂĵÂĵÂĵÂĵÂĵÂĵÂĵÂĵÂĵÂĵÂĵÂĵÂĵÂĵÂĵÂĵÂĵÂĵÂĵÂĵÂĵÂĵÂĵÂĵÂĵÂĵÂĵÂĵÂĵÂĵÂĵÂĵÂĵÂĵÂĵÂĵÂĵÂĵÂĵÂĵÂĵÂĵÂĵÂĵÂĵÂĵÂĵÂĵÂĵÂĵÂĵ": 1816,
      "ÂĵÂĵÂĵÂĵÂĵÂĵÂĵÂĵÂĵÂĵÂĵÂĵÂĵÂĵÂĵÂĵÂĵÂĵÂĵÂĵÂĵÂĵÂĵÂĵÂĵÂĵÂĵÂĵÂĵÂĵÂĵÂĵÂĵÂĵÂĵÂĵÂĵÂĵÂĵÂĵÂĵÂĵÂĵÂĵÂĵÂĵÂĵÂĵÂĴÂĵÂĵÂĵÂĵÂĵÂĵÂĵÂĵÂĵÂĵÂĵÂĵÂĵÂĵÂĵÂĵÂĵÂĵÂĵÂĵÂĵÂĵÂĵÂĵÂĵÂĵÂĵÂĵÂĵÂĵÂĵÂĵÂĵÂĵÂĵÂĵÂĵÂĵÂĵÂĵÂĵÂĵÂĵÂĵÂĵÂĵÂĵÂĵÂĵÂĵÂĵÂĵÂĵÂĵÂĵÂĵÂĵÂĵÂĵÂĵÂĵÂĵÂĵÂĵÂĵÂĵÂĵÂĵÂĵÂĺÂĵÂĵÂĵÂĵÂĵÂĵÂĵ": 1817,
      ".ĝ": 1818,
      "Ē$Ę$$$$$$$": 1819,
      "?Ē$/$#$$%#$": 1820,
      ",,": 1821,
      "ĞĞ": 1822,
      "ÂĶÂĳÂĵÂĵ": 1823,
      "ě*$$$$$$": 1824,
      "ÂĵÂĳÂķÂĵÂĵÂĵ": 1825,
      "ÂĵÂĵÂĵÂĵÂĵÂĵÂĵÂĵÂĵÂĵÂĵÂĵÂĵÂį": 1826,
      "=ĕ$/": 1827,
      "%&%%%$": 1828,
      "ÂĶÂĵÂĶÂĵÂĵ": 1829,
      "\"*$$$$$$": 1830,
      "=Ĕ$.$$$$$$$": 1831,
      "ÂĵÂĵÂĵÂĵÂĵÂĵÂĵÂĵÂĵÂĵÂĵÂĵÂĵÂĵÂĵÂĵÂĵÂĵÂĵÂĵÂĵÂĵÂĵÂĵÂĵÂĵÂĵÂĲ": 1832,
      "<ė&/": 1833,
      "%'$'%$": 1834,
      "ÂĵÂĴÂĴÂĵÂĵ": 1835,
      "Ĝ\"": 1836,
      "ÂĵÂĴÂĶÂĳ": 1837,
      "($)!$": 1838,
      "ę$&#": 1839,
      ".=": 1840,
      "ĠEA": 1841,
      "Ġğ": 1842,
      "?$": 1843,
      "ÂĵÂĶÂĶÂĵÂĵ": 1844,
      "ÂĵÂıÂĴÂĲ": 1845,
      "=Ė\"Ě$$$$$$$$ę": 1846,
      "ĝ@:Ĕ$": 1847,
      "Đ$,!$$$$$$": 1848,
      "/#/ğ$": 1849,
      "ÂĲÂĵÂĵÂĵÂĵÂĵÂĵÂĲ": 1850,
      "ÂĵÂķÂĵÂĵÂĵÂĵÂĵÂĵÂĵÂĵÂĵÂĵÂĵÂĵÂĵÂĵÂĵÂĵÂĵÂĵÂĵÂĵÂĵÂĵÂĵÂĵÂĵÂĵÂĵÂĵÂĵÂĵÂĵÂĵÂĵÂĵÂĵÂĵÂĵÂĵÂĵÂĵÂĵÂĵÂĵÂĵÂĵÂĵÂĵÂĵÂĵÂĵÂĵÂĵÂĵÂĵÂĵÂĵÂĵÂĵÂĵÂĵÂĵÂĵÂĵÂĵÂĵÂĵÂĵÂĵÂĵÂĵ": 1851,
      "ÂĸÂĳÂĵÂĵ": 1852,
      "/$&&": 1853,
      "Đ$$$$$$$": 1854,
      "$&&$": 1855,
      "'@:Ĕ$": 1856,
      "ÂĵÂĲÂĴÂĵÂĵÂĵÂĵÂĵÂĵÂĵÂĵÂĵÂĵÂĵÂĵÂĵÂĵÂĵÂĵÂĵÂĵÂĵÂĵÂĵÂĵÂĵÂĵÂĵÂĵÂĵÂĵÂĵÂĵÂĵÂĵÂĵÂĵÂĵÂĵÂĵÂĵÂĵÂĵÂĵÂĵÂĵÂĵÂĵÂĵÂĵÂĵÂĵÂĵÂĵÂĵÂĵÂĵÂĵÂĵÂĵÂĵÂĵÂĵÂĵÂĵÂĵÂĵÂĵÂĵÂĵÂĵÂĵÂĵÂĵÂĵÂĵÂĵÂĵÂĵÂĵÂĵÂĵÂĵÂĵÂĵÂĵÂĵÂĵÂĵÂĵÂĵÂĵÂĵÂĵÂĵÂĵÂĵÂĵÂĵÂĵÂĵÂĵÂĵÂĵÂĵÂĵÂĵÂĵÂĵÂĵÂĵ": 1857,
      "ÂĵÂĵÂĵÂĵÂĵÂĵÂĵÂĵÂĵÂĴÂĶÂĵÂĵÂĵÂĵÂĵÂĵÂĵÂĵÂĵÂĵÂĵÂĵÂĵÂĵÂĵÂĵÂĵÂĵÂĵÂĵÂĵÂĵÂĵÂĵÂĵÂĵÂĵÂĵÂĵÂĵÂĵÂĵÂĵÂĵÂĵÂĵÂĵÂĵÂĵÂĵÂĵÂĵÂĵÂĵÂĵÂĵÂĵÂĵÂĵÂĵÂĵÂĵÂĵÂĵÂĵÂĵÂĵÂĵÂĵÂĵÂĵÂĵÂĵÂĵÂĵÂĵÂĵÂĵÂĵÂĵÂĵÂĵÂĵÂĵÂĵÂĵÂĵÂĵÂĵÂĵÂĵÂĵÂĵÂĵÂĵÂĵÂĵÂĵÂĵÂĵÂĵÂĵÂĵÂĵÂĵÂĵÂĵÂĵÂĵÂĵÂĵÂĵÂĵÂĵÂĵÂĵÂĵÂĵ": 1858,
      "+%$$%%$": 1859,
      "ę$&!": 1860,
      "ÂĵÂĶÂĶÂĵÂĴÂĵÂĵ": 1861,
      "-#-ğ$": 1862,
      ",$-": 1863,
      "'%$$%%$": 1864,
      "đ$/$$$$$$$": 1865,
      "*$#$$%#$": 1866,
      "ÂĵÂĵÂĵÂĵÂĵÂĵÂĵÂĵÂĵÂĵÂĵÂĵÂĵÂİÂĵÂĵÂĵÂĵÂĵÂĵÂĵÂĵÂĵÂĵÂĵÂĵÂĵÂĵÂĵÂĵÂĵÂĵÂĵÂĵÂĵÂĵÂĵÂĵÂĵÂĵÂĵÂĵÂĵÂĵÂĵÂĵÂĵÂĵÂĵÂĵÂĵÂĵÂĵÂĵÂĵÂķÂĵÂĵÂĵÂĵÂĵÂĵÂĵÂĵÂĵÂĵÂĵÂĵÂĵÂĵÂĵÂĵÂĵÂĵÂĵÂĵÂĵÂĵÂĵÂĵÂĵÂĵÂĵÂĵÂĵÂĵÂĵÂĵÂĵÂĵÂĵÂĵÂĵÂĵÂĵÂĵÂĵÂĵÂĵÂĵÂĵÂĵÂĵÂĵÂĵÂĵÂĵÂĵÂĵÂĵÂĵÂĵÂĵÂĵÂĵÂĵÂĵÂĵÂĵÂĵÂĵÂĵÂĵÂĵÂĵÂĵ": 1867,
      "!'%%!$": 1868,
      "/$&'": 1869,
      "Ę$,": 1870,
      "-'%": 1871,
      "@Ē$Ą$$$$$$$": 1872,
      ".$&#": 1873,
      "ė$(": 1874,
      ",&": 1875,
      "ĘğĚ": 1876,
      ">ē$Ĝ": 1877,
      "Ġ$%$$%%$": 1878,
      "#)&$": 1879,
      "?ē$,": 1880,
      ">ĕ$Ę": 1881,
      "ÂĵÂĵÂĵÂĵÂĵÂĵÂĵÂĵÂĵÂĵÂĵÂĵÂĵÂĵÂĵÂĵÂĵÂĵÂĵÂĵÂĵÂĵÂĵÂĵÂĵÂĵÂĵÂĵÂĵÂĵÂĵÂĵÂĵÂĵÂĵÂĵÂĵÂĵÂĵÂĵÂĵÂĵÂĵÂĵÂĵÂĵÂĵÂĵÂĵÂĵÂĵÂĵÂĵÂĵÂĵÂĵÂĵÂĵÂĵÂĵÂĵÂĵÂĵÂĵÂĵÂĵÂĵÂĵÂĵÂĵÂĵÂĵÂĴÂĵÂĵÂĵÂĵÂĵÂĵÂĵÂĵÂĵÂĵÂĵÂĵÂĵÂĵÂĵÂĵÂĵÂĵÂĵÂĵÂĵÂĵÂĵÂĵÂĵÂĵÂĵÂĵÂĵÂĵÂĵÂĵÂĵÂĵÂĵÂĵÂĵÂĵÂĵÂĵÂĵÂĺÂĵÂĵÂĵÂĵÂĵÂĵÂĵ": 1882,
      "\"'": 1883,
      "$)": 1884,
      "?ē$Ĝ": 1885,
      ",$&$": 1886,
      ":%": 1887,
      "=đ": 1888,
      "Đ$-": 1889,
      "GG": 1890,
      "/%$$%%$": 1891,
      "ÂĶÂĴÂĵÂĵÂĵÂĵ": 1892,
      "ÂĶÂĴÂĵÂĵÂĵÂĵÂĵÂĵÂĵÂĵ": 1893,
      "=Ĕ!ę": 1894,
      "$%%": 1895,
      "ğ=/": 1896,
      "\"&$%": 1897,
      "++": 1898,
      "'*": 1899,
      "Ę).": 1900,
      "Ğĝ": 1901,
      "$$$$$$$Ĝ": 1902,
      "%&,": 1903,
      "(?/": 1904,
      ">(": 1905,
      "ÂĵÂĶÂĵÂĵÂĵÂĵÂĵÂĵÂĵÂĵ": 1906,
      "ÂĵÂķÂĵÂĵÂĵÂĵÂĵÂĵÂĵÂĵÂĵÂĵÂĵÂĵÂĵÂĵÂĵÂĵÂĵÂĵÂĵÂĵÂĵÂĵÂĵÂĵÂĵÂĵÂĵÂĵÂĵÂĵÂĵÂĵÂĵÂĵÂĵÂĵÂĵÂĵÂĵÂĵÂĵÂĵÂĵÂĵÂĵÂĵÂĵÂĵÂĵÂĵÂĵÂĵÂĵÂĵÂĵÂĵÂĵÂĵÂĵÂĵÂĵÂĵÂĵÂĵÂĵÂĵÂĵÂĵÂĵÂĵÂĵÂĵÂĵÂĵÂĵÂĵÂĵ": 1907,
      "ÂĵÂĵÂĵÂĵÂĵÂĵÂĵÂĵÂĵÂĵÂĵÂĵÂĵÂĵÂĵÂĵÂĵÂĵÂĵÂĵÂĵÂĵÂĵÂĵÂĵÂĵÂĵÂĳÂĵÂĵÂĵÂĵÂĵÂĵÂĵÂĵÂĵÂĵÂĵÂĵÂĵÂĵÂĵÂĵÂĵÂĵÂĵÂĵÂĵÂĵÂĵÂĵÂĵÂĵÂĵÂĵÂĵÂĵÂĵÂĵÂĵÂĵÂĵÂĵÂĵÂĵÂĵÂĵÂĵÂĵÂĵÂĵÂĵÂĵÂĵÂĵÂĵÂĵÂĵÂĵÂĵÂĵÂĵÂĵÂĵÂĵÂĵÂĵÂĵÂĵÂĵÂĵÂĵÂĵÂĵÂĵÂĵÂĵÂĵÂĵÂĵÂĵÂĵÂĵÂĵÂĵÂĵÂĵ": 1908,
      "ÂĵÂĵÂĵÂĵÂĵÂĵÂĵÂĵÂĵÂĵÂĵÂĵÂĵÂĵÂĵÂĵÂĵÂĵÂĵÂĵÂĵÂĵÂĵÂĵÂĵÂĵÂĵÂĵÂĵÂĵÂĵÂĵÂĵÂĵÂĵÂĵÂĵÂĵÂĵÂĵÂĵÂĵÂĵÂĵÂĵÂĵÂĵÂĵÂĵÂĵÂĵÂĵÂĵÂĵÂĵÂĵÂĵÂĵÂĵÂĵÂĵÂĵÂĵÂĵÂĵÂĵÂĵÂĵÂĵÂĵÂĵÂĵÂĵÂĵÂĵÂĵÂĵÂĵÂĵÂĵÂĵÂĵÂĵÂĵÂĵÂĵÂĵÂĵÂĵÂĵÂĵÂĵÂĵÂĵÂĵÂĵÂĵÂĵÂĵÂĵÂĵÂĵÂĵÂĵÂĵÂĵÂĵÂĵÂĵÂĵÂĵÂĵÂĴ": 1909,
      "*<ě$": 1910,
      "%.,": 1911,
      "$Ğ": 1912,
      "66": 1913,
      "%%\"$": 1914,
      "'#$$%#$": 1915,
      "ÂĵÂĵÂĵÂĵÂĵÂĵÂİÂĵÂĵÂĵÂĵÂĵÂĵÂĵÂĵÂĵÂĵÂĵÂĵÂĵÂĵÂĵÂĵÂĵÂĵÂĵÂĵÂĵÂĵÂĵÂĵÂĵÂĵÂĵÂĵÂĵÂĵÂĵÂĵÂĵÂĵÂĵÂĵÂĵÂĵÂĵÂĵÂĵÂķÂĵÂĵÂĵÂĵÂĵÂĵÂĵÂĵÂĵÂĵÂĵÂĵÂĵÂĵÂĵÂĵÂĵÂĵÂĵÂĵÂĵÂĵÂĵÂĵÂĵÂĵÂĵÂĵÂĵÂĵÂĵÂĵÂĵÂĵÂĵÂĵÂĵÂĵÂĵÂĵÂĵÂĵÂĵÂĵÂĵÂĵÂĵÂĵÂĵÂĵÂĵÂĵÂĵÂĵÂĵÂĵÂĵÂĵÂĵÂĵÂĵÂĵÂĵÂĵÂĵÂĵÂĵÂĵÂĵÂĵÂĵÂĵÂĵÂĵÂĵÂĵÂĵ": 1916,
      "$&=/": 1917,
      "Ĝ;": 1918,
      "%#$$%#$": 1919,
      ".&": 1920,
      "ÂĹÂĵ": 1921,
      "Ě=": 1922,
      "%*,": 1923,
      "&$(?-": 1924,
      "%'%%%$": 1925,
      "ÂĵÂĵÂĵÂĵÂĵÂĵÂĵÂĵÂĵÂĵÂĵÂĵÂĵÂĵÂĵÂĵÂĵÂĵÂĵÂĵÂĵÂĵÂĵÂĵÂĵÂĵÂĵÂĵÂĵÂĵÂĵÂĵÂĵÂĵÂĵÂĵÂĵÂĵÂĵÂĵÂĵÂĵÂĵÂĵÂĵÂĵÂĵÂĵÂĵÂĵÂĵÂĵÂĵÂĵÂĵÂĵÂĵÂĵÂĵÂĵÂĵÂĵÂĵÂĵÂĵÂĵÂĵÂĵÂĵÂĵÂĵÂĵÂĵÂĵÂĵÂĵÂĵÂĵÂĵÂĵÂĵÂĵÂĵÂĵÂĵÂĵÂĵÂĵÂĵÂĵÂĵÂĵÂĵÂĵÂĵÂĵÂĵÂĵÂĵÂĵÂĵÂĵÂĵÂĵÂĵÂĵÂĵÂĵÂĵÂĵÂĵÂĵÂĵÂĵÂĵÂĵÂĵÂĵÂĵÂĴÂĵÂĶÂĴ": 1926,
      "/$&#": 1927,
      "Ě$&#": 1928,
      "ÂĴÂĶÂĳ": 1929,
      "ÂĵÂĵÂĵÂĵÂĵÂĵÂĵÂĴÂĵÂĴÂĵÂĴ": 1930,
      "%(,": 1931,
      "/)$Ĝ!": 1932,
      ".:Ĕ$$ÂĴÂĵÂĵÂĵÂĴÂĵÂĵÂĶÂĵÂĶÂĵÂĶÂĵÂĵÂĵÂĵÂĵÂĵÂĵÂĵÂĵÂĵÂĵÂĵÂĵÂĵÂĵÂĵÂĵÂĵÂĵÂĵÂĵÂĵÂĵÂĵÂĵÂĵÂĵÂĵÂĵÂĵÂĵÂĵÂĵÂĵÂĵÂĵÂĵÂĵÂĵÂĵÂĵÂĵÂĵÂĵÂĵÂĵÂĵÂĵÂĵÂĵÂĵÂĵÂĵÂĵÂĵÂĵÂĵÂĵÂĵÂĵÂĵÂĵÂĵÂĵÂĵÂĵÂĵÂĵÂĵÂĵÂĵÂĵÂĵÂĵÂĵÂĵÂĵÂĵÂĵÂĵÂĵÂĵÂĵÂĵÂĵÂĵÂĵÂĵÂĵÂĵÂĵÂĵÂĵÂĵÂĵÂĵÂĵÂĵÂĵÂĵÂĵÂĵÂĵÂĵÂĵÂĵÂĵÂĵÂĵÂĵÂĵÂĵÂĵÂĵ": 1933,
      "&$&\"$": 1934,
      "ÂĶÂĸÂĳÂĵÂĵ": 1935,
      "ÂĵÂĶÂķÂĴ": 1936,
      "Ė$$ÂĵÂĵÂĵÂĵÂĵÂĵÂĵÂĵÂĵÂĵÂĵÂĵÂĵÂĵÂĵÂĵÂĵÂĵÂĵÂĵÂĵÂĵÂĵÂĵÂĵÂĵÂĵÂĵÂĵÂĵÂĵÂĵÂĵÂĵÂĵÂĵÂĵÂĵÂĵÂĵÂĵÂĵÂĵÂĵÂĵÂĵÂĵÂĵÂĴÂĵÂĵÂĵÂĵÂĵÂĵÂĵÂĵÂĵÂĵÂĵÂĵÂĵÂĵÂĵÂĵÂĵÂĵÂĵÂĵÂĵÂĵÂĵÂĵÂĵÂĵÂĵÂĵÂĵÂĵÂĵÂĵÂĵÂĵÂĵÂĵÂĵÂĵÂĵÂĵÂĵÂĵÂĵÂĵÂĵÂĵÂĵÂĵÂĵÂĵÂĵÂĵÂĵÂĵÂĵÂĵÂĵÂĵÂĵÂĵÂĵÂĵÂĵÂĵÂĵÂĵÂĵÂĵÂĵÂĺÂĵÂĵÂĵÂĵÂĵÂĵÂĵ": 1937,
      "ÂĵÂķÂĵÂĵÂĵÂĵÂĵÂĵÂĵÂĵÂĵÂĵÂĵÂĵÂĵÂĵÂĵÂĵÂĵÂĵÂĵÂĵÂĵÂĵÂĵÂĵÂĵÂĵÂĵÂĵÂĵÂĵÂĵÂĵÂĵÂĵÂĵÂĵÂĵÂĵÂĵÂĵÂĵÂĵÂĵÂĵÂĵÂĵÂĵÂĵÂĵÂĵÂĵÂĵÂĵÂĵÂĵÂĵÂĵÂĵÂĵÂĵÂĵÂĵÂĵÂĵÂĵÂĵÂĵÂĵÂĵÂĵÂĵÂĵÂĵÂĵÂĵÂĵÂĵÂĵÂĵÂĵÂĵÂĵÂĵÂĵÂĵÂĵÂĵÂĵÂĵÂĵÂĵÂĵÂĵÂĵÂĵÂĵÂĵÂĵÂĵÂĵÂĵÂĵÂĵÂĵÂĵÂĵÂĵÂĶÂĵÂĵÂĵÂĶÂĵÂĵ": 1938,
      "%$%?)": 1939,
      "ÂĵÂĶÂĵÂĵÂĵÂĶÂĵÂĵÂĵÂĵÂĵÂĵÂĵÂĵÂĵ": 1940,
      "ÂĵÂĵÂĵÂĵÂĵÂĵÂĵÂĵÂĵÂĵÂĵÂĵÂĵÂĵÂĵÂĵÂĵÂĵÂĵÂĵÂĵÂĵÂĵÂĵÂĵÂĵÂĵÂĵÂĵÂĵÂĵÂĵÂĵÂĵÂĵÂĵÂĵÂĵÂĵÂĵÂĵÂĵÂĵÂĵÂĵÂĵÂĵÂĵÂĵÂĵÂĵÂĵÂĵÂĵÂĵÂĵÂĵÂĵÂĵÂĵÂĵÂĵÂĵÂĵÂĵÂĵÂĵÂĵÂĵÂĵÂĵÂĵÂĵÂĵÂĵÂĵÂĵÂĵÂĵÂĵÂĵÂĵÂĵÂĵÂĵÂĵÂĵÂĵÂĵÂĵÂĵÂĵÂĵÂĵÂĵÂĵÂĵÂĵÂĵÂĵÂĵÂĵÂĵÂĵÂĵÂĵÂĵÂĵÂĵÂĵÂĵÂķÂĵÂĵ": 1941,
      "%$$ÂĵÂĵÂĵÂĵÂĵÂĵÂĵÂĶ": 1942,
      "%$$>(": 1943,
      "Ě$$ÂĵÂĵÂĵÂĵÂĵÂĵÂĵÂĵÂĵÂĵÂĵÂĵÂĵÂĵÂĵÂĵÂĵÂĵÂĵÂĵÂĵÂĵÂĵÂĵÂĵÂĵÂĵÂĵÂĵÂĵÂĵÂĵÂĵÂĵÂĵÂĵÂĵÂĵÂĵÂĵÂĵÂĵÂĵÂĵÂĵÂĵÂĵÂĵÂĵÂĵÂĵÂĵÂĵÂĵÂĵÂĵÂĵÂĵÂĵÂĵÂĵÂĵÂĵÂĵÂĵÂĵÂĵÂĵÂĵÂĵÂĵÂĵÂĵÂĵÂĵÂĵÂĵÂĵÂĵÂĵÂĵÂĵÂĵÂĵÂĵÂĵÂĵÂĵÂĵÂĵÂĵÂĵÂĵÂĵÂĵÂĵÂĵÂĵÂĵÂĵÂĵÂĵÂĵÂĵÂĵÂĵÂĵÂĵÂĵÂĵÂĵÂĵÂĵÂĵÂĵÂĵÂĵÂĵÂĵÂĴÂĵÂĶÂĴ": 1944,
      "%$#=':Ę$": 1945,
      "%,,": 1946,
      "Ė$$ÂĵÂĵÂĵÂĵÂĵÂĵÂİÂĵÂĵÂĵÂĵÂĵÂĵÂĵÂĵÂĵÂĵÂĵÂĵÂĵÂĸÂĵÂĵÂĵÂĵÂĵÂĵÂĵÂĵÂĵÂĵÂĵÂĵÂĵÂĵÂĵÂĵÂĵÂĵÂĵÂĵÂĵÂĵÂĵÂĵÂĵÂĵÂĵÂĵÂĵÂĵÂĵÂĵÂĵÂĵÂĵÂĵÂĵÂĵÂĵÂĵÂĵÂĵÂĵÂĵÂĵÂĵÂĵÂĵÂĵÂĵÂĵÂĵÂĵÂĵÂĵÂĵÂĵÂĵÂĵÂĵÂĵÂĵÂĵÂĵÂĵÂĵÂĵÂĵÂĵÂĵÂĵÂĵÂĵÂĵÂĵÂĵÂĵÂĵÂĵÂĵÂĵÂĵÂĵÂĵÂĵÂĵÂĵÂĵÂĵÂĵ": 1947,
      "Ė$$ÂĵÂĵÂĵÂĵÂĵÂĵÂĵÂĵÂĵÂĵÂĵÂĵÂĵÂĺÂĵÂĵÂĵÂĵÂĵÂĵÂĵÂĵÂĵÂĵÂĵÂĵÂĵÂĵÂĵÂĵÂĵÂĵÂĵÂĵÂĵÂĵÂĵÂĵÂĵÂĵÂĵÂĵÂĵÂĵÂĵÂĵÂĵÂĵÂĵÂĵÂĵÂĵÂĵÂĵÂĵÂĵÂĵÂĵÂĵÂĵÂĵÂĵÂĵÂĵÂĵÂĵÂĵÂĵÂĵÂĵÂĵÂĵÂĵÂĵÂĵÂĵÂĵÂĵÂĵÂĵÂĵÂĵÂĵÂĵÂĵÂĵÂĵÂĵÂĵÂĵÂĵÂĵÂĵÂĵÂĵÂĵÂĵÂĲÂĵÂĵÂĵÂĵÂĵÂĵÂĵÂĵÂĵÂĵÂĵÂĵÂĵÂĵÂĵÂĵÂĵÂĵÂĵÂĵÂĵÂĵÂĵÂĵÂĵÂĵÂĵÂĵ": 1948,
      "ÂĵÂĴÂĶÂıÂĵÂĵÂĵÂĵÂĵÂĵÂĵÂĵÂĵÂĵÂĵÂĵÂĵÂĵÂĵÂĵÂĵÂĵÂĵÂĵÂĵÂĵÂĵÂĵÂĵÂĵÂĵÂĵÂĵÂĵÂĵÂĵÂĵÂĵÂĵÂĵÂĵÂĵÂĵÂĵÂĵÂĵÂĵÂĵÂĵÂĵÂĵÂĵÂĵÂĵÂĵÂĵÂĵÂĵÂĵÂĵÂĵÂĵÂĵÂĵÂĵÂĵÂĵÂĵÂĵÂĵÂĵÂĵÂĵÂĵÂĵÂĵÂĵÂĵÂĵÂĵÂĵÂĵÂĵÂĵÂĵÂĵÂĵÂĵÂĵÂĵÂĵÂĵÂĵÂĵÂĵÂĵÂĵÂĵÂĵÂĵÂĵÂĵÂĵÂĵÂĵÂĵÂĵÂĵÂĵÂĵÂĵÂĵÂĵÂĵÂĵÂķÂĵÂĵ": 1949,
      "ÂĵÂĵÂĵÂĵÂĵÂĵÂĵÂĴÂĵÂĴÂĵÂĴÂĵÂĵÂĵÂĵÂĵÂĵÂĵÂĵÂĵÂĵÂĵÂĵÂĵÂĵÂĵÂĵÂĵÂĵÂĵÂĵÂĵÂĵÂĵÂĵÂĵÂĵÂĵÂĵÂĵÂĵÂĵÂĵÂĵÂĵÂĵÂĵÂĵÂĵÂĵÂĵÂĵÂĵÂĵÂĵÂĵÂĵÂĵÂĵÂĵÂĵÂĵÂĵÂĵÂĵÂĵÂĵÂĵÂĵÂĵÂĵÂĵÂĵÂĵÂĵÂĵÂĵÂĵÂĵÂĵÂĵÂĵÂĵÂĵÂĵÂĵÂĵÂĵÂĵÂĵÂĵÂĵÂĵÂĵÂĵÂĵÂĵÂĵÂĵÂĵÂĵÂĵÂĵÂĵÂĵÂĵÂĵÂĵÂĵÂĵÂĵÂĵÂĵÂĵÂĵÂĵÂĵÂĵÂĵÂĵÂĵÂĵÂĵÂĵÂĵ": 1950,
      "%$%?):Ė$": 1951,
      "%$$ÂĵÂĵÂĵÂĵÂĵÂĵÂĵÂĶÂĵÂĴÂĶÂıÂĵÂĵÂĵÂĵÂĵÂĵÂĵÂĵÂĵÂĵÂĵÂĵÂĵÂĵÂĵÂĵÂĵÂĵÂĵÂĵÂĵÂĵÂĵÂĵÂĵÂĵÂĵÂĵÂĵÂĵÂĵÂĵÂĵÂĵÂĵÂĵÂĵÂĵÂĵÂĵÂĵÂĵÂĵÂĵÂĵÂĵÂĵÂĵÂĵÂĵÂĵÂĵÂĵÂĵÂĵÂĵÂĵÂĵÂĵÂĵÂĵÂĵÂĵÂĵÂĵÂĵÂĵÂĵÂĵÂĵÂĵÂĵÂĵÂĵÂĵÂĵÂĵÂĵÂĵÂĵÂĵÂĵÂĵÂĵÂĵÂĵÂĵÂĵÂĵÂĵÂĵÂĵÂĵÂĵÂĵÂĵÂĵÂĵÂĵÂĵÂĵÂĵÂĵÂĵÂĵÂĵÂĵÂĵÂĵÂĵÂĵÂķÂĵÂĵ": 1952,
      "%$$>(:ė$": 1953,
      "Ě$$ÂĵÂĵÂĵÂĵÂĵÂĵÂĵÂĵÂĵÂĵÂĵÂĵÂĵÂĵÂĵÂĵÂĵÂĵÂĵÂĵÂĵÂĵÂĵÂĵÂĵÂĵÂĵÂĵÂĵÂĵÂĵÂĵÂĵÂĵÂĵÂĵÂĵÂĵÂĵÂĵÂĵÂĵÂĵÂĵÂĵÂĵÂĵÂĵÂĵÂĵÂĵÂĵÂĵÂĵÂĵÂĵÂĵÂĵÂĵÂĵÂĵÂĵÂĵÂĵÂĵÂĵÂĵÂĵÂĵÂĵÂĵÂĵÂĵÂĵÂĵÂĵÂĵÂĵÂĵÂĵÂĵÂĵÂĵÂĵÂĵÂĵÂĵÂĵÂĵÂĵÂĵÂĵÂĵÂĵÂĵÂĵÂĵÂĵÂĵÂĵÂĵÂĵÂĵÂĵÂĵÂĵÂĵÂĵÂĵÂĵÂĵÂĵÂĵÂĵÂĵÂĵÂĵÂĵÂĵÂĴÂĵÂĶÂĴÂĸÂĵÂĵ": 1954,
      "Ė$$ÂĵÂĵÂĵÂĵÂĵÂĵÂİÂĵÂĵÂĵÂĵÂĵÂĵÂĵÂĵÂĵÂĵÂĵÂĵÂĵÂĸÂĵÂĵÂĵÂĵÂĵÂĵÂĵÂĵÂĵÂĵÂĵÂĵÂĵÂĵÂĵÂĵÂĵÂĵÂĵÂĵÂĵÂĵÂĵÂĵÂĵÂĵÂĵÂĵÂĵÂĵÂĵÂĵÂĵÂĵÂĵÂĵÂĵÂĵÂĵÂĵÂĵÂĵÂĵÂĵÂĵÂĵÂĵÂĵÂĵÂĵÂĵÂĵÂĵÂĵÂĵÂĵÂĵÂĵÂĵÂĵÂĵÂĵÂĵÂĵÂĵÂĵÂĵÂĵÂĵÂĵÂĵÂĵÂĵÂĵÂĵÂĵÂĵÂĵÂĵÂĵÂĵÂĵÂĵÂĵÂĵÂĵÂĵÂĵÂĵÂĵÂĵÂĶÂĵÂĵÂĵÂĶÂĵÂĵÂĵÂĵÂĵÂĵÂĵÂĵÂĵ": 1955,
      "-\"": 1956,
      "?Ĕ&.$$$$$$$$.": 1957,
      ":ė$ę": 1958,
      "$)&%": 1959,
      "($$$$$$$$": 1960,
      "=ĕ$/$$$$$$$": 1961,
      "ÂĵÂĸÂĶÂĵÂĵÂĵÂĵÂĵÂĵÂĵÂĵÂĵ": 1962,
      "&.$$$$$$$$": 1963,
      ">ē": 1964,
      "ÂĵÂĻÂĵÂĵÂĵÂĵÂĵÂĵÂĵ": 1965,
      "@Ē$-": 1966,
      "$$\"=/": 1967,
      "$$$$$$$/>": 1968,
      "#$$$": 1969,
      "(=-": 1970,
      "ĕ$#": 1971,
      "Ē$ă$$$$$$$": 1972,
      "&%%$": 1973,
      "(#": 1974,
      "ę$&\"": 1975,
      ",$&'": 1976,
      "<ĕ'/": 1977,
      "ē$&!$$$$$$": 1978,
      "ę@": 1979,
      "ě$&#": 1980,
      "Ĕ$ā$&?": 1981,
      "$%%$$$": 1982,
      "%$'>-": 1983,
      "ÂĵÂĵÂĵÂĵÂķÂĵÂķ": 1984,
      "+$$$$$$$$$$$$$": 1985,
      "ď%": 1986,
      "ę$&$": 1987,
      "Ġ4": 1988,
      "ď$Ĝ!$$$$$$": 1989,
      "$$$$$$$ę@;Ė": 1990,
      "ÂıÂĵÂĵÂĵÂĵÂĵÂĵÂĵÂĵ": 1991,
      "#$$$#$": 1992,
      "ė$Ĝ": 1993,
      "$$$$$$$\"&": 1994,
      "Ĕ$đ$": 1995,
      "$$$$$$$ę:": 1996,
      "$$$$$$$ę>": 1997,
      "*<.$": 1998,
      "=ĕ'/": 1999,
      "Ě!": 2000,
      "$$$$$$$!'%%!$": 2001,
      ":&$$#<-": 2002,
      "ÂĸÂķÂĳ": 2003,
      "ÂĵÂĵÂĵÂĵÂĵÂĵÂĵÂĵÂĵÂĵÂĵÂĵÂĵÂĵÂĵÂĵÂĵÂĵÂĵÂĵÂĵÂĵÂĵÂĵÂĵÂĵÂĵÂĵÂĵÂĵÂĵÂĵÂĵÂĵÂĵÂĵÂĵÂĵÂĵÂĵÂĵÂĵÂĵÂĵÂĵÂĵÂĵÂĵÂ¶ÂĵÂĵÂĵÂĵÂĵÂĵÂ¶": 2004,
      "$$$$$$$$$$$$$$$$$$$$$$$$$$$$$$$$$$$$$$$$$$$$$$$$%$$$$$$%$$$$$$": 2005,
      "$Ę": 2006,
      "$$$$$$$Ğ*&%": 2007,
      "$$$$$$$ě/)$Ĝ!": 2008,
      "$$$$$$$$$$$$$$$$$$$$#$$$$$$#$$$$$$-$$$$$$-$$$$$$": 2009,
      ";$$$$$$$": 2010,
      "ÂĶÂĵÂĵÂĳ": 2011,
      ":&$%#;-": 2012,
      ":&$'#;-": 2013,
      ":&$-#;-": 2014,
      ":&$/#;-": 2015,
      "ę!": 2016,
      "Ě$&$": 2017,
      "&.*$$$$$$": 2018,
      "ÂĵÂĸÂĵÂĵÂĵÂĵÂĵÂĵÂĵÂĵÂĵÂĵÂĵÂĵÂĵÂĵÂĵÂĵÂĵÂĵÂĵÂĵÂĵÂĵÂĵÂĵÂĵÂĵÂĵÂĵÂĵÂĵÂĵÂĵÂĵÂĵÂĵÂĵÂĵÂĵÂĵÂĵÂĵÂĵÂĵÂĵÂĵÂĵÂĵÂĵÂĵÂĵÂĵÂĵÂĵÂĵÂĵÂĵÂĵÂĵÂĵÂĵÂĵÂĵÂĵÂĵÂĵÂĵÂĵÂĵÂĵÂĵ": 2019,
      "ÂĵÂĵÂĵÂĵÂĵÂĵÂĵÂĵÂĵÂĵÂĵÂĵÂĵÂİÂĵÂĵÂĵÂĵÂĵÂĵÂĵÂĵÂĵÂĵÂĵÂĵÂĵÂĵÂĵÂĵÂĵÂĵÂĵÂĵÂĵÂĵÂĵÂĵÂĵÂĵÂĵÂĵÂĵÂĵÂĵÂĵÂĵÂĵÂĵÂĵÂĵÂĵÂĵÂĵÂĵÂĸÂĵÂĵÂĵÂĵÂĵÂĵÂĵÂĵÂĵÂĵÂĵÂĵÂĵÂĵÂĵÂĵÂĵÂĵÂĵÂĵÂĵÂĵÂĵÂĵÂĵÂĵÂĵÂĵÂĵÂĵÂĵÂĵÂĵÂĵÂĵÂĵÂĵÂĵÂĵÂĵÂĵÂĵÂĵÂĵÂĵÂĵÂĵÂĵÂĵÂĵÂĵÂĵÂĵÂĵÂĵÂĵÂĵÂĵÂĵÂĵÂĵÂĵÂĵÂĵÂĵÂĵÂĵÂĵÂĵÂĵ": 2020,
      "-$&&": 2021,
      "!$%$$%%$": 2022,
      ")*": 2023,
      "+$&&": 2024,
      "ğ!": 2025,
      "ÂķÂĶ": 2026,
      "ÂĵÂĵÂĵÂĵÂĵÂĵÂį": 2027,
      "$'$'%$": 2028,
      ">ē$.+": 2029,
      ",$$$$$$$$$$$$$": 2030,
      "Ĝ+-": 2031,
      "&.$$$$$$$$-": 2032,
      "-$$$$$$$$$$$$$": 2033,
      "ÂĶÂĴÂĴÂĶ": 2034,
      "ÂĵÂĶÂĴÂĹ": 2035,
      ",$&#": 2036,
      "/$ÂĵÂĵÂĵÂĵÂĵÂĵÂĵÂĴ": 2037,
      "Ė#Ğ": 2038,
      "/$$$$$$$$$$$$$": 2039,
      "Ě;": 2040,
      "Ě>": 2041,
      "ÂĵÂĳÂĲÂķ": 2042,
      ".$$$$$$$$$$$$$": 2043,
      "Ę$'": 2044,
      "ÂĵÂĶÂĵÂĵÂĵÂĵÂĵÂĵÂĵÂĵÂĵÂĵÂĵÂĵÂĵÂĵÂĵÂĵÂĵÂĵÂĵÂĵÂĵÂĵÂĵÂĵÂĵÂĵÂĵÂĵÂĵÂĵÂĵÂĵÂĵÂĵÂĵÂĵÂĵÂĵÂĵÂĵÂĵÂĵÂĵÂĵÂĵÂĵÂĵÂĵÂĵÂĵÂĵÂĵÂĵÂĵÂĵÂĵÂĵÂĵÂĵÂĵÂĵÂĵÂĵÂĵÂĵÂĵÂĵÂĵÂĵÂĵÂĵÂĵÂĵÂĵÂĵÂĵÂĵÂĵÂĵÂĵÂĵÂĵÂĵÂĵÂĵÂĵÂĵÂĵÂĵÂĵÂĵÂĵÂĵÂĵÂĵÂĵÂĵÂĵÂĵÂĵÂĵÂĵÂĵÂĵÂĵÂĵÂĵÂĵ": 2045,
      "$$$$$$$ę<": 2046,
      "ě$&!": 2047
    },
    "merges": [
      [
        "Â",
        "ĵ"
      ],
      [
        "Âĵ",
        "Âĵ"
      ],
      [
        "ÂĵÂĵ",
        "ÂĵÂĵ"
      ],
      [
        "$",
        "$"
      ],
      [
        "ÂĵÂĵÂĵÂĵ",
        "ÂĵÂĵÂĵÂĵ"
      ],
      [
        "$$",
        "$$"
      ],
      [
        "ÂĵÂĵÂĵÂĵÂĵÂĵÂĵÂĵ",
        "ÂĵÂĵÂĵÂĵÂĵÂĵÂĵÂĵ"
      ],
      [
        "ÂĵÂĵÂĵÂĵÂĵÂĵÂĵÂĵÂĵÂĵÂĵÂĵÂĵÂĵÂĵÂĵ",
        "ÂĵÂĵÂĵÂĵÂĵÂĵÂĵÂĵÂĵÂĵÂĵÂĵÂĵÂĵÂĵÂĵ"
      ],
      [
        "$$$$",
        "$$"
      ],
      [
        "ÂĵÂĵÂĵÂĵÂĵÂĵÂĵÂĵÂĵÂĵÂĵÂĵÂĵÂĵÂĵÂĵÂĵÂĵÂĵÂĵÂĵÂĵÂĵÂĵÂĵÂĵÂĵÂĵÂĵÂĵÂĵÂĵ",
        "ÂĵÂĵÂĵÂĵÂĵÂĵÂĵÂĵÂĵÂĵÂĵÂĵÂĵÂĵÂĵÂĵÂĵÂĵÂĵÂĵÂĵÂĵÂĵÂĵÂĵÂĵÂĵÂĵÂĵÂĵÂĵÂĵ"
      ],
      [
        "Âĵ",
        "Â"
      ],
      [
        "$$$$",
        "$$$$"
      ],
      [
        "$$$$$$",
        "$"
      ],
      [
        "Â",
        "Ĵ"
      ],
      [
        "Â",
        "Ķ"
      ],
      [
        "Ĕ",
        "$"
      ],
      [
        "%",
        "$"
      ],
      [
        "ÂĵÂĵÂĵÂĵÂĵÂĵÂĵÂĵÂĵÂĵÂĵÂĵÂĵÂĵÂĵÂĵÂĵÂĵÂĵÂĵÂĵÂĵÂĵÂĵÂĵÂĵÂĵÂĵÂĵÂĵÂĵÂĵÂĵÂĵÂĵÂĵÂĵÂĵÂĵÂĵÂĵÂĵÂĵÂĵÂĵÂĵÂĵÂĵÂĵÂĵÂĵÂĵÂĵÂĵÂĵÂĵÂĵÂĵÂĵÂĵÂĵÂĵÂĵÂĵ",
        "ÂĵÂĵÂĵÂĵÂĵÂĵÂĵÂĵÂĵÂĵÂĵÂĵÂĵÂĵÂĵÂĵÂĵÂĵÂĵÂĵÂĵÂĵÂĵÂĵÂĵÂĵÂĵÂĵÂĵÂĵÂĵÂĵ"
      ],
      [
        "$",
        "&"
      ],
      [
        "ĕ",
        "$"
      ],
      [
        "ē",
        "$"
      ],
      [
        "ÂĵÂĵÂĵÂĵ",
        "ÂĵÂĵ"
      ],
      [
        "$$",
        "%"
      ],
      [
        ":",
        "&"
      ],
      [
        "#",
        "$"
      ],
      [
        "ÂĵÂ",
        "Ķ"
      ],
      [
        "!",
        "$$$$$$"
      ],
      [
        "Ē",
        "$"
      ],
      [
        "ÂĵÂ",
        "Ĵ"
      ],
      [
        "Ė",
        "$"
      ],
      [
        "Â",
        "ķ"
      ],
      [
        "Â",
        "ĳ"
      ],
      [
        "đ",
        "$"
      ],
      [
        "ÂĵÂĵÂĵÂĵÂĵÂĵÂĵÂĵÂĵÂĵÂĵÂĵÂĵÂĵÂĵÂĵÂĵÂĵÂĵÂĵÂĵÂĵÂĵÂĵÂĵÂĵÂĵÂĵÂĵÂĵÂĵÂĵÂĵÂĵÂĵÂĵÂĵÂĵÂĵÂĵÂĵÂĵÂĵÂĵÂĵÂĵÂĵÂĵÂĵÂĵÂĵÂĵÂĵÂĵÂĵÂĵÂĵÂĵÂĵÂĵÂĵÂĵÂĵÂĵÂĵÂĵÂĵÂĵÂĵÂĵÂĵÂĵÂĵÂĵÂĵÂĵÂĵÂĵÂĵÂĵÂĵÂĵÂĵÂĵÂĵÂĵÂĵÂĵÂĵÂĵÂĵÂĵÂĵÂĵÂĵÂĵ",
        "ÂĵÂĵÂĵÂĵÂĵÂĵÂĵÂĵÂĵÂĵÂĵÂĵÂĵÂĵÂĵÂĵ"
      ],
      [
        "ÂĵÂĵÂĵÂĵÂĵÂĵÂĵÂĵ",
        "ÂĵÂĵ"
      ],
      [
        "$$$$$$$$",
        "$$$$$$$$"
      ],
      [
        ";",
        "-"
      ],
      [
        "Ġ",
        "<"
      ],
      [
        "#",
        ";-"
      ],
      [
        "2",
        "7"
      ],
      [
        "ė",
        "$"
      ],
      [
        "'",
        "$"
      ],
      [
        "#",
        "$$%"
      ],
      [
        "#$$%",
        "#$"
      ],
      [
        "Ġ<",
        "."
      ],
      [
        "Ę",
        "$"
      ],
      [
        "Â",
        "ĸ"
      ],
      [
        "ÂĵÂĵÂĵÂĵÂĵÂĵÂĵÂĵ",
        "ÂĵÂĵÂĵÂĵ"
      ],
      [
        "Â",
        "Ĳ"
      ],
      [
        "%",
        "$$%"
      ],
      [
        "%$$%",
        "%$"
      ],
      [
        "?",
        "Ĕ$"
      ],
      [
        ">",
        "ē$"
      ],
      [
        "ÂĴ",
        "ÂĵÂĵ"
      ],
      [
        "Đ",
        "$"
      ],
      [
        "<",
        "-"
      ],
      [
        "%",
        "%"
      ],
      [
        "Ė",
        "$$"
      ],
      [
        "ę",
        "$"
      ],
      [
        ">",
        "Ĕ$"
      ],
      [
        "ÂĵÂ",
        "ĳ"
      ],
      [
        "ÂĵÂ",
        "ķ"
      ],
      [
        "ÂĴ",
        "ÂĶ"
      ],
      [
        "$$",
        "#;-"
      ],
      [
        "/",
        "$"
      ],
      [
        "&",
        "$"
      ],
      [
        "<",
        "ĕ$"
      ],
      [
        "$$",
        "#"
      ],
      [
        "ÂĵÂĵ",
        "Âĵ"
      ],
      [
        "&",
        "/"
      ],
      [
        ".",
        "$"
      ],
      [
        "\"",
        "Ě"
      ],
      [
        "ÂĵÂ",
        "ĸ"
      ],
      [
        "+",
        "$"
      ],
      [
        "%",
        "&"
      ],
      [
        "$$$$$$$$$$$$$$$$",
        "$$$$$$$$$$$$$$$$"
      ],
      [
        "(",
        "$"
      ],
      [
        "ÂĵÂĵÂĵÂĵÂĵÂĵ",
        "Â"
      ],
      [
        "<",
        "Ę"
      ],
      [
        ",",
        "$"
      ],
      [
        "Ġ",
        ">"
      ],
      [
        "0",
        "8"
      ],
      [
        "*",
        "$"
      ],
      [
        "\"",
        "$"
      ],
      [
        "ÂĵÂ",
        "Ĳ"
      ],
      [
        ")",
        "$"
      ],
      [
        "ÂĶ",
        "ÂĴ"
      ],
      [
        "Ě",
        "$"
      ],
      [
        "ÂĵÂĵÂĵÂĵÂĵÂĵÂĵÂĵÂĵÂĵÂĵÂĵÂĵÂĵÂĵÂĵÂĵÂĵÂĵÂĵÂĵÂĵÂĵÂĵÂĵÂĵÂĵÂĵÂĵÂĵÂĵÂĵ",
        "ÂĵÂĵÂĵÂĵÂĵÂĵÂĵÂĵÂĵÂĵÂĵÂĵÂĵÂĵÂĵÂĵ"
      ],
      [
        "E",
        "A"
      ],
      [
        "@",
        ":"
      ],
      [
        "?",
        "ē$"
      ],
      [
        "-",
        "$"
      ],
      [
        "%$",
        ","
      ],
      [
        "*",
        "$$$$$$"
      ],
      [
        "@",
        "Ē$"
      ],
      [
        "0",
        "2"
      ],
      [
        "ÂĵÂĵÂĵÂĵÂĵÂĵÂĵÂĵ",
        "ÂĵÂĵÂĵÂĵÂĵÂĵ"
      ],
      [
        "ÂĵÂĵÂĵÂĵÂĵÂĵÂĵÂĵÂĵÂĵÂĵÂĵÂĵÂĵÂĵÂĵÂĵÂĵÂĵÂĵÂĵÂĵÂĵÂĵÂĵÂĵÂĵÂĵÂĵÂĵÂĵÂĵÂĵÂĵÂĵÂĵÂĵÂĵÂĵÂĵÂĵÂĵÂĵÂĵÂĵÂĵÂĵÂĵÂĵÂĵÂĵÂĵÂĵÂĵÂĵÂĵÂĵÂĵÂĵÂĵÂĵÂĵÂĵÂĵ",
        "ÂĵÂĵÂĵÂĵÂĵÂĵÂĵÂĵÂĵÂĵÂĵÂĵÂĵÂĵÂĵÂĵ"
      ],
      [
        "ě",
        "$"
      ],
      [
        "%$",
        "%"
      ],
      [
        "=",
        "/"
      ],
      [
        "ÂĵÂĵÂĵÂĵÂĵÂĵÂĵÂĵÂĵÂĵÂĵÂĵÂĵÂĵÂĵÂĵÂĵÂĵÂĵÂĵÂĵÂĵÂĵÂĵÂĵÂĵÂĵÂĵÂĵÂĵÂĵÂĵÂĵÂĵÂĵÂĵÂĵÂĵÂĵÂĵÂĵÂĵÂĵÂĵÂĵÂĵÂĵÂĵÂĵÂĵÂĵÂĵÂĵÂĵÂĵÂĵÂĵÂĵÂĵÂĵÂĵÂĵÂĵÂĵÂĵÂĵÂĵÂĵÂĵÂĵÂĵÂĵÂĵÂĵÂĵÂĵÂĵÂĵÂĵÂĵÂĵÂĵÂĵÂĵÂĵÂĵÂĵÂĵÂĵÂĵÂĵÂĵÂĵÂĵÂĵÂĵ",
        "ÂĵÂĵÂĵÂĵÂĵÂĵÂĵÂĵÂĵÂĵ"
      ],
      [
        "$$$$$$$$",
        "$$$$"
      ],
      [
        "@",
        "đ$"
      ],
      [
        "ď",
        "$"
      ],
      [
        "=",
        "Ĕ$"
      ],
      [
        "Â",
        "ı"
      ],
      [
        ".",
        ":"
      ],
      [
        "ĝ",
        "$"
      ],
      [
        "Ĝ",
        "$"
      ],
      [
        ">",
        "ĕ$"
      ],
      [
        "ÂĶ",
        "ÂĵÂĵ"
      ],
      [
        "Ğ",
        "$"
      ],
      [
        "?",
        "Ē$"
      ],
      [
        "Ġ",
        "$"
      ],
      [
        "$$$$$$$",
        "ę"
      ],
      [
        "Â",
        "Ĺ"
      ],
      [
        "!",
        "$"
      ],
      [
        "$$",
        "$"
      ],
      [
        "$$$$$$$$$$$$",
        "$"
      ],
      [
        "(",
        "?"
      ],
      [
        "$$",
        "\""
      ],
      [
        "&",
        "?"
      ],
      [
        "Ġ",
        "?"
      ],
      [
        "ğ",
        "$"
      ],
      [
        "@:",
        "Ĕ$"
      ],
      [
        "-",
        ":"
      ],
      [
        "Ē",
        "%"
      ],
      [
        "\"Ě",
        "$$$$$$$$"
      ],
      [
        "ÂĵÂĵÂĵÂĵÂĵÂĵÂĵÂĵÂĵÂĵÂĵÂĵÂĵÂĵÂĵÂĵÂĵÂĵÂĵÂĵÂĵÂĵÂĵÂĵÂĵÂĵÂĵÂĵÂĵÂĵÂĵÂĵÂĵÂĵÂĵÂĵÂĵÂĵÂĵÂĵÂĵÂĵÂĵÂĵÂĵÂĵÂĵÂĵÂĵÂĵÂĵÂĵÂĵÂĵÂĵÂĵÂĵÂĵÂĵÂĵÂĵÂĵÂĵÂĵÂĵÂĵÂĵÂĵÂĵÂĵÂĵÂĵÂĵÂĵÂĵÂĵÂĵÂĵÂĵÂĵÂĵÂĵÂĵÂĵÂĵÂĵÂĵÂĵÂĵÂĵÂĵÂĵÂĵÂĵÂĵÂĵ",
        "ÂĵÂĵÂĵÂĵÂĵÂĵÂĵÂĵÂĵÂĵÂĵÂĵ"
      ],
      [
        "-",
        "$$$$$$"
      ],
      [
        "(",
        ">"
      ],
      [
        "$$$$$$$",
        "/"
      ],
      [
        ">",
        "Ĕ"
      ],
      [
        "ÂĵÂĵÂĵÂĵÂĵÂĵÂĵÂĵÂĵÂĵÂĵÂĵÂĵÂĵÂĵÂĵÂĵÂĵÂĵÂĵÂĵÂĵÂĵÂĵÂĵÂĵÂĵÂĵÂĵÂĵÂĵÂĵÂĵÂĵÂĵÂĵÂĵÂĵÂĵÂĵÂĵÂĵÂĵÂĵÂĵÂĵÂĵÂĵÂĵÂĵÂĵÂĵÂĵÂĵÂĵÂĵÂĵÂĵÂĵÂĵÂĵÂĵÂĵÂĵÂĵÂĵÂĵÂĵÂĵÂĵÂĵÂĵÂĵÂĵÂĵÂĵÂĵÂĵÂĵÂĵÂĵÂĵÂĵÂĵÂĵÂĵÂĵÂĵÂĵÂĵÂĵÂĵÂĵÂĵÂĵÂĵ",
        "ÂĵÂĵÂĵÂĵ"
      ],
      [
        "#",
        "&"
      ],
      [
        "%",
        "$$$$$$"
      ],
      [
        "ę",
        "$$$$$$$"
      ],
      [
        "$$#",
        "<-"
      ],
      [
        "'",
        ">"
      ],
      [
        "Ġ",
        "2"
      ],
      [
        "$",
        "%"
      ],
      [
        "ÂĵÂĵÂĵÂĵÂĵÂĵÂĵÂĵÂĵÂĵÂĵÂĵÂĵÂĵÂĵÂĵÂĵÂĵÂĵÂĵÂĵÂĵÂĵÂĵÂĵÂĵÂĵÂĵÂĵÂĵÂĵÂĵÂĵÂĵÂĵÂĵÂĵÂĵÂĵÂĵÂĵÂĵÂĵÂĵÂĵÂĵÂĵÂĵÂĵÂĵÂĵÂĵÂĵÂĵÂĵÂĵÂĵÂĵÂĵÂĵÂĵÂĵÂĵÂĵÂĵÂĵÂĵÂĵÂĵÂĵÂĵÂĵÂĵÂĵÂĵÂĵÂĵÂĵÂĵÂĵÂĵÂĵÂĵÂĵÂĵÂĵÂĵÂĵÂĵÂĵÂĵÂĵÂĵÂĵÂĵÂĵÂĵÂĵÂĵÂĵÂĵÂĵÂĵÂĵÂĵÂĵÂĵÂĵÂĵÂĵÂĵÂĵ",
        "ÂĵÂĵ"
      ],
      [
        "E",
        "B"
      ],
      [
        "'",
        "?"
      ],
      [
        "Âĳ",
        "ÂĶ"
      ],
      [
        "#",
        "<-"
      ],
      [
        ";",
        "Ĕ$"
      ],
      [
        "&",
        "%"
      ],
      [
        "Ġ>",
        "-"
      ],
      [
        "$&",
        "$"
      ],
      [
        "=",
        "ĕ$"
      ],
      [
        "&",
        "$$$$$$"
      ],
      [
        "$&",
        "#"
      ],
      [
        "$$$$$$$",
        "."
      ],
      [
        "'",
        "$$"
      ],
      [
        "Ġ",
        "C"
      ],
      [
        ":&",
        "$"
      ],
      [
        "\"Ě$$$$$$$$",
        "ę"
      ],
      [
        "=",
        "ē$"
      ],
      [
        ".:",
        "Ĕ"
      ],
      [
        ">ē$",
        "."
      ],
      [
        "$$$$$$$$",
        "."
      ],
      [
        "ÂĵÂĶ",
        "ÂĵÂĵ"
      ],
      [
        "D",
        "A"
      ],
      [
        "'",
        "%"
      ],
      [
        "ÂĵÂ",
        "ĺ"
      ],
      [
        "@",
        "ē$"
      ],
      [
        "/",
        "$$$$$$$"
      ],
      [
        "ÂĵÂĴ",
        "ÂĶ"
      ],
      [
        "!",
        ">"
      ],
      [
        "ÂĵÂĵÂĵÂĵÂĵÂĵ",
        "Âĵ"
      ],
      [
        "ÂĵÂĶ",
        "ÂĴ"
      ],
      [
        "#",
        "$$$$$$"
      ],
      [
        "<",
        "ē$"
      ],
      [
        "<Ę",
        "&/"
      ],
      [
        "Âķ",
        "ÂĴ"
      ],
      [
        "ÂĵÂ",
        "ı"
      ],
      [
        "!",
        "?"
      ],
      [
        "$&",
        "%"
      ],
      [
        "Ġ",
        "="
      ],
      [
        "D",
        "B"
      ],
      [
        "ÂĵÂĵÂĵÂĵÂĵÂĵÂĵÂĵÂĵÂĵÂĵÂĵÂĵÂĵÂĵÂĵÂĵÂĵÂĵÂĵÂĵÂĵÂĵÂĵÂĵÂĵÂĵÂĵÂĵÂĵÂĵÂĵÂĵÂĵÂĵÂĵÂĵÂĵÂĵÂĵÂĵÂĵÂĵÂĵÂĵÂĵÂĵÂĵÂĵÂĵÂĵÂĵÂĵÂĵÂĵÂĵÂĵÂĵÂĵÂĵÂĵÂĵÂĵÂĵÂĵÂĵÂĵÂĵÂĵÂĵÂĵÂĵÂĵÂĵÂĵÂĵÂĵÂĵÂĵÂĵÂĵÂĵÂĵÂĵÂĵÂĵÂĵÂĵÂĵÂĵÂĵÂĵÂĵÂĵÂĵÂĵÂĵÂĵÂĵÂĵÂĵÂĵÂĵÂĵÂĵÂĵÂĵÂĵÂĵÂĵÂĵÂĵ",
        "ÂĵÂĵÂĵÂĵÂĵÂĵÂĵÂĵ"
      ],
      [
        "<",
        "$"
      ],
      [
        "ÂĵÂĵÂĵÂĵÂĵÂĵÂĵÂĵÂĵÂĵÂĵÂĵÂĵÂĵÂĵÂĵÂĵÂĵÂĵÂĵÂĵÂĵÂĵÂĵÂĵÂĵÂĵÂĵÂĵÂĵÂĵÂĵÂĵÂĵÂĵÂĵÂĵÂĵÂĵÂĵÂĵÂĵÂĵÂĵÂĵÂĵÂĵÂĵÂĵÂĵÂĵÂĵÂĵÂĵÂĵÂĵÂĵÂĵÂĵÂĵÂĵÂĵÂĵÂĵÂĵÂĵÂĵÂĵÂĵÂĵÂĵÂĵÂĵÂĵÂĵÂĵÂĵÂĵÂĵÂĵÂĵÂĵÂĵÂĵÂĵÂĵÂĵÂĵÂĵÂĵÂĵÂĵÂĵÂĵÂĵÂĵÂĵÂĵÂĵÂĵÂĵÂĵÂĵÂĵÂĵÂĵÂĵÂĵÂĵÂĵÂĵÂĵ",
        "ÂĵÂĵÂĵ"
      ],
      [
        "ÂĵÂ",
        "İ"
      ],
      [
        "*",
        "<"
      ],
      [
        ">ē$",
        "ę"
      ],
      [
        "Ġ",
        "B"
      ],
      [
        "2",
        "6"
      ],
      [
        ",",
        "$$$$$$"
      ],
      [
        "ÂĵÂĴ",
        "ÂĵÂĵ"
      ],
      [
        "'",
        "@"
      ],
      [
        "Ę",
        "$$$$$$$"
      ],
      [
        "<",
        "Ĕ$"
      ],
      [
        ";",
        "Ė$"
      ],
      [
        "ÂĵÂĵÂĵÂĵÂĵÂĵ",
        "ÂĵÂĴ"
      ],
      [
        "$%",
        "$$$$"
      ],
      [
        "<ĕ$",
        "ę"
      ],
      [
        "(",
        "$$$$$$"
      ],
      [
        "*",
        "#"
      ],
      [
        "ē",
        "%"
      ],
      [
        "$&",
        "?"
      ],
      [
        "-",
        "!$$$$$$"
      ],
      [
        "Ġ<",
        "-"
      ],
      [
        "ÂĶ",
        "ÂĶ"
      ],
      [
        "ÂĵÂĵÂĵÂĵÂĵÂĵÂĵÂĵÂĵÂĵÂĵÂĵÂĵÂĵÂĵÂĵÂĵÂĵÂĵÂĵÂĵÂĵÂĵÂĵÂĵÂĵÂĵÂĵÂĵÂĵÂĵÂĵÂĵÂĵÂĵÂĵÂĵÂĵÂĵÂĵÂĵÂĵÂĵÂĵÂĵÂĵÂĵÂĵÂĵÂĵÂĵÂĵÂĵÂĵÂĵÂĵÂĵÂĵÂĵÂĵÂĵÂĵÂĵÂĵÂĵÂĵÂĵÂĵÂĵÂĵÂĵÂĵÂĵÂĵÂĵÂĵÂĵÂĵÂĵÂĵÂĵÂĵÂĵÂĵÂĵÂĵÂĵÂĵÂĵÂĵÂĵÂĵÂĵÂĵÂĵÂĵÂĵÂĵÂĵÂĵÂĵÂĵÂĵÂĵÂĵÂĵÂĵÂĵÂĵÂĵÂĵÂĵ",
        "ÂĵÂĵÂĵÂĵÂĵÂĵÂĵÂĵÂĵÂĵ"
      ],
      [
        "!",
        "@"
      ],
      [
        "ÂĵÂĵÂĵÂĵÂĵÂĵÂĵÂĵÂĵÂĵÂĵÂĵÂĵÂĵÂĵÂĵÂĵÂĵÂĵÂĵÂĵÂĵÂĵÂĵÂĵÂĵÂĵÂĵÂĵÂĵÂĵÂĵÂĵÂĵÂĵÂĵÂĵÂĵÂĵÂĵÂĵÂĵÂĵÂĵÂĵÂĵÂĵÂĵÂĵÂĵÂĵÂĵÂĵÂĵÂĵÂĵÂĵÂĵÂĵÂĵÂĵÂĵÂĵÂĵÂĵÂĵÂĵÂĵÂĵÂĵÂĵÂĵÂĵÂĵÂĵÂĵÂĵÂĵÂĵÂĵÂĵÂĵÂĵÂĵÂĵÂĵÂĵÂĵÂĵÂĵÂĵÂĵÂĵÂĵÂĵÂĵ",
        "ÂĵÂĵÂĵÂĵÂĵÂĵÂĵÂĵÂĵÂĵÂĵÂĵÂĵÂĵ"
      ],
      [
        "&",
        "$$#;-"
      ],
      [
        "'",
        "="
      ],
      [
        "Â",
        "ł"
      ],
      [
        ":",
        "Ė$"
      ],
      [
        "?",
        "đ$"
      ],
      [
        ">",
        "Ē$"
      ],
      [
        ":",
        "'$"
      ],
      [
        "ÂĵÂĵÂĵÂĵÂĵÂĵÂĵÂĵÂĵÂĵÂĵÂĵÂĵÂĵÂĵÂĵÂĵÂĵÂĵÂĵÂĵÂĵÂĵÂĵÂĵÂĵÂĵÂĵÂĵÂĵÂĵÂĵ",
        "ÂĵÂĵÂĵÂĵÂĵÂĵÂĵÂĵ"
      ],
      [
        "-:",
        "Ē%"
      ],
      [
        "?",
        "Ĕ"
      ],
      [
        "Ġ",
        "A"
      ],
      [
        "%",
        "$$"
      ],
      [
        "\"",
        "ę"
      ],
      [
        "@",
        ";"
      ],
      [
        "<Ę",
        "\"Ě"
      ],
      [
        "ÂĴÂĵÂĵ",
        "Âĵ"
      ],
      [
        "%",
        "'"
      ],
      [
        "ÂĵÂ",
        "Ĺ"
      ],
      [
        "Âĳ",
        "Âķ"
      ],
      [
        "<",
        "Ė$"
      ],
      [
        "$",
        "%$%"
      ],
      [
        "Ĝ",
        "!$$$$$$"
      ],
      [
        "ÂĵÂĵÂĵÂĵÂĵÂĵÂĵÂĵÂĵÂĵÂĵÂĵÂĵÂĵÂĵÂĵÂĵÂĵÂĵÂĵÂĵÂĵÂĵÂĵÂĵÂĵÂĵÂĵÂĵÂĵÂĵÂĵÂĵÂĵÂĵÂĵÂĵÂĵÂĵÂĵÂĵÂĵÂĵÂĵÂĵÂĵÂĵÂĵÂĵÂĵÂĵÂĵÂĵÂĵÂĵÂĵÂĵÂĵÂĵÂĵÂĵÂĵÂĵÂĵÂĵÂĵÂĵÂĵÂĵÂĵÂĵÂĵÂĵÂĵÂĵÂĵÂĵÂĵÂĵÂĵ",
        "ÂĵÂĵ"
      ],
      [
        "ě",
        "!$$$$$$"
      ],
      [
        "<ĕ$",
        "/"
      ],
      [
        ">",
        "ĕ"
      ],
      [
        ",",
        ":"
      ],
      [
        "5",
        "7"
      ],
      [
        "%$",
        "("
      ],
      [
        "?Ĕ$",
        "Ę"
      ],
      [
        "@",
        "Ĕ$"
      ],
      [
        "Ġ",
        "@"
      ],
      [
        "Ġ",
        "D"
      ],
      [
        "4",
        "5"
      ],
      [
        "<$",
        "ė"
      ],
      [
        "3",
        "2"
      ],
      [
        "%%",
        "$$"
      ],
      [
        "9",
        "2"
      ],
      [
        "ę$",
        "%$$%%$"
      ],
      [
        "<",
        "ĕ"
      ],
      [
        "/",
        "$$$$$$"
      ],
      [
        "Đ$",
        "ė"
      ],
      [
        "ÂĵÂĵÂĵÂĵÂĵÂĵÂĵÂĵ",
        "Âĵ"
      ],
      [
        "&",
        "."
      ],
      [
        "C",
        "A"
      ],
      [
        "#",
        ")"
      ],
      [
        "Âķ",
        "Âĳ"
      ],
      [
        "6",
        "2"
      ],
      [
        "(>",
        "-"
      ],
      [
        "&",
        "&"
      ],
      [
        ".",
        "$$$$$$"
      ],
      [
        "ÂĴ",
        "ÂĴ"
      ],
      [
        "1",
        "2"
      ],
      [
        "=",
        "ĕ"
      ],
      [
        "%",
        "("
      ],
      [
        "ğ",
        "?"
      ],
      [
        "D",
        "C"
      ],
      [
        "+",
        ";"
      ],
      [
        "ğ",
        "@"
      ],
      [
        ")",
        "<"
      ],
      [
        "ÂĵÂĵÂĵÂĵÂĵÂĵÂĵÂĵÂĵÂĵÂĵÂĵÂĵÂĵÂĵÂĵÂĵÂĵÂĵÂĵÂĵÂĵÂĵÂĵÂĵÂĵÂĵÂĵÂĵÂĵÂĵÂĵÂĵÂĵÂĵÂĵÂĵÂĵÂĵÂĵÂĵÂĵÂĵÂĵÂĵÂĵÂĵÂĵÂĵÂĵÂĵÂĵÂĵÂĵÂĵÂĵÂĵÂĵÂĵÂĵÂĵÂĵÂĵÂĵÂĵÂĵÂĵÂĵÂĵÂĵÂĵÂĵÂĵÂĵÂĵÂĵÂĵÂĵÂĵÂĵÂĵÂĵÂĵÂĵÂĵÂĵÂĵÂĵÂĵÂĵÂĵÂĵÂĵÂĵÂĵÂĵÂĵÂĵÂĵÂĵÂĵÂĵÂĵÂĵÂĵÂĵÂĵÂĵÂĵÂĵÂĵÂĵ",
        "ÂĵÂĵÂĵÂĵÂĵÂĵÂĵÂĵÂĵÂĵÂĵÂĵÂĵÂĵ"
      ],
      [
        ":",
        "ĕ$"
      ],
      [
        "$$$$$$$$$$$$$$$$$$$$$$$$$$$$$$$$",
        "$$$$$$$$$$$$$$$$$$$$$$$$$$$$$$$$"
      ],
      [
        "2",
        "2"
      ],
      [
        "$$$$$$$",
        "Ę"
      ],
      [
        "ă",
        "$$$$$$$"
      ],
      [
        "Ď",
        "$"
      ],
      [
        "4",
        "2"
      ],
      [
        "+",
        "$$$$$$"
      ],
      [
        "(",
        "@"
      ],
      [
        "ÂĵÂĵÂĵÂĵÂĵÂĵÂ",
        "İ"
      ],
      [
        "$$",
        "&"
      ],
      [
        ".:Ĕ",
        "$$#;-"
      ],
      [
        "ÂĴ",
        "Âķ"
      ],
      [
        "%$",
        "'"
      ],
      [
        ">",
        "/"
      ],
      [
        ":",
        "ė$"
      ],
      [
        ")",
        "$$$$$$"
      ],
      [
        "ÂĵÂĵÂĵÂĵÂĵÂĵÂ",
        "ĺ"
      ],
      [
        "#",
        ","
      ],
      [
        "=",
        "Ē$"
      ],
      [
        "'",
        "$$$$$$"
      ],
      [
        "&/",
        "$$$$$$$$."
      ],
      [
        "#",
        "-"
      ],
      [
        "ÂĶ",
        "Âĳ"
      ],
      [
        "$&",
        "\""
      ],
      [
        "ÂĵÂĵÂĵÂĵÂĵÂĵÂĵÂĵÂĵÂĵÂĵÂĵÂĵÂĵÂĵÂĵÂĵÂĵÂĵÂĵÂĵÂĵÂĵÂĵÂĵÂĵÂĵÂĵÂĵÂĵÂĵÂĵÂĵÂĵÂĵÂĵÂĵÂĵÂĵÂĵÂĵÂĵÂĵÂĵÂĵÂĵÂĵÂĵ",
        "ÂĵÂĵÂĵÂĵÂĵÂĵ"
      ],
      [
        "Ġ",
        "E"
      ],
      [
        "%",
        ")"
      ],
      [
        "(",
        "<"
      ],
      [
        "ÂĶ",
        "ÂĵÂĶ"
      ],
      [
        "?",
        ":"
      ],
      [
        "5",
        "2"
      ],
      [
        "7",
        "1"
      ],
      [
        "ÂĴ",
        "ÂĵÂĴ"
      ],
      [
        "7",
        "2"
      ],
      [
        "8",
        "2"
      ],
      [
        "Âı",
        "Âĸ"
      ],
      [
        "(?",
        "-"
      ],
      [
        "Ġ",
        "F"
      ],
      [
        "ÂĹ",
        "ÂĲ"
      ],
      [
        "$&",
        "&"
      ],
      [
        ">Ĕ",
        "\"ę"
      ],
      [
        "#",
        "!$$$$$$"
      ],
      [
        ";",
        "ĕ$"
      ],
      [
        "8",
        "1"
      ],
      [
        "ÂĶ",
        "Âķ"
      ],
      [
        "ÂĲ",
        "Âĸ"
      ],
      [
        "8",
        "3"
      ],
      [
        "%",
        "+"
      ],
      [
        "!",
        "="
      ],
      [
        "'$",
        "'"
      ],
      [
        "ÂĵÂĵÂĵÂĵÂĵÂĵÂĵÂĵÂĵÂĵÂĵÂĵÂĵÂĵÂĵÂĵ",
        "ÂĵÂĵÂĵÂĵÂĵÂĵÂĵÂĵÂĵÂĵ"
      ],
      [
        "1",
        "4"
      ],
      [
        "Ğ",
        "@"
      ],
      [
        "Ė",
        "#"
      ],
      [
        "Âĸ",
        "ÂĲ"
      ],
      [
        "(",
        "="
      ],
      [
        "ÂĵÂĵÂĵÂĵÂĵÂĵÂĵÂĵÂĵÂĵÂĵÂĵÂĵÂĵÂĵÂĵÂĵÂĵÂĵÂĵÂĵÂĵÂĵÂĵÂĵÂĵÂĵÂĵÂĵÂĵÂĵÂĵÂĵÂĵÂĵÂĵÂĵÂĵÂĵÂĵÂĵÂĵÂĵÂĵÂĵÂĵÂĵÂĵÂĵÂĵÂĵÂĵÂĵÂĵÂĵÂĵÂĵÂĵÂĵÂĵÂĵÂĵÂĵÂĵ",
        "ÂĵÂĵÂĵÂĵ"
      ],
      [
        "ÂĵÂĵÂĵÂĵÂĵÂĵÂĵÂĵÂĵÂĵÂĵÂĵ",
        "ÂĵÂİ"
      ],
      [
        "5",
        "0"
      ],
      [
        "$%$%",
        "$$"
      ],
      [
        "\"",
        "!$$$$$$"
      ],
      [
        "4",
        "3"
      ],
      [
        "!",
        "<"
      ],
      [
        "7",
        "0"
      ],
      [
        "8",
        "0"
      ],
      [
        "Ė",
        "$&"
      ],
      [
        "ÂĵÂĵÂĵÂĵÂĵÂĵÂĵÂĵÂĵÂĵÂĵÂĵÂĵÂĵÂĵÂĵÂĵÂĵÂĵÂĵÂĵÂĵÂĵÂĵÂĵÂĵÂĵÂĵÂĵÂĵÂĵÂĵÂĵÂĵÂĵÂĵÂĵÂĵÂĵÂĵÂĵÂĵÂĵÂĵÂĵÂĵÂĵÂĵÂĵÂĵÂĵÂĵÂĵÂĵÂĵÂĵÂĵÂĵÂĵÂĵÂĵÂĵÂĵÂĵ",
        "ÂĵÂĵÂĵÂĵÂĵÂĵÂĵÂĵÂĵÂĵÂĵÂĵ"
      ],
      [
        "(",
        "%"
      ],
      [
        "/$",
        "#$$%#$"
      ],
      [
        "'$",
        "'$$"
      ],
      [
        "ÂĵÂĵÂĵÂĵÂĵÂĵÂ",
        "¶"
      ],
      [
        "#",
        "."
      ],
      [
        "0",
        "9"
      ],
      [
        "$&",
        "'"
      ],
      [
        "ÂĵÂĵÂĵÂĵÂĵÂĵ",
        "ÂĶ"
      ],
      [
        "ÂĵÂĵ",
        "ÂĶÂĴ"
      ],
      [
        "E",
        "D"
      ],
      [
        ")",
        "?"
      ],
      [
        "6",
        "1"
      ],
      [
        "'",
        "%%"
      ],
      [
        "Ě",
        "$$"
      ],
      [
        "%",
        "*"
      ],
      [
        "ė$",
        "-"
      ],
      [
        "-",
        "$$$$$$$$"
      ],
      [
        "2",
        "4"
      ],
      [
        "ğ",
        ">"
      ],
      [
        "1",
        "7"
      ],
      [
        ")",
        "@"
      ],
      [
        "ÂĵÂĵ",
        "ÂĵÂĶ"
      ],
      [
        ",",
        "$$$$$$$$"
      ],
      [
        "ÂĵÂĵÂĵÂĵÂĵÂĵÂĵÂĵÂĵÂĵÂĵÂĵÂĵÂĵÂĵÂĵÂĵÂĵÂĵÂĵÂĵÂĵÂĵÂĵÂĵÂĵÂĵÂĵÂĵÂĵÂĵÂĵÂĵÂĵÂĵÂĵÂĵÂĵÂĵÂĵÂĵÂĵÂĵÂĵÂĵÂĵÂĵÂĵ",
        "ÂĵÂĵÂĵÂĵÂĵÂĵÂĵÂĵ"
      ],
      [
        "Ę",
        "$$"
      ],
      [
        "F",
        "C"
      ],
      [
        "<Ę",
        "\"Ě$$$$$$$$ę"
      ],
      [
        "ÂĵÂĲ",
        "ÂĴ"
      ],
      [
        "?ē$",
        "ě"
      ],
      [
        "7",
        "3"
      ],
      [
        "ÂĵÂĵÂĵÂĵÂĵÂĵÂĵÂĵÂĵÂĵÂĵÂĵÂĵÂĵÂĵÂĵ",
        "ÂĵÂĵÂĵÂĵ"
      ],
      [
        "Ē",
        "#$"
      ],
      [
        "'",
        "<"
      ],
      [
        "ÂĶ",
        "ÂĵÂĵÂĵÂĵÂĵÂĵÂĵÂĵÂĵÂĵÂĵÂĵÂĵÂĵÂĵÂĵÂĵÂĵÂĵÂĵÂĵÂĵÂĵÂĵÂĵÂĵÂĵÂĵÂĵÂĵÂĵÂĵÂĵÂĵÂĵÂĵÂĵÂĵÂĵÂĵÂĵÂĵÂĵÂĵÂĵÂĵÂĵÂĵÂĵÂĵÂĵÂĵÂĵÂĵÂĵÂĵÂĵÂĵÂĵÂĵÂĵÂĵÂĵÂĵÂĵÂĵÂĵÂĵÂĵÂĵÂĵÂĵÂĵÂĵÂĵÂĵÂĵÂĵÂĵÂĵÂĵÂĵÂĵÂĵÂĵÂĵÂĵÂĵÂĵÂĵÂĵÂĵÂĵÂĵÂĵÂĵÂĵÂĵÂĵÂĵ"
      ],
      [
        "$&",
        "!"
      ],
      [
        "Ğ",
        "?"
      ],
      [
        "4",
        "6"
      ],
      [
        "ÂĵÂĵÂĵÂĵÂĵÂĵÂĵÂĵÂĵÂĵÂĵÂĵÂĵÂĵÂĵÂĵÂĵÂĵÂĵÂĵÂĵÂĵÂĵÂĵÂĵÂĵÂĵÂĵÂĵÂĵÂĵÂĵÂĵÂĵÂĵÂĵÂĵÂĵÂĵÂĵÂĵÂĵÂĵÂĵÂĵÂĵÂĵÂĵÂĵÂĵÂĵÂĵÂĵÂĵÂĵÂĵÂĵÂĵÂĵÂĵÂĵÂĵÂĵÂĵÂĵÂĵÂĵÂĵÂĵÂĵÂĵÂĵÂĵÂĵÂĵÂĵÂĵÂĵÂĵÂĵÂĵÂĵÂĵÂĵÂĵÂĵÂĵÂĵÂĵÂĵÂĵÂĵÂĵÂĵÂĵÂĵÂĵÂĵÂĵÂĵÂĵÂĵÂĵÂĵÂĵÂĵ",
        "ÂĵÂĶ"
      ],
      [
        ">Ĕ$",
        "Ĝ"
      ],
      [
        "#",
        "("
      ],
      [
        "Âĸ",
        "Âĳ"
      ],
      [
        ".",
        "$$$$$$$"
      ],
      [
        "ÂĵÂĵÂĵÂĵÂĵÂĵÂĵÂĵÂĵÂĵÂĵÂĵÂĵÂĵÂĵÂĵ",
        "ÂĵÂĵÂĵÂĵÂĵÂĵÂĵÂĵÂĵÂĵÂĵÂĵ"
      ],
      [
        "\"",
        "?"
      ],
      [
        "5",
        "5"
      ],
      [
        ":",
        "Ĕ$"
      ],
      [
        "0",
        "7"
      ],
      [
        "$&",
        "("
      ],
      [
        "ÂĵÂĵÂĵÂĵÂĵÂĵ",
        "ÂĴ"
      ],
      [
        "E",
        "C"
      ],
      [
        "%$%",
        "#$"
      ],
      [
        "%$$$$$$",
        "%$$$$$$"
      ],
      [
        "'=",
        "*"
      ],
      [
        "%",
        "!$$$$$$"
      ],
      [
        "\"",
        "@"
      ],
      [
        "ÂĵÂĵ",
        "ÂĴÂĶ"
      ],
      [
        "6",
        "4"
      ],
      [
        "ÂĵÂĵÂĵÂĵÂĵÂĵÂĵÂĵÂĵÂĵÂĵÂĵÂĵÂĵÂĵÂĵÂĵÂĵÂĵÂĵÂĵÂĵÂĵÂĵÂĵÂĵÂĵÂĵÂĵÂĵÂĵÂĵ",
        "ÂĵÂĵ"
      ],
      [
        "\"",
        ">"
      ],
      [
        "#$$$$$$",
        "#$$$$$$"
      ],
      [
        "%$",
        "#"
      ],
      [
        "?Ĕ$",
        "ă"
      ],
      [
        "6",
        "0"
      ],
      [
        "-$$$$$$",
        "-$$$$$$"
      ],
      [
        "#",
        "/"
      ],
      [
        "ÂĶ",
        "ÂĵÂĵÂĵÂĵ"
      ],
      [
        ";",
        "ē$"
      ],
      [
        "@đ$",
        "."
      ],
      [
        "$$",
        "!$$$$$$"
      ],
      [
        "#",
        "#"
      ],
      [
        "'",
        "&"
      ],
      [
        "ě",
        "$$"
      ],
      [
        "-",
        "!"
      ],
      [
        "ė$",
        "ā"
      ],
      [
        "3",
        "3"
      ],
      [
        "@đ$",
        "ę"
      ],
      [
        ">ĕ$",
        "Ą"
      ],
      [
        "=Ĕ$",
        "ę$$$$$$$"
      ],
      [
        "%",
        ";"
      ],
      [
        "Ġ?",
        "."
      ],
      [
        "'",
        "/"
      ],
      [
        "(?",
        "."
      ],
      [
        ")",
        ">"
      ],
      [
        "'",
        ":"
      ],
      [
        "2",
        "0"
      ],
      [
        "$$$$$$$$",
        "$"
      ],
      [
        "4",
        "0"
      ],
      [
        "Ě",
        "$$$$$$$"
      ],
      [
        "-",
        "$$$$$$$"
      ],
      [
        "\"",
        "$$$$$$$"
      ],
      [
        ".:Ĕ",
        "$$#<-"
      ],
      [
        "ÂĵÂĵÂĵÂĵÂĵÂĵÂĵÂĵÂĵÂĵÂĵÂĵÂĵÂĵÂĵÂĵÂĵÂĵÂĵÂĵÂĵÂĵÂĵÂĵÂĵÂĵÂĵÂĵÂĵÂĵÂĵÂĵÂĵÂĵÂĵÂĵÂĵÂĵÂĵÂĵÂĵÂĵÂĵÂĵÂĵÂĵÂĵÂĵÂĵÂĵÂĵÂĵÂĵÂĵÂĵÂĵÂĵÂĵÂĵÂĵÂĵÂĵÂĵÂĵÂĵÂĵÂĵÂĵÂĵÂĵÂĵÂĵÂĵÂĵÂĵÂĵÂĵÂĵÂĵÂĵ",
        "ÂĵÂĵÂĵÂĵÂĵÂĵÂĵÂĵÂĵÂĵ"
      ],
      [
        "2",
        "1"
      ],
      [
        "ÂĵÂĵÂĵÂĵÂĵÂĵÂ",
        "Ĺ"
      ],
      [
        "<",
        "ė"
      ],
      [
        "Ġ=",
        "."
      ],
      [
        "<",
        "Ē$"
      ],
      [
        "%",
        "."
      ],
      [
        "Ĝ",
        "$$"
      ],
      [
        "Ĕ$",
        "<$ė"
      ],
      [
        "ÂĵÂĺ",
        "ÂĵÂĵÂĵÂĵÂĵÂĵÂĵ"
      ],
      [
        "!",
        "$$$$$$$"
      ],
      [
        "ÂĶ",
        "ÂĲ"
      ],
      [
        ">ĕ",
        "\"Ě$$$$$$$$ę"
      ],
      [
        ".$",
        "#$$%#$"
      ],
      [
        "+",
        "$$$$$$$$"
      ],
      [
        "ĕ$",
        "Đ$ė"
      ],
      [
        "ÂĵÂĵÂĵÂĵÂĵÂĵÂĵÂĵ",
        "ÂĵÂĶÂĴ"
      ],
      [
        "+",
        "\""
      ],
      [
        "5",
        "6"
      ],
      [
        "+",
        "$$$$$$$"
      ],
      [
        "/",
        "$$$$$$$$"
      ],
      [
        "ÂĵÂĵ",
        "ÂĵÂĴ"
      ],
      [
        "ÂĲ",
        "Âķ"
      ],
      [
        ")",
        "#"
      ],
      [
        "ÂĵÂĵÂĵÂĵÂĵÂĵÂĵÂĵ",
        "ÂĴ"
      ],
      [
        "¶",
        "ÂĵÂĵÂĵÂĵÂĵÂĵÂ¶"
      ],
      [
        "Â",
        "¶ÂĵÂĵÂĵÂĵÂĵÂĵÂ¶"
      ],
      [
        "%$",
        ")"
      ],
      [
        "#$$$$$$#$$$$$$",
        "-$$$$$$-$$$$$$"
      ],
      [
        ">",
        "đ$"
      ],
      [
        "ę",
        "$$"
      ],
      [
        "@",
        "Đ$"
      ],
      [
        "<Ę&/",
        "$$$$$$$$."
      ],
      [
        "3",
        "6"
      ],
      [
        ")",
        "="
      ],
      [
        "2",
        "3"
      ],
      [
        ",",
        "("
      ],
      [
        "#",
        "$$$$$$$"
      ],
      [
        "ÂĶ",
        "Âĸ"
      ],
      [
        "ė",
        "$&"
      ],
      [
        "\"",
        "#"
      ],
      [
        "Ğ",
        ">"
      ],
      [
        ";",
        "ĕ"
      ],
      [
        "9",
        "3"
      ],
      [
        "#",
        ">"
      ],
      [
        "%",
        "$$$$$$$"
      ],
      [
        "*",
        ">"
      ],
      [
        "#",
        "+"
      ],
      [
        "ÂĵÂĵÂĵÂĵÂĵÂĵÂĵÂĵÂĵÂĵÂĵÂĵÂĵÂĵÂĵÂĵÂĵÂĵÂĵÂĵÂĵÂĵÂĵÂĵÂĵÂĵÂĵÂĵÂĵÂĵÂĵÂĵÂĵÂĵÂĵÂĵÂĵÂĵÂĵÂĵÂĵÂĵÂĵÂĵÂĵÂĵÂĵÂĵÂĵÂĵÂĵÂĵÂĵÂĵÂĵÂĵÂĵÂĵÂĵÂĵÂĵÂĵÂĵÂĵÂĵÂĵÂĵÂĵÂĵÂĵÂĵÂĵÂĵÂĵÂĵÂĵÂĵÂĵÂĵÂĵÂĵÂĵÂĵÂĵÂĵÂĵÂĵÂĵÂĵÂĵÂĵÂĵÂĵÂĵÂĵÂĵÂĵÂĵÂĵÂĵÂĵÂĵÂĵÂĵÂĵÂĵÂĵÂĵÂĵÂĵÂĵÂĵ",
        "Âĵ"
      ],
      [
        "1",
        "1"
      ],
      [
        "&",
        "@"
      ],
      [
        ":",
        "'"
      ],
      [
        "ě",
        "$$$$$$$"
      ],
      [
        "*",
        "?"
      ],
      [
        "&",
        "%$$%%$"
      ],
      [
        "!",
        "#"
      ],
      [
        "ē",
        "#$"
      ],
      [
        "ÂĵÂĵÂĵÂĵÂĵÂĵÂĵÂĵÂĵÂĵÂĵÂĵ",
        "ÂĵÂĺ"
      ],
      [
        "Ē",
        "#&"
      ],
      [
        "ÂĵÂĶ",
        "ÂĵÂĶ"
      ],
      [
        "ğ",
        "$$$$$$$"
      ],
      [
        ".",
        "$$$$$$$$"
      ],
      [
        ",",
        "!$$$$$$"
      ],
      [
        "Ġ",
        "$$$$$$$"
      ],
      [
        "9",
        "0"
      ],
      [
        ">Ĕ$",
        "ę"
      ],
      [
        "'",
        "$$$$$$$"
      ],
      [
        ",",
        "!"
      ],
      [
        "ĕ$",
        "<$ė"
      ],
      [
        "=",
        "Ĕ"
      ],
      [
        ")",
        "$$$$$$$"
      ],
      [
        "ğ",
        "="
      ],
      [
        "&",
        "<"
      ],
      [
        "ÂĵÂĵÂĵÂĵÂĵÂĵÂĵÂĵÂĵÂĵÂĵÂĵÂĵÂĵÂĵÂĵÂĵÂĵÂĵÂĵÂĵÂĵÂĵÂĵÂĵÂĵÂĵÂĵÂĵÂĵÂĵÂĵÂĵÂĵÂĵÂĵÂĵÂĵÂĵÂĵÂĵÂĵÂĵÂĵÂĵÂĵÂĵÂĵÂĵÂĵÂĵÂĵÂĵÂĵÂĵÂĵÂĵÂĵÂĵÂĵÂĵÂĵÂĵÂĵÂĵÂĵÂĵÂĵÂĵÂĵÂĵÂĵÂĵÂĵÂĵÂĵÂĵÂĵÂĵÂĵÂĵÂĵÂĵÂĵÂĵÂĵÂĵÂĵÂĵÂĵÂĵÂĵÂĵÂĵÂĵÂĵ",
        "ÂĵÂĵÂĵÂĵÂĵÂĵÂĵÂĵ"
      ],
      [
        "ÂĵÂĵÂĵÂĵÂĵÂĵÂĵÂĵÂĵÂĵÂĵÂĵÂĵÂĵÂĵÂĵÂĵÂĵÂĵÂĵÂĵÂĵÂĵÂĵÂĵÂĵÂĵÂĵÂĵÂĵÂĵÂĵÂĵÂĵÂĵÂĵÂĵÂĵÂĵÂĵÂĵÂĵÂĵÂĵÂĵÂĵÂĵÂĵÂĵÂĵÂĵÂĵÂĵÂĵÂĵÂĵÂĵÂĵÂĵÂĵÂĵÂĵÂĵÂĵÂĵÂĵÂĵÂĵÂĵÂĵÂĵÂĵÂĵÂĵÂĵÂĵÂĵÂĵÂĵÂĵ",
        "ÂĵÂĵÂĵÂĵÂĵÂĵÂĵÂĵÂĵÂĵÂĵÂĵ"
      ],
      [
        "%",
        "%$%"
      ],
      [
        "*",
        "$$$$$$$"
      ],
      [
        "%",
        "@"
      ],
      [
        "#",
        "?"
      ],
      [
        "2",
        "5"
      ],
      [
        "*#",
        "+"
      ],
      [
        "Ġ",
        "G"
      ],
      [
        "=",
        "Ė"
      ],
      [
        ">",
        "."
      ],
      [
        "%$",
        "&"
      ],
      [
        "#",
        "'$$"
      ],
      [
        "&",
        "#$$%#$"
      ],
      [
        "*",
        "$$$$$$$$"
      ],
      [
        "ĝ",
        "$$"
      ],
      [
        "#",
        "@"
      ],
      [
        "&",
        "$$#<-"
      ],
      [
        "ÂĲ",
        "Âĳ"
      ],
      [
        "ĕ",
        "$&"
      ],
      [
        "!",
        "!$$$$$$"
      ],
      [
        ")",
        "&%"
      ],
      [
        "5",
        "1"
      ],
      [
        "0",
        "3"
      ],
      [
        "ÂĵÂĵÂĵÂĵÂĵÂĵÂĵÂĵÂĵÂĵÂĵÂĵÂĵÂĵÂĵÂĵÂĵÂĵÂĵÂĵÂĵÂĵÂĵÂĵÂĵÂĵÂĵÂĵÂĵÂĵÂĵÂĵÂĵÂĵÂĵÂĵÂĵÂĵÂĵÂĵÂĵÂĵÂĵÂĵÂĵÂĵÂĵÂĵÂĵÂĵÂĵÂĵÂĵÂĵÂĵÂĵÂĵÂĵÂĵÂĵÂĵÂĵÂĵÂĵÂĵÂĵÂĵÂĵÂĵÂĵÂĵÂĵÂĵÂĵÂĵÂĵÂĵÂĵÂĵÂĵÂĵÂĵÂĵÂĵÂĵÂĵÂĵÂĵÂĵÂĵÂĵÂĵÂĵÂĵÂĵÂĵ",
        "ÂĵÂĵÂĵÂĵÂĵÂĵ"
      ],
      [
        "$$&",
        "#'$$"
      ],
      [
        "!",
        "ę"
      ],
      [
        "*",
        "="
      ],
      [
        "ė",
        "%"
      ],
      [
        "ÂĴ",
        "Âĸ"
      ],
      [
        ",",
        "$$$$$$$"
      ],
      [
        "(",
        "$$$$$$$"
      ],
      [
        "Ĝ",
        "$$$$$$$"
      ],
      [
        "ÂĵÂĴ",
        "ÂĴ"
      ],
      [
        "ė",
        "$$"
      ],
      [
        "$$$$$$$$$$$$$$$$$$$$$$$$$$$$$$$$",
        "$$$$$$$$$$$$$$$$"
      ],
      [
        "0",
        "4"
      ],
      [
        "9",
        "1"
      ],
      [
        "?Ĕ",
        "&/$$$$$$$$."
      ],
      [
        "Ĕ$",
        "Đ$ė"
      ],
      [
        "ğ",
        "<"
      ],
      [
        "ĕ",
        "$$"
      ],
      [
        "ÂĵÂĶ",
        "ÂĶ"
      ],
      [
        "%",
        "?"
      ],
      [
        "$",
        ">"
      ],
      [
        "ÂĴÂĶ",
        "ÂĵÂĵÂĵÂĵÂĵÂĵÂĵÂĵÂĵÂĵ"
      ],
      [
        "ē",
        "#&"
      ],
      [
        "ď$",
        "ě!$$$$$$"
      ],
      [
        "*",
        "@"
      ],
      [
        "Ą",
        "$$$$$$$"
      ],
      [
        "ÂĵÂĴ",
        "ÂĵÂĴ"
      ],
      [
        "ĝ",
        ">"
      ],
      [
        "$",
        "@"
      ],
      [
        "*",
        ";"
      ],
      [
        "&",
        ">"
      ],
      [
        "ÂĵÂİ",
        "ÂĵÂĵÂĵÂĵÂĵÂĵÂĵ"
      ],
      [
        "%%$%",
        "%$"
      ],
      [
        "ÂĶ",
        "Âĵ"
      ],
      [
        "(",
        ";"
      ],
      [
        "F",
        "D"
      ],
      [
        "(",
        "%%"
      ],
      [
        "ÂĴÂĶ",
        "ÂĵÂĵ"
      ],
      [
        "Ė",
        "%"
      ],
      [
        "0",
        "5"
      ],
      [
        "Ğ",
        "$$$$$$$"
      ],
      [
        "ÂĶÂĵÂĵ",
        "ÂĵÂĸ"
      ],
      [
        "ÂĴ",
        "Âĳ"
      ],
      [
        "1",
        "3"
      ],
      [
        "%",
        ">"
      ],
      [
        "&$",
        "%"
      ],
      [
        "%&",
        "(?-"
      ],
      [
        "ÂĵÂĵÂĵÂĵÂĵÂĵÂĵÂĵÂĵÂĵÂĵÂĵÂĵÂĵÂĵÂĵÂĵÂĵÂĵÂĵÂĵÂĵÂĵÂĵÂĵÂĵÂĵÂĵÂĵÂĵÂĵÂĵÂĵÂĵÂĵÂĵÂĵÂĵÂĵÂĵÂĵÂĵÂĵÂĵÂĵÂĵÂĵÂĵÂĵÂĵÂĵÂĵÂĵÂĵÂĵÂĵÂĵÂĵÂĵÂĵÂĵÂĵÂĵÂĵ",
        "ÂĵÂĵÂĵÂĵÂĵÂĵ"
      ],
      [
        "#",
        "%$$"
      ],
      [
        "ĝ",
        "$$$$$$$"
      ],
      [
        "Ė",
        "&"
      ],
      [
        "=Ĕ$",
        "/$$$$$$$"
      ],
      [
        "ÂĵÂĶ",
        "ÂĴÂĵÂĵÂĵ"
      ],
      [
        "%",
        ":"
      ],
      [
        "'",
        "!$$$$$$"
      ],
      [
        "4",
        "4"
      ],
      [
        "/",
        "ğ"
      ],
      [
        "$",
        "?"
      ],
      [
        "ÂĵÂĵÂĵÂĵÂĵÂĵÂĵÂĵ",
        "ÂĵÂĴÂĶ"
      ],
      [
        "#%$$",
        "#$"
      ],
      [
        "ÂĶÂĴ",
        "ÂĵÂĵÂĵÂĵÂĵÂĵÂĵÂĵÂĵÂĵ"
      ],
      [
        "Ġ?",
        "-"
      ],
      [
        "ē",
        "$&"
      ],
      [
        "+",
        ">"
      ],
      [
        "ÂĵÂĵÂĵÂĵÂĵÂĵ",
        "ÂĵÂĳ"
      ],
      [
        "Ğ",
        "="
      ],
      [
        ")",
        "%"
      ],
      [
        "ĕ",
        "&"
      ],
      [
        "/",
        "$$"
      ],
      [
        ",",
        "#-"
      ],
      [
        "'>",
        "."
      ],
      [
        "%$",
        "+"
      ],
      [
        ")",
        ";"
      ],
      [
        "ÂĵÂĴ",
        "ÂĴÂĶ"
      ],
      [
        ":&",
        "$$#;-"
      ],
      [
        "$$$$$$$$$$$$$$$$",
        "$$$$"
      ],
      [
        "'>",
        "*"
      ],
      [
        "ĝ",
        "?"
      ],
      [
        "%%$$",
        "%$"
      ],
      [
        "Ġ",
        ";"
      ],
      [
        "#",
        "Ğ"
      ],
      [
        "($",
        "("
      ],
      [
        "'@",
        "+"
      ],
      [
        "*",
        "&%"
      ],
      [
        "/",
        "#"
      ],
      [
        "đ$",
        "Ę$$$$$$$"
      ],
      [
        "ď$",
        "-!$$$$$$"
      ],
      [
        ">Ĕ$",
        "."
      ],
      [
        "$&",
        "%$"
      ],
      [
        "$",
        ":"
      ],
      [
        "Đ$",
        "Ĝ!$$$$$$"
      ],
      [
        "ę",
        "$&"
      ],
      [
        "@ē$",
        "-"
      ],
      [
        "#",
        "ğ"
      ],
      [
        ",:",
        "ē%"
      ],
      [
        "$",
        "'"
      ],
      [
        ";",
        "Ē$"
      ],
      [
        "F",
        "B"
      ],
      [
        "$&#",
        "'$$"
      ],
      [
        "#",
        "ĝ"
      ],
      [
        "C",
        "B"
      ],
      [
        "ÂĵÂĵ",
        "ÂĶ"
      ],
      [
        "ĝ",
        "@"
      ],
      [
        "Ē",
        "&"
      ],
      [
        ",",
        "\""
      ],
      [
        "ÂĴ",
        "ÂĲ"
      ],
      [
        ",",
        "$$"
      ],
      [
        "$",
        "("
      ],
      [
        ".",
        "$$"
      ],
      [
        "?ē$",
        "-"
      ],
      [
        "ē",
        "&"
      ],
      [
        "ÂĵÂĵÂĵÂĵÂĵÂĵ",
        "ÂĵÂĶ"
      ],
      [
        "Ĕ",
        "%"
      ],
      [
        "-",
        "$&?"
      ],
      [
        ",",
        "'%"
      ],
      [
        "2",
        "8"
      ],
      [
        "5",
        "4"
      ],
      [
        "ÂĵÂĵÂĵÂĵ",
        "ÂĴ"
      ],
      [
        "ē",
        "$$"
      ],
      [
        "0",
        "1"
      ],
      [
        "#",
        "!"
      ],
      [
        "!",
        ";"
      ],
      [
        "&",
        ";"
      ],
      [
        "!",
        "<-"
      ],
      [
        "Ė",
        "$$$$$$$"
      ],
      [
        "Ğ",
        "$$"
      ],
      [
        "!",
        "=/"
      ],
      [
        "ĝ",
        "\""
      ],
      [
        "<",
        "."
      ],
      [
        "8",
        "4"
      ],
      [
        "'",
        ";"
      ],
      [
        "ĝ",
        "="
      ],
      [
        "/",
        ")$"
      ],
      [
        "&",
        "="
      ],
      [
        "*",
        "\""
      ],
      [
        "Âķ",
        "Âķ"
      ],
      [
        "1",
        "9"
      ],
      [
        "Ġ",
        "=/"
      ],
      [
        "#",
        "%$%#$"
      ],
      [
        "7",
        "4"
      ],
      [
        "ÂĵÂĸ",
        "ÂĴÂĵÂĵ"
      ],
      [
        "@;",
        "ē$"
      ],
      [
        "ÂĵÂĵÂĵÂĵÂĵÂĵ",
        "Âĳ"
      ],
      [
        ">Ĕ",
        "&/"
      ],
      [
        "%&",
        "(>-"
      ],
      [
        "+",
        "#,"
      ],
      [
        "ğ",
        ";"
      ],
      [
        "ě",
        "$&"
      ],
      [
        "Ĕ",
        "$$"
      ],
      [
        "9",
        "4"
      ],
      [
        "ĕ",
        "%"
      ],
      [
        "%",
        "="
      ],
      [
        "<",
        "/"
      ],
      [
        "ÂĵÂĵÂĵÂĵÂĵÂĵÂĵÂĵÂĵÂĵÂĵÂĵÂĵÂĵÂĵÂĵÂĵÂĵÂĵÂĵÂĵÂĵÂĵÂĵÂĵÂĵÂĵÂĵÂĵÂĵÂĵÂĵÂĵÂĵÂĵÂĵÂĵÂĵÂĵÂĵÂĵÂĵÂĵÂĵÂĵÂĵÂĵÂĵ",
        "ÂĵÂĵÂĵÂĵÂĵÂĵÂĵÂĵÂĵÂĵ"
      ],
      [
        "+",
        "$$"
      ],
      [
        "Âĸ",
        "Âķ"
      ],
      [
        "ÂĵÂĳ",
        "ÂĵÂĵ"
      ],
      [
        "=Ĕ$",
        "."
      ],
      [
        "(",
        ":"
      ],
      [
        "Ġ",
        "Ě"
      ],
      [
        "Ĝ",
        "ğ"
      ],
      [
        "-",
        "$$"
      ],
      [
        "Âĳ",
        "ÂĴ"
      ],
      [
        "ė",
        "$$$$$$$"
      ],
      [
        "Ě",
        "$&"
      ],
      [
        "#",
        "*"
      ],
      [
        "ÂĵÂĵÂĵÂĵÂĵÂĵÂĵÂĵÂĵÂĵÂĵÂĵ",
        "ÂĵÂķ"
      ],
      [
        "ĝ",
        "$&"
      ],
      [
        "ÂĶ",
        "ÂĵÂĵÂĵÂĵÂĵÂĵÂĵÂĵÂĵ"
      ],
      [
        "@đ$",
        "/$#$$%#$"
      ],
      [
        "$",
        "="
      ],
      [
        "+",
        "="
      ],
      [
        "-",
        "("
      ],
      [
        "+",
        "'%"
      ],
      [
        "<ĕ$",
        "ę$$$$$$$"
      ],
      [
        "+",
        "<"
      ],
      [
        "ÂĴÂĶ",
        "ÂĵÂĵÂĵ"
      ],
      [
        "ÂĵÂķ",
        "Âķ"
      ],
      [
        "ĝ",
        "!$$$$$$"
      ],
      [
        "+",
        "("
      ],
      [
        "Ę",
        "$&"
      ],
      [
        "$&",
        "%%$$"
      ],
      [
        "ÂĵÂĴÂĶ",
        "ÂĵÂĵÂĵ"
      ],
      [
        "ÂĵÂĵÂĵÂĵÂĵÂĵÂĵÂĵ",
        "ÂĲ"
      ],
      [
        "($",
        ")"
      ],
      [
        "ÂĵÂĵÂĵÂĵÂĵÂĵÂĵÂĵÂĵÂĵ",
        "Âĵ"
      ],
      [
        "!>",
        "."
      ],
      [
        ")",
        "\""
      ],
      [
        "ÂĵÂı",
        "ÂĵÂı"
      ],
      [
        "3",
        "0"
      ],
      [
        ":",
        "/"
      ],
      [
        "ğ",
        "#"
      ],
      [
        "%%",
        "%$"
      ],
      [
        "#",
        "="
      ],
      [
        "Ġ>",
        "."
      ],
      [
        "-:",
        "'$"
      ],
      [
        "Ĝ",
        "$&"
      ],
      [
        "$&",
        "#$"
      ],
      [
        "+",
        "'"
      ],
      [
        "=Ĕ$",
        "ę"
      ],
      [
        "4",
        "7"
      ],
      [
        "#",
        "'"
      ],
      [
        "=",
        "đ$"
      ],
      [
        "ÂĵÂĵÂĵÂĵÂĵÂĵÂĵÂĵÂĵÂĵÂĵÂĵÂĵÂĵÂĵÂĵÂĵÂĵÂĵÂĵÂĵÂĵÂĵÂĵÂĵÂĵÂĵÂĵÂĵÂĵÂĵÂĵÂĵÂĵÂĵÂĵÂĵÂĵÂĵÂĵÂĵÂĵÂĵÂĵÂĵÂĵÂĵÂĵÂĵÂĵÂĵÂĵÂĵÂĵÂĵÂĵÂĵÂĵÂĵÂĵÂĵÂĵÂĵÂĵÂĵÂĵÂĵÂĵÂĵÂĵÂĵÂĵÂĵÂĵÂĵÂĵÂĵÂĵÂĵÂĵÂĵÂĵÂĵÂĵÂĵÂĵÂĵÂĵÂĵÂĵÂĵÂĵÂĵÂĵÂĵÂĵÂĵÂĵÂĵÂĵÂĵÂĵÂĵÂĵÂĵÂĵ",
        "ÂĵÂĸ"
      ],
      [
        "$&",
        "!$$$$$$"
      ],
      [
        "+",
        "?"
      ],
      [
        "#",
        "%"
      ],
      [
        "F",
        "A"
      ],
      [
        "ÂĵÂĳ",
        "ÂĴ"
      ],
      [
        "'",
        "."
      ],
      [
        "9",
        "5"
      ],
      [
        "ÂĵÂĵÂĵÂĵÂĵÂĵÂĵÂĵÂĵÂĵÂĵÂĵÂĵÂĵÂĵÂĵÂĵÂĵÂĵÂĵÂĵÂĵÂĵÂĵÂĵÂĵÂĵÂĵÂĵÂĵÂĵÂĵ",
        "ÂĵÂĵÂĵÂĵÂĵÂĵÂĵÂĵÂĵÂĵ"
      ],
      [
        "?",
        "đ"
      ],
      [
        "Âĳ",
        "ÂĵÂĵ"
      ],
      [
        "%",
        "-"
      ],
      [
        "+",
        "!"
      ],
      [
        "%$",
        "(>-"
      ],
      [
        "?",
        "ĕ$"
      ],
      [
        "\"",
        "="
      ],
      [
        "ÂĵÂĴ",
        "ÂĵÂĵÂĵÂĵÂĵÂĵÂĵÂĵÂĵÂĵÂĵÂĵÂĵÂĵÂĵÂĵÂĵÂĵÂĵÂĵÂĵÂĵÂĵÂĵÂĵÂĵÂĵÂĵÂĵÂĵÂĵÂĵÂĵÂĵÂĵÂĵÂĵÂĵÂĵÂĵÂĵÂĵÂĵÂĵÂĵÂĵÂĵÂĵÂĵÂĵÂĵÂĵÂĵÂĵÂĵÂĵÂĵÂĵÂĵÂĵÂĵÂĵÂĵÂĵÂĵÂĵÂĵÂĵÂĵÂĵÂĵÂĵÂĵÂĵÂĵÂĵÂĵÂĵÂĵÂĵÂĵÂĵÂĵÂĵÂĵÂĵÂĵÂĵÂĵÂĵÂĵÂĵÂĵÂĵÂĵÂĵÂĵÂĵÂĵÂĵÂĵÂĵÂĵÂĵÂĵÂĵÂĵÂĵ"
      ],
      [
        ")",
        "&"
      ],
      [
        "\"",
        "ě"
      ],
      [
        "ė$",
        "\""
      ],
      [
        "đ$",
        "Ę"
      ],
      [
        "ÂĵÂĶÂĵÂĵ",
        "ÂĵÂĶÂĵÂĵ"
      ],
      [
        "Ē",
        "$$"
      ],
      [
        "@đ$",
        "ę$%$$%%$"
      ],
      [
        "*",
        "!"
      ],
      [
        ";",
        "/"
      ],
      [
        ">Ĕ$",
        "Ą"
      ],
      [
        ".:",
        "ĕ"
      ],
      [
        "$$$",
        "%$%#$"
      ],
      [
        "-:",
        "ē$"
      ],
      [
        "1",
        "8"
      ],
      [
        "<ĕ$",
        "/$$$$$$$"
      ],
      [
        "*",
        "'"
      ],
      [
        "Ĕ",
        "&"
      ],
      [
        "Ĝ",
        "$$$$$$$$"
      ],
      [
        ")",
        "."
      ],
      [
        "#",
        "\""
      ],
      [
        "ÂĵÂĵÂĵÂĵÂĵÂĵÂĵÂĵ",
        "Âı"
      ],
      [
        "Ĝ",
        "ĝ"
      ],
      [
        "ÂĵÂĵÂĵÂĵÂĵÂĵÂĵÂĵÂĵÂĵÂĵÂĵÂĵÂĵÂĵÂĵÂĵÂĵÂĵÂĵÂĵÂĵÂĵÂĵÂĵÂĵÂĵÂĵÂĵÂĵÂĵÂĵÂĵÂĵÂĵÂĵÂĵÂĵÂĵÂĵÂĵÂĵÂĵÂĵÂĵÂĵÂĵÂĵÂĵÂĵÂĵÂĵÂĵÂĵÂĵÂĵÂĵÂĵÂĵÂĵÂĵÂĵÂĵÂĵÂĵÂĵÂĵÂĵÂĵÂĵÂĵÂĵÂĵÂĵÂĵÂĵ",
        "Âĵ"
      ],
      [
        "Ğ",
        "$&"
      ],
      [
        "ĕ",
        "$$\""
      ],
      [
        "Ġ=",
        "-"
      ],
      [
        ")",
        ":"
      ],
      [
        "@Ē$",
        "ă$$$$$$$"
      ],
      [
        "*",
        "&"
      ],
      [
        "ĕ",
        "$$$$$$$"
      ],
      [
        "Ğ",
        "#"
      ],
      [
        "(",
        "."
      ],
      [
        "ÂĵÂĵÂĵÂĵÂĵÂĵÂĵÂĵÂĵÂĵÂĵÂĵÂĵÂĵÂĵÂĵÂĵÂĵÂĵÂĵÂĵÂĵÂĵÂĵÂĵÂĵÂĵÂĵÂĵÂĵÂĵÂĵÂĵÂĵÂĵÂĵÂĵÂĵÂĵÂĵÂĵÂĵÂĵÂĵÂĵÂĵÂĵÂĵ",
        "ÂĵÂĵÂĵÂĵÂĵÂĵÂĵÂĵÂĵÂĵÂĵÂĵÂĵÂĵ"
      ],
      [
        "ÂĵÂĵÂĵÂĵÂĵÂĵÂĵÂĵÂĵÂĵÂĵÂĵÂĵÂİ",
        "ÂĵÂĵÂĵÂĵÂĵÂĵÂĵÂĵÂĵÂĵÂĵÂĵÂĵÂĵÂĵÂĵÂĵÂĵÂĵÂĵÂĵÂĵÂĵÂĵÂĵÂĵÂĵÂĵÂĵÂĵÂĵÂĵÂĵÂĵÂĵÂĵÂĵÂĵÂĵÂĵÂĵÂĵÂĵÂĵÂĵÂĵÂĵÂĵÂĵÂĵÂĵÂĵÂĵÂĵ"
      ],
      [
        "ĕ$$\"",
        "<-"
      ],
      [
        "Ę",
        "%"
      ],
      [
        "Ġ",
        ":"
      ],
      [
        ">Ĕ$",
        ","
      ],
      [
        "3",
        "1"
      ],
      [
        "ÂĲ",
        "ÂĴ"
      ],
      [
        "(",
        "&"
      ],
      [
        ",",
        "'"
      ],
      [
        "$$$$$$",
        "%$$$$$$%$$$$$$"
      ],
      [
        "ÂĵÂĵÂĵÂĵÂĵÂĵÂĵÂĵÂĵÂĵÂĵÂĵÂĵÂĵÂĵÂĵÂĵÂĵÂĵÂĵÂĵÂĵÂĵÂĵÂĵÂĵÂĵÂĵÂĵÂĵÂĵÂĵÂĵÂĵÂĵÂĵÂĵÂĵÂĵÂĵÂĵÂĵÂĵÂĵÂĵÂĵÂĵÂĵÂĵÂĵÂĵÂĵÂĵÂĵÂĵÂĵÂĵÂĵÂĵÂĵÂĵÂĵÂĵÂĵÂĵÂĵÂĵÂĵÂĵÂĵÂĵÂĵÂĵÂĵÂĵÂĵÂĵÂĵÂĵÂĵÂĵÂĵ",
        "ÂĵÂĲ"
      ],
      [
        "Ē",
        "\"$"
      ],
      [
        "Ğ",
        "<"
      ],
      [
        ".",
        "ğ"
      ],
      [
        "ÂĵÂĵ",
        "ÂĴ"
      ],
      [
        "$$$",
        "%$$"
      ],
      [
        "Ė$",
        "%"
      ],
      [
        "ÂĵÂĵÂĵÂĵÂĵÂĵÂĵÂĵÂĵÂĵÂĵÂĵÂĵÂĵÂĵÂĵÂĵÂĵÂĵÂĵÂĵÂĵÂĵÂĵÂĵÂĵÂĵÂĵÂĵÂĵÂĵÂĵÂĵÂĵÂĵÂĵÂĵÂĵÂĵÂĵÂĵÂĵÂĵÂĵÂĵÂĵÂĵÂĵÂĵÂĵÂĵÂĵÂĵÂĵÂĵÂĵÂĵÂĵÂĵÂĵÂĵÂĵÂĵÂĵÂĵÂĵÂĵÂĵÂĵÂĵÂĵÂĵÂĵÂĵÂĵÂĵÂĵÂĵÂĵÂĵÂĵÂĵÂĵÂĵÂĵÂĵÂĵÂĵÂĵÂĵÂĵÂĵÂĵÂĵÂĵÂĵÂĵÂĵÂĵÂĵÂĵÂĵÂĵÂĵÂĵÂĵÂĵÂĵÂĵÂĵÂĵÂĵÂĵÂĵÂĵÂĵÂĵÂĵÂĵÂĵ",
        "Âĵ"
      ],
      [
        "!<",
        "."
      ],
      [
        ",",
        ";"
      ],
      [
        "$$$$$$",
        "#$$$$$$#$$$$$$-$$$$$$-$$$$$$"
      ],
      [
        "1",
        "6"
      ],
      [
        "F",
        "E"
      ],
      [
        "$",
        "#$$%#$"
      ],
      [
        "ÂĵÂĵÂĵÂĵÂĵÂĵÂĵÂĵÂĵÂĵÂĵÂĵÂĵÂĵÂĵÂĵÂĵÂĵÂĵÂĵÂĵÂĵÂĵÂĵÂĵÂĵÂĵÂĵÂĵÂĵÂĵÂĵÂĵÂĵÂĵÂĵÂĵÂĵÂĵÂĵÂĵÂĵÂĵÂĵÂĵÂĵÂĵÂĵÂĵÂĵÂĵÂĵÂĵÂĵÂĵÂĵÂĵÂĵÂĵÂĵÂĵÂĵÂĵÂĵÂĵÂĵÂĵÂĵÂĵÂĵÂĵÂĵÂĵÂĵÂĵÂĵÂĵÂĵÂĵÂĵÂĵÂĵÂĵÂĵÂĵÂĵÂĵÂĵÂĵÂĵÂĵÂĵÂĵÂĵÂĵÂĵÂĵÂĵÂĵÂĵÂĵÂĵÂĵÂĵÂĵÂĵ",
        "ÂĵÂĴ"
      ],
      [
        "'$'",
        "\"$"
      ],
      [
        "ÂĶ",
        "ÂĴÂĵÂĵ"
      ],
      [
        "3",
        "5"
      ],
      [
        "?Ĕ",
        "&/"
      ],
      [
        "@",
        "đ"
      ],
      [
        "ė",
        "&"
      ],
      [
        "'",
        "'"
      ],
      [
        ")",
        "$$$$$$$$"
      ],
      [
        "?ē$",
        "ě!$$$$$$"
      ],
      [
        "\"",
        "&"
      ],
      [
        "*",
        "%"
      ],
      [
        "G",
        "A"
      ],
      [
        "'>",
        "/"
      ],
      [
        "&",
        ":"
      ],
      [
        ".:",
        "'$"
      ],
      [
        "Ġ",
        "#"
      ],
      [
        "ÂĵÂĵÂĵÂĵ",
        "ÂĴÂĵÂĴ"
      ],
      [
        "&$",
        "'"
      ],
      [
        "ÂĵÂĵÂĵÂĵÂĵÂĵÂĵÂĵÂĵÂĵÂĵÂĵ",
        "ÂĵÂĸ"
      ],
      [
        "ÂĵÂĶÂĴ",
        "ÂĵÂĵÂĵÂĵÂĵÂĵÂĵÂĵÂĵÂĵ"
      ],
      [
        "G",
        "E"
      ],
      [
        "ÂĵÂĵÂĵÂĵÂĵÂĵÂĵÂĵÂĵÂĵÂĵÂĵÂĵÂĵÂĵÂĵÂĵÂĵÂĵÂĵÂĵÂĵÂĵÂĵÂĵÂĵÂĵÂĵÂĵÂĵÂĵÂĵÂĵÂĵÂĵÂĵÂĵÂĵÂĵÂĵÂĵÂĵÂĵÂĵÂĵÂĵÂĵÂĵÂĵÂĵÂĵÂĵÂĵÂĵÂĵÂĵÂĵÂĵÂĵÂĵÂĵÂĵÂĵÂĵÂĵÂĵÂĵÂĵÂĵÂĵÂĵÂĵÂĵÂĵÂĵÂĵÂĵÂĵÂĵÂĵÂĵÂĵÂĵÂĵÂĵÂĵÂĵÂĵÂĵÂĵÂĵÂĵÂĵÂĵÂĵÂĵ",
        "ÂĵÂĵ"
      ],
      [
        ")",
        "&$"
      ],
      [
        "=",
        "$"
      ],
      [
        "Ġ>",
        "/"
      ],
      [
        "$$$$$$$",
        "Ě"
      ],
      [
        "Ė$",
        "-"
      ],
      [
        "ÂĵÂķ",
        "ÂĵÂĵ"
      ],
      [
        "3",
        "7"
      ],
      [
        "Ĕ",
        "#"
      ],
      [
        "ÂĵÂ",
        "Ļ"
      ],
      [
        "Ĕ$",
        "&"
      ],
      [
        "@:Ĕ$",
        "ā"
      ],
      [
        "Ğ",
        "!$$$$$$"
      ],
      [
        ":",
        "ē$"
      ],
      [
        "ĝ",
        "ĝ"
      ],
      [
        ">ē$",
        "ę$%$$%%$"
      ],
      [
        ">Ĕ$",
        "Ę"
      ],
      [
        ":&$",
        "+"
      ],
      [
        "(",
        "/"
      ],
      [
        "*",
        "$$"
      ],
      [
        "ē",
        "#"
      ],
      [
        ">ē$",
        ".$#$$%#$"
      ],
      [
        "E",
        "E"
      ],
      [
        "Ę",
        "&"
      ],
      [
        "ÂĵÂĵÂĵÂĵÂĵÂĵÂ",
        "ı"
      ],
      [
        "ÂĵÂĵÂĵÂĵ",
        "ÂĶÂĵÂĶ"
      ],
      [
        "ÂĵÂĵÂĴÂĶ",
        "ÂĵÂĵÂĵÂĵÂĵÂĵÂĵÂĵÂĵÂĵÂĵÂĵÂĵÂĵÂĵÂĵÂĵÂĵÂĵÂĵÂĵÂĵÂĵÂĵÂĵÂĵÂĵÂĵÂĵÂĵÂĵÂĵÂĵÂĵÂĵÂĵÂĵÂĵÂĵÂĵÂĵÂĵÂĵÂĵÂĵÂĵÂĵÂĵÂĵÂĵÂĵÂĵÂĵÂĵÂĵÂĵÂĵÂĵÂĵÂĵÂĵÂĵÂĵÂĵÂĵÂĵÂĵÂĵÂĵÂĵÂĵÂĵÂĵÂĵÂĵÂĵÂĵÂĵÂĵÂĵÂĵÂĵÂĵÂĵÂĵÂĵÂĵÂĵÂĵÂĵÂĵÂĵÂĵÂĵÂĵÂĵÂĵÂĵÂĵÂĵÂĵÂĵÂĵÂĵÂĵÂĵÂĵÂĵÂĵÂĵÂĵÂĵÂĵÂĵÂĵÂĵÂĵÂĵÂĵÂĵÂĵÂĵ"
      ],
      [
        ":",
        "Ē$"
      ],
      [
        "$$",
        "'$'$$"
      ],
      [
        ";",
        "&"
      ],
      [
        "%&",
        "!$$$$$$"
      ],
      [
        "%",
        "<"
      ],
      [
        "ĝ",
        "!"
      ],
      [
        "*#",
        "*"
      ],
      [
        "?Ĕ$",
        "Ę$$$$$$$"
      ],
      [
        "ÂĵÂĵÂĵÂĵÂĵÂĵÂĵÂĵÂĵÂĵÂĵÂĵÂĵÂĵÂĵÂĵÂĵÂĵÂĵÂĵÂĵÂĵÂĵÂĵÂĵÂĵÂĵÂĵÂĵÂĵÂĵÂĵÂĵÂĵÂĵÂĵÂĵÂĵÂĵÂĵÂĵÂĵÂĵÂĵÂĵÂĵÂĵÂĵÂĵÂĵÂĵÂĵÂĵÂĵÂĵÂĵÂĵÂĵÂĵÂĵÂĵÂĵÂĵÂĵÂĵÂĵÂĵÂĵÂĵÂĵÂĵÂĵÂĵÂĵÂĵÂĵÂĵÂĵÂĵÂĵ",
        "ÂĵÂĵÂĵÂĵ"
      ],
      [
        "ÂĵÂĵÂĵÂĵÂĵÂĵÂĵÂĵÂĵÂĴÂĶ",
        "ÂĵÂĵÂĵÂĵÂĵÂĵÂĵÂĵÂĵÂĵÂĵÂĵÂĵÂĵÂĵÂĵÂĵÂĵÂĵÂĵÂĵÂĵÂĵÂĵÂĵÂĵÂĵÂĵÂĵÂĵÂĵÂĵÂĵÂĵÂĵÂĵÂĵÂĵÂĵÂĵÂĵÂĵÂĵÂĵÂĵÂĵÂĵÂĵÂĵÂĵÂĵÂĵÂĵÂĵÂĵÂĵÂĵÂĵÂĵÂĵÂĵÂĵÂĵÂĵÂĵÂĵÂĵÂĵÂĵÂĵÂĵÂĵÂĵÂĵÂĵÂĵÂĵÂĵÂĵÂĵÂĵÂĵÂĵÂĵÂĵÂĵÂĵÂĵÂĵÂĵÂĵÂĵÂĵÂĵÂĵÂĵÂĵÂĵÂĵÂĵÂĵÂĵÂĵÂĵÂĵÂĵÂĵÂĵÂĵÂĵÂĵÂĵÂĵÂĵÂĵ"
      ],
      [
        "\"ě",
        "$$$$$$$$"
      ],
      [
        "ğ",
        "!$$$$$$"
      ],
      [
        "ÂĴÂĵÂĵ",
        "ÂĴ"
      ],
      [
        "*",
        ":"
      ],
      [
        "ğ",
        ":"
      ],
      [
        "$%",
        "$$"
      ],
      [
        "ÂĴÂĵÂĵ",
        "ÂĵÂĴÂĵÂĵ"
      ],
      [
        "!",
        ":"
      ],
      [
        "+",
        ":"
      ],
      [
        "ÂĵÂĴ",
        "ÂĳÂĶ"
      ],
      [
        "Ě$",
        "%$$%%$"
      ],
      [
        "+",
        "&"
      ],
      [
        "Âķ",
        "ÂĶÂĶ"
      ],
      [
        "<-",
        "$"
      ],
      [
        "ÂĵÂĵÂĵÂĵÂĵÂĵÂĵÂĵÂĵÂĵÂĵÂĵÂĵÂĵÂĵÂĵÂĵÂĵÂĵÂĵÂĵÂĵÂĵÂĵÂĵÂĵÂĵÂĵÂĵÂĵÂĵÂĵÂĵÂĵÂĵÂĵÂĵÂĵÂĵÂĵÂĵÂĵÂĵÂĵÂĵÂĵÂĵÂĵÂĵÂĵÂĵÂĵÂĵÂĵÂĵÂĵÂĵÂĵÂĵÂĵÂĵÂĵÂĵÂĵÂĵÂĵÂĵÂĵÂĵÂĵÂĵÂĵÂĵÂĵÂĵÂĵÂĵÂĵÂĵÂĵÂĵÂĵÂĵÂĵÂĵÂĵÂĵÂĵÂĵÂĵÂĵÂĵÂĵÂĵÂĵÂĵÂĵÂĵÂĵÂĵÂĵÂĵÂĵÂĵÂĵÂĵÂĵÂĵÂĵÂĵÂĵÂĵ",
        "ÂĵÂĵÂĵÂĵÂĵÂĵ"
      ],
      [
        "4",
        "1"
      ],
      [
        "Ė$",
        "'"
      ],
      [
        "ÂĵÂĵÂĵÂĵÂĵÂĵÂĵÂĵÂĵÂĵÂĵÂĵÂĵÂĵÂĵÂĵÂĵÂĵÂĵÂĵÂĵÂĵÂĵÂĵÂĵÂĵÂĵÂĵÂĵÂĵÂĵÂĵÂĵÂĵÂĵÂĵÂĵÂĵÂĵÂĵ",
        "ÂĵÂĺ"
      ],
      [
        "Ġ",
        "!$$$$$$"
      ],
      [
        "ÂĵÂĵÂĵÂĵÂĵÂĵÂĵÂĵÂĵÂĵÂĵÂĵÂĵÂĵÂĵÂĵÂĵÂĵÂĵÂĵÂĵÂĵÂĵÂĵÂĵÂĵÂĵÂĵÂĵÂĵÂĵÂĵÂĵÂĵÂĵÂĵÂĵÂĵÂĵÂĵÂĵÂĵÂĵÂĵÂĵÂĵÂĵÂĵÂĵÂĵÂĵÂĵÂĵÂĵÂĵÂĵÂĵÂĵÂĵÂĵÂĵÂĵÂĵÂĵÂĵÂĵÂĵÂĵÂĵÂĵÂĵÂĵÂĵÂĵÂĵÂĵÂĵÂĵÂĵÂĵÂĵÂĵÂĵÂĵÂĵÂĵÂĵÂĵÂĵÂĵÂĵÂĵÂĵÂĵÂĵÂĵÂĵÂĵÂĵÂĵÂĵÂĵÂĵÂĵÂĵÂĵÂĵÂĵÂĵÂĵÂĵÂĵÂĵÂĵ",
        "ÂĶÂĴÂĵÂĵÂĵÂĵÂĵÂĵÂĵÂĵÂĵÂĵ"
      ],
      [
        "-",
        "#."
      ],
      [
        "Ė$",
        "\""
      ],
      [
        "%",
        ","
      ],
      [
        ">Ĕ$",
        "Ĝ!$$$$$$"
      ],
      [
        "&.",
        "$$$$$$$$."
      ],
      [
        "ÂĵÂĵÂĵÂĵ",
        "Âĳ"
      ],
      [
        "%+",
        "$$$$$$$$"
      ],
      [
        "%",
        "#"
      ],
      [
        "Ġ",
        "$$$$$$$$"
      ],
      [
        "$'",
        "%%$$"
      ],
      [
        "$%$%",
        "%$"
      ],
      [
        "Ę$",
        "\""
      ],
      [
        ")",
        "'"
      ],
      [
        "ÂĵÂĲ",
        "ÂĶÂĵÂĵÂĵÂĵÂĵÂĵÂĵÂĵÂĵÂĵÂĵÂĵÂĵÂĵÂĵÂĵÂĵÂĵÂĵÂĵÂĵÂĵÂĵÂĵÂĵÂĵÂĵÂĵÂĵÂĵÂĵÂĵÂĵÂĵÂĵÂĵÂĵÂĵÂĵÂĵÂĵÂĵÂĵÂĵÂĵÂĵÂĵÂĵÂĵÂĵÂĵÂĵÂĵÂĵÂĵÂĵÂĵÂĵÂĵÂĵÂĵÂĵÂĵÂĵÂĵÂĵÂĵÂĵÂĵÂĵÂĵÂĵÂĵÂĵÂĵÂĵÂĵÂĵÂĵÂĵÂĵÂĵÂĵÂĵÂĵÂĵÂĵÂĵÂĵÂĵÂĵÂĵÂĵÂĵÂĵÂĵÂĵÂĵÂĵÂĵ"
      ],
      [
        "#ĝ",
        "$$$$$$$$"
      ],
      [
        "+",
        "@"
      ],
      [
        "Ĝ",
        "Ğ"
      ],
      [
        "ÂĵÂĶ",
        "Âķ"
      ],
      [
        ",",
        "?"
      ],
      [
        "'?",
        "."
      ],
      [
        "%&",
        "$&%$"
      ],
      [
        "%",
        "/"
      ],
      [
        "\"",
        "\""
      ],
      [
        "%%",
        "!$$$$$$"
      ],
      [
        "ÂĵÂĵÂĵÂĵÂĴÂĵÂĴ",
        "ÂĵÂĵÂĵ"
      ],
      [
        "/",
        "$$\""
      ],
      [
        "ĝ",
        "Ğ"
      ],
      [
        "$",
        "!"
      ],
      [
        "#Ğ",
        "$$$$$$$$"
      ],
      [
        "ÂĶ",
        "ÂĵÂĵÂĵÂĵÂĵÂĵÂĵÂĵÂĵÂĵÂĵÂĵÂĵÂĵÂĵÂĵÂĵÂĵÂĵÂĵÂĵÂĵÂĵÂĵÂĵÂĵÂĵÂĵÂĵÂĵÂĵÂĵÂĵÂĵÂĵÂĵÂĵÂĵÂĵÂĵÂĵÂĵÂĵÂĵÂĵÂĵÂĵÂĵÂĵÂĵÂĵÂĵÂĵÂĵÂĵÂĵÂĵÂĵÂĵÂĵÂĵÂĵÂĵÂĵÂĵÂĵÂĵÂĵÂĵÂĵÂĵÂĵÂĵÂĵÂĵÂĵÂĵÂĵÂĵÂĵÂĵÂĵÂĵÂĵÂĵÂĵÂĵÂĵÂĵÂĵÂĵÂĵÂĵÂĵÂĵÂĵÂĵÂĵÂĵÂĵÂĵÂĵÂĵÂĵÂĵÂĵ"
      ],
      [
        ",",
        "$$#"
      ],
      [
        "$$$$$$$$$$$$$$$$$$$$$$$$$$$$$$$$",
        "$$$$$$$$"
      ],
      [
        "ĝ",
        "<"
      ],
      [
        "Ĝ",
        "!"
      ],
      [
        "ÂĵÂĵÂĵÂĵ",
        "Âķ"
      ],
      [
        "%",
        "'$'"
      ],
      [
        "&",
        "'"
      ],
      [
        ")",
        "#)"
      ],
      [
        "ÂĵÂĵÂĵÂĵÂĵÂĵÂİ",
        "ÂĵÂĵÂĵÂĵÂĵÂĵÂĵÂĵÂĵÂĵÂĵÂĵÂĵÂĵÂĵÂĵÂĵÂĵÂĵÂĵÂĵÂĵÂĵÂĵÂĵÂĵÂĵÂĵÂĵÂĵÂĵÂĵÂĵÂĵÂĵÂĵÂĵÂĵÂĵÂĵ"
      ],
      [
        "-",
        "ğ"
      ],
      [
        "*",
        "'$"
      ],
      [
        "Ĝ",
        ">"
      ],
      [
        "ÂĵÂĵÂĵÂĵÂĵÂĵÂĺ",
        "ÂĵÂĵÂĵÂĵÂĵÂĵÂĺ"
      ],
      [
        "&",
        "$$"
      ],
      [
        "ÂĵÂ",
        "į"
      ],
      [
        "?Ĕ$",
        "ă$$$$$$$"
      ],
      [
        "Âĸ",
        "ÂĶ"
      ],
      [
        "%*",
        "$$$$$$$$"
      ],
      [
        "ÂĵÂĵÂĶÂĴ",
        "ÂĵÂĵÂĵÂĵÂĵÂĵÂĵÂĵÂĵÂĵÂĵÂĵÂĵÂĵÂĵÂĵÂĵÂĵÂĵÂĵÂĵÂĵÂĵÂĵÂĵÂĵÂĵÂĵÂĵÂĵÂĵÂĵÂĵÂĵÂĵÂĵÂĵÂĵÂĵÂĵÂĵÂĵÂĵÂĵÂĵÂĵÂĵÂĵÂĵÂĵÂĵÂĵÂĵÂĵÂĵÂĵÂĵÂĵÂĵÂĵÂĵÂĵÂĵÂĵÂĵÂĵÂĵÂĵÂĵÂĵÂĵÂĵÂĵÂĵÂĵÂĵÂĵÂĵÂĵÂĵÂĵÂĵÂĵÂĵÂĵÂĵÂĵÂĵÂĵÂĵÂĵÂĵÂĵÂĵÂĵÂĵÂĵÂĵÂĵÂĵÂĵÂĵÂĵÂĵÂĵÂĵÂĵÂĵÂĵÂĵÂĵÂĵÂĵÂĵÂĵÂĵÂĵÂĵÂĵÂĵÂĵÂĵ"
      ],
      [
        "$$$$$$$",
        "-"
      ],
      [
        "(",
        "!$$$$$$"
      ],
      [
        "Ġ",
        "H"
      ],
      [
        "$$$$$$$$$$$$$$$$$$$$$$$$$$$$$$$$$$$$$$$$$$$$$$$$",
        "$$$$$$$$"
      ],
      [
        "ÂĵÂĳ",
        "Âĳ"
      ],
      [
        "%$",
        "*"
      ],
      [
        "=ĕ$",
        "ę"
      ],
      [
        "#",
        "=/"
      ],
      [
        "?",
        "Đ$"
      ],
      [
        "ā",
        "$&?"
      ],
      [
        "%&",
        "(?."
      ],
      [
        ">",
        "đ"
      ],
      [
        "/",
        "$$#"
      ],
      [
        "ÂĵÂĶ",
        "Âĵ"
      ],
      [
        "$&",
        ")"
      ],
      [
        "-",
        "$$#"
      ],
      [
        "Âķ",
        "ÂĵÂĵÂĵ"
      ],
      [
        "'",
        "("
      ],
      [
        "=",
        "ė"
      ],
      [
        "/",
        "Ğ"
      ],
      [
        "$$$$$$$$$$$$$$$$$$$$$$$$$$$$$$$$$$$$$$$$$$$$$$$$$$$$$$$$$$$$$$$$",
        "$$$$$$$$$$$$$$$$$$$$$$$$$$$$$$$$$$$$$$$$"
      ],
      [
        "Ĕ",
        "$$$$$$$"
      ],
      [
        "Ĝ",
        "$$#;-"
      ],
      [
        "ÂĵÂĵÂĵÂĵÂĵÂĵÂĵÂĵÂĵÂĵÂĵÂĵÂĵÂĵÂĵÂĵÂĵÂĵÂĵÂĵÂĵÂĵÂĵÂĵÂĵÂĵÂĵÂĵÂĵÂĵÂĵÂĵ",
        "ÂĵÂĵÂĵ"
      ],
      [
        "ė$",
        "!"
      ],
      [
        "G",
        "F"
      ],
      [
        "(>",
        "."
      ],
      [
        ",",
        ">"
      ],
      [
        "ÂĵÂĵÂĵÂĵ",
        "ÂĴÂĵÂĵ"
      ],
      [
        "+",
        "'$"
      ],
      [
        "ÂĵÂĵÂĵÂĵÂĵÂĵÂĵÂĵÂĵÂĵÂĵÂĵÂĵÂİ",
        "ÂĵÂĵÂĵÂĵÂĵÂĵÂĵÂĵÂĵÂĵÂĵÂĵÂĵÂĵÂĵÂĵÂĵÂĵÂĵÂĵÂĵÂĵÂĵÂĵÂĵÂĵÂĵÂĵÂĵÂĵÂĵÂĵÂĵÂĵÂĵÂĵÂĵÂĵÂĵÂĵ"
      ],
      [
        "&",
        "("
      ],
      [
        "Ē",
        "$&"
      ],
      [
        "+",
        "-"
      ],
      [
        "ÂĵÂĲ",
        "ÂĴÂĵÂĵ"
      ],
      [
        "ÂĵÂĵÂĵÂĵÂĵÂĵ",
        "ÂĲ"
      ],
      [
        "ÂĵÂķ",
        "ÂĵÂķ"
      ],
      [
        "ğ",
        "Ě"
      ],
      [
        "$",
        "<"
      ],
      [
        "ÂĶ",
        "ÂĵÂĵÂĵÂĵÂĵÂĵÂĶ"
      ],
      [
        "\"",
        "=/"
      ],
      [
        "#ğ",
        "$$$$$$$$"
      ],
      [
        "'$",
        "%"
      ],
      [
        "ē",
        "$$$$$$$"
      ],
      [
        "?Ē$",
        "ę$%$$%%$"
      ],
      [
        "?:",
        "ē$"
      ],
      [
        "&",
        "/$"
      ],
      [
        "$$$$$$$$$$$$$$$$$$$$$$$$$$$$$$$$$$$$$$$$$$$$$$$$$$$$$$$$$$$$$$$$",
        "$$$$$$$$$$$$"
      ],
      [
        "Đ$",
        "-!$$$$$$"
      ],
      [
        "ÂĵÂĵÂĵÂĵÂĵÂĵÂĵÂĵÂĵÂĵÂĵÂĵ",
        "ÂĵÂĳ"
      ],
      [
        "ÂĵÂĵÂĵÂĵÂĵÂĵÂĵÂĵÂĵÂĵÂĵÂĵÂĵÂĵÂĵÂĵÂĵÂĵÂĵÂĵÂĵÂĵÂĵÂĵÂĵÂĵÂĵÂĵÂĵÂĵÂĵÂĵÂĵÂĵÂĵÂĵÂĵÂĵÂĵÂĵÂĵÂĵÂĵÂĵÂĵÂĵÂĵÂĵÂĵÂĵÂĵÂĵÂĵÂĵÂĵÂĵÂĵÂĵÂĵÂĵÂĵÂĵÂĵÂĵÂĵÂĵÂĵÂĵÂĵÂĵÂĵÂĵÂĵÂĵÂĵÂĵÂĵÂĵÂĵÂĵÂĵÂĵÂĵÂĵÂĵÂĵÂĵÂĵÂĵÂĵÂĵÂĵÂĵÂĵÂĵÂĵÂĵÂĵÂĵÂĵÂĵÂĵÂĵÂĵÂĵÂĵ",
        "ÂĵÂķ"
      ],
      [
        "Ġ",
        "\""
      ],
      [
        "$$$$$$$",
        "ě"
      ],
      [
        ".",
        "!"
      ],
      [
        "ÂĵÂĵÂĵÂĵÂĵÂĵÂĵÂĵ",
        "ÂĴÂĵÂĴ"
      ],
      [
        "'?",
        "*"
      ],
      [
        "5",
        "3"
      ],
      [
        "Ė$",
        "("
      ],
      [
        "ÂĵÂĵÂĵÂĵÂĵÂĵÂĵÂĵÂĵÂĵ",
        "ÂĴ"
      ],
      [
        ")",
        "@:Ĕ$"
      ],
      [
        "ÂĵÂĶ",
        "ÂĵÂĵÂĵÂĵÂĵÂĵÂĵÂĵÂĵÂĵÂĵÂĵÂĵÂĵÂĵÂĵÂĵÂĵÂĵÂĵÂĵÂĵÂĵÂĵÂĵÂĵÂĵÂĵÂĵÂĵÂĵÂĵÂĵÂĵÂĵÂĵÂĵÂĵÂĵÂĵÂĵÂĵÂĵÂĵÂĵÂĵÂĵÂĵÂĵÂĵÂĵÂĵÂĵÂĵÂĵÂĵÂĵÂĵÂĵÂĵÂĵÂĵÂĵÂĵÂĵÂĵÂĵÂĵÂĵÂĵÂĵÂĵÂĵÂĵÂĵÂĵÂĵÂĵÂĵÂĵÂĵÂĵÂĵÂĵÂĵÂĵÂĵÂĵÂĵÂĵÂĵÂĵÂĵÂĵÂĵÂĵÂĵÂĵÂĵÂĵÂĵÂĵÂĵÂĵÂĵÂĵÂĵÂĵÂĵÂĵÂĵÂĵÂĵÂĵ"
      ],
      [
        "ÂĶÂĵÂĶ",
        "ÂĵÂĵÂĵ"
      ],
      [
        "%$",
        "\""
      ],
      [
        ".",
        "($"
      ],
      [
        ":&$+",
        "#;-"
      ],
      [
        ",",
        ")"
      ],
      [
        "ÂķÂĴ",
        "ÂĴÂĵÂĵ"
      ],
      [
        "Ĝ",
        "?"
      ],
      [
        "D",
        "D"
      ],
      [
        "ÂĶÂĵÂĵ",
        "ÂĴ"
      ],
      [
        "?Ē$",
        "ę"
      ],
      [
        "Ĝ",
        "="
      ],
      [
        "ÂĵÂĵÂĵÂĵÂĵÂĵÂĵÂĵÂĵÂĵÂĵÂĵÂĵÂĵÂĵÂĵÂĵÂĵÂĵÂĵÂĵÂĵÂĵÂĵÂĵÂĵÂĵÂĵÂĵÂĵÂĵÂĵÂĵÂĵÂĵÂĵÂĵÂĵÂĵÂĵÂĵÂĵÂĵÂĵÂĵÂĵÂĵÂĵÂĵÂĵÂĵÂĵÂĵÂĵÂĵÂĵÂĵÂĵÂĵÂĵÂĵÂĵÂĵÂĵ",
        "ÂĵÂĵÂĵÂĵÂĵÂĵÂĵÂĵÂĴ"
      ],
      [
        "ÂĵÂĵÂĵÂĵÂĵÂĵÂĵÂĵÂĵÂĵ",
        "ÂĶ"
      ],
      [
        "%",
        "=/"
      ],
      [
        "%$",
        "&$"
      ],
      [
        ".",
        "$$#"
      ],
      [
        "Ğ",
        ";"
      ],
      [
        "@;",
        "Ė"
      ],
      [
        "(",
        "("
      ],
      [
        "$$$$$$$$$$$$$$$$$$$$$$$$$$$$$$$$$$$$$$$$$$$$$$$$$$$$$$$$$$$$$$$$",
        "$$$$$$$$$$$$$$$$$$$$"
      ],
      [
        "ÂĹ",
        "ÂĸÂĲ"
      ],
      [
        "=",
        "Ė$"
      ],
      [
        "?",
        "/"
      ],
      [
        "ÂĶÂĴ",
        "ÂĴÂĵÂĵ"
      ],
      [
        ":",
        "."
      ],
      [
        "-",
        "#$$%#$"
      ],
      [
        "3",
        "4"
      ],
      [
        "%$",
        "!$$$$$$"
      ],
      [
        ">Ĕ",
        "'/"
      ],
      [
        "ÂĵÂĶ",
        "ÂĵÂĵÂĵÂĵÂĵÂĵÂĵÂĵÂĵ"
      ],
      [
        "<",
        "Ė"
      ],
      [
        "$",
        "'$'$$"
      ],
      [
        "@:Ĕ$",
        "-"
      ],
      [
        "\"Ě$$$$$$$$",
        "Ě"
      ],
      [
        "%$%",
        "@"
      ],
      [
        "\"",
        "Ĝ$$$$$$$$"
      ],
      [
        ",",
        "*"
      ],
      [
        "ÂĵÂĵÂĵÂĵÂĵÂĵÂĵÂĵÂĵÂĵÂĵÂĵÂĵÂĵÂĵÂĵÂĵÂĵÂĵÂĵÂĵÂĵÂĵÂĵÂĵÂĵÂĵÂĵÂĵÂĵÂĵÂĵÂĵÂĵÂĵÂĵÂĵÂĵÂĵÂĵÂĵÂĵÂĵÂĵÂĵÂĵÂĵÂĵÂĵÂĵÂĵÂĵÂĵÂĵÂĵÂĵÂĵÂĵÂĵÂĵÂĵÂĵÂĵÂĵÂĵÂĵÂĵÂĵÂĵÂĵÂĵÂĵÂĵÂĵÂĵÂĵÂĵÂĵÂĵÂĵÂĵÂĵÂĵÂĵÂĵÂĵÂĵÂĵÂĵÂĵÂĵÂĵÂĵÂĵÂĵÂĵÂĵÂĵÂĵÂĵÂĵÂĵÂĵÂĵÂĵÂĵ",
        "ÂĵÂĶÂĵÂĵÂĵÂĶÂĵÂĵ"
      ],
      [
        "/",
        ":'$"
      ],
      [
        "*",
        ":ĕ$"
      ],
      [
        "+",
        ":Ĕ$"
      ],
      [
        "=",
        "':"
      ],
      [
        "?",
        ")"
      ],
      [
        "ÂĵÂĵÂĵÂĵÂĵÂĵÂĵÂĵÂĵÂĵ",
        "ÂĵÂĴÂĵÂĵÂĵÂĵÂĵÂĵÂĵÂĵÂĵÂĵÂĵÂĵÂĵÂĵÂĵÂĵÂĵÂĵÂĵÂĵÂĵÂĵÂĵÂĵÂĵÂĵÂĵÂĵÂĵÂĵÂĵÂĵÂĵÂĵÂĵÂĵÂĵÂĵÂĵÂĵÂĵÂĵÂĵÂĵÂĵÂĵÂĵÂĵÂĵÂĵÂĵÂĵÂĵÂĵÂĵÂĵÂĵÂĵÂĵÂĵÂĵÂĵÂĵÂĵÂĵÂĵÂĵÂĵÂĵÂĵÂĵÂĵÂĵÂĵÂĵÂĵÂĵÂĵÂĵÂĵÂĵÂĵÂĵÂĵÂĵÂĵÂĵÂĵÂĵÂĵÂĵÂĵÂĵÂĵÂĵÂĵÂĵÂĵÂĵÂĵÂĵÂĵÂĵÂĵÂĵÂĵÂĵÂĵ"
      ],
      [
        "Ė$$",
        "ÂĵÂĵÂĵÂĵÂĵÂĵÂİ"
      ],
      [
        "Ė$$",
        "ÂĵÂĵÂĵÂĵÂĵÂĵÂĵÂĵÂĵÂĵÂĵÂĵÂĵÂĺ"
      ],
      [
        ".:Ĕ",
        "$$"
      ],
      [
        "ÂĵÂĵÂĵÂĵÂĵÂĵÂĵÂĵÂĵÂĵÂĵÂĵÂĵÂĵÂĵÂĵÂĵÂĵÂĵÂĵÂĵÂĵÂĵÂĵÂĵÂĵÂĵÂĵÂĵÂĵÂĵÂĵÂĵÂĵÂĵÂĵÂĵÂĵÂĵÂĵÂĵÂĵÂĵÂĵÂĵÂĵÂĵÂĵÂĵÂĵÂĵÂĵÂĵÂĵÂĵÂĵÂĵÂĵÂĵÂĵÂĵÂĵÂĵÂĵÂĵÂĵÂĵÂĵÂĵÂĵÂĵÂĵÂĵÂĵÂĵÂĵÂĵÂĵÂĵÂĵÂĵÂĵÂĵÂĵÂĵÂĵÂĵÂĵÂĵÂĵÂĵÂĵÂĵÂĵÂĵÂĵÂĵÂĵÂĵÂĵÂĵÂĵÂĵÂĵÂĵÂĵÂĵÂĵÂĵÂĵÂĵÂĵÂĵÂĵÂĵÂĵÂĵÂĵÂĵÂĵ",
        "ÂĲÂĳ"
      ],
      [
        "ÂĵÂĲÂĴ",
        "ÂĳÂķ"
      ],
      [
        "%$%@",
        "*:ĕ$"
      ],
      [
        "=':",
        "Ę$"
      ],
      [
        "ÂĵÂĵÂĵÂĵÂĵÂĵÂĵÂĵÂĵÂĵÂĵÂĴÂĵÂĵÂĵÂĵÂĵÂĵÂĵÂĵÂĵÂĵÂĵÂĵÂĵÂĵÂĵÂĵÂĵÂĵÂĵÂĵÂĵÂĵÂĵÂĵÂĵÂĵÂĵÂĵÂĵÂĵÂĵÂĵÂĵÂĵÂĵÂĵÂĵÂĵÂĵÂĵÂĵÂĵÂĵÂĵÂĵÂĵÂĵÂĵÂĵÂĵÂĵÂĵÂĵÂĵÂĵÂĵÂĵÂĵÂĵÂĵÂĵÂĵÂĵÂĵÂĵÂĵÂĵÂĵÂĵÂĵÂĵÂĵÂĵÂĵÂĵÂĵÂĵÂĵÂĵÂĵÂĵÂĵÂĵÂĵÂĵÂĵÂĵÂĵÂĵÂĵÂĵÂĵÂĵÂĵÂĵÂĵÂĵÂĵÂĵÂĵÂĵÂĵÂĵÂĵÂĵÂĵÂĵÂĵ",
        "ÂĶÂĵÂĶÂĵÂĵÂĵ"
      ],
      [
        "ÂĵÂĵÂĵÂĵÂĵÂĵÂĵÂĵÂĵÂĵÂĵÂĵÂĵÂĵÂĵÂĵÂĵÂĵÂĵÂĵÂĵÂĵÂĵÂĵÂĵÂĵÂĵÂĵÂĵÂĵÂĵÂĵÂĵÂĵÂĵÂĵÂĵÂĵÂĵÂĵÂĵÂĵÂĵÂĵÂĵÂĵÂĵÂĵÂĵÂĵÂĵÂĵÂĵÂĵÂĵÂĵÂĵÂĵÂĵÂĵÂĵÂĵÂĵÂĵÂĵÂĵÂĵÂĵÂĵÂĵÂĵÂĵÂĵÂĵÂĵÂĵÂĵÂĵÂĵÂĵÂĵÂĵÂĵÂĵÂĵÂĵÂĵÂĵÂĵÂĵÂĵÂĵÂĵÂĵÂĵÂĵÂĵÂĵÂĵÂĵÂĵÂĵÂĵÂĵÂĵÂĵÂĵÂĵÂĵÂĵÂĵÂĵÂĵÂĵÂĵÂĵÂĵÂĵÂĵÂĵÂĲÂĳ",
        "ÂĴÂĵÂĵÂĵ"
      ],
      [
        "ÂĵÂĶÂĵÂĵ",
        "ÂĵÂĸ"
      ],
      [
        "đ$",
        "ă$$$$$$$"
      ],
      [
        "-",
        "(%"
      ],
      [
        "ĕ",
        "#"
      ],
      [
        "ÂĴ",
        "ÂĴÂĵÂĵ"
      ],
      [
        "?đ$",
        "ę$%$$%%$"
      ],
      [
        "\"",
        "$$$$$$"
      ],
      [
        ":'",
        "$$#;-"
      ],
      [
        "ÂĵÂĳ",
        "ÂĳÂķ"
      ],
      [
        "Ē",
        "#"
      ],
      [
        "%&",
        "*$$$$$$"
      ],
      [
        "ÂĵÂĹ",
        "ÂĴÂĵÂĵ"
      ],
      [
        "ė$",
        "%"
      ],
      [
        "Ē",
        "$$$$$$$"
      ],
      [
        "ĕ$",
        "Đ$"
      ],
      [
        "Ę",
        "&%$$%%$"
      ],
      [
        "%$",
        "(?-"
      ],
      [
        "$$$$$$$$$$$$$$$$",
        "$$$$$$$$$$$$"
      ],
      [
        ".",
        "Ğ"
      ],
      [
        "8",
        "5"
      ],
      [
        "-",
        "#-"
      ],
      [
        "ÂıÂĸ",
        "ÂĵÂĵÂĵÂĵÂĵÂĵÂĵÂĵÂĵÂĵÂĵÂĵÂĵÂĵÂĵÂĵÂĵÂĵÂĵÂĵÂĵÂĵÂĵÂĵÂĵÂĵÂĵÂĵÂĵÂĵÂĵÂĵÂĵÂĵÂĵÂĵÂĵÂĵÂĵÂĵÂĵÂĵÂĵÂĵÂĵÂĵÂĵÂĵÂĵÂĵÂĵÂĵÂĵÂĵÂĵÂĵÂĵÂĵÂĵÂĵÂĵÂĵÂĵÂĵÂĵÂĵÂĵÂĵÂĵÂĵÂĵÂĵÂĵÂĵÂĵÂĵÂĵÂĵÂĵÂĵÂĵÂĵÂĵÂĵÂĵÂĵÂĵÂĵÂĵÂĵÂĵÂĵÂĵÂĵÂĵÂĵÂĵÂĵÂĵÂĵÂĵÂĵÂĵÂĵÂĵÂĵÂĵÂĵ"
      ],
      [
        "$",
        ";"
      ],
      [
        "ÂĵÂĶ",
        "ÂĵÂĵÂĵÂĵÂĵÂĵÂĵÂĵÂĵÂĵÂĵÂĵÂĵÂĵÂĵÂĵÂĵÂĵÂĵÂĵÂĵÂĵÂĵÂĵÂĵÂĵÂĵÂĵÂĵÂĵÂĵÂĵÂĵÂĵÂĵÂĵÂĵÂĵÂĵÂĵÂĵÂĵÂĵÂĵÂĵÂĵÂĵÂĵÂĵÂĵÂĵÂĵÂĵÂĵÂĵÂĵÂĵÂĵÂĵÂĵÂĵÂĵÂĵÂĵÂĵÂĵÂĵÂĵÂĵÂĵÂĵÂĵÂĵÂĵÂĵÂĵÂĵÂĵÂĵÂĵÂĵÂĵÂĵÂĵÂĵÂĵÂĵÂĵÂĵÂĵÂĵÂĵÂĵÂĵÂĵÂĵÂĵÂĵÂĵÂĵ"
      ],
      [
        "ÂĴÂĶ",
        "Âĵ"
      ],
      [
        "ÂĵÂĵÂĴÂĶ",
        "ÂĵÂĵÂĵÂĵÂĵÂĵÂĵÂĵÂĵÂĵÂĵÂĵÂĵÂĵÂĵÂĵÂĵÂĵÂĵÂĵÂĵÂĵÂĵÂĵÂĵÂĵÂĵÂĵÂĵÂĵÂĵÂĵÂĵÂĵÂĵÂĵÂĵÂĵÂĵÂĵÂĵÂĵÂĵÂĵÂĵÂĵÂĵÂĵÂĵÂĵÂĵÂĵÂĵÂĵÂĵÂĵÂĵÂĵÂĵÂĵÂĵÂĵÂĵÂĵÂĵÂĵÂĵÂĵÂĵÂĵÂĵÂĵÂĵÂĵÂĵÂĵÂĵÂĵÂĵÂĵÂĵÂĵÂĵÂĵÂĵÂĵÂĵÂĵÂĵÂĵÂĵÂĵÂĵÂĵÂĵÂĵÂĵÂĵÂĵÂĵÂĵÂĵÂĵÂĵÂĵÂĵÂĵÂĵ"
      ],
      [
        ",",
        "ğ"
      ],
      [
        ".",
        "?"
      ],
      [
        "ė$",
        "#"
      ],
      [
        "ÂĵÂĵÂĵÂĵÂĵÂĵÂĵÂĵÂĵÂĵÂĵÂĵÂĵÂĵÂĵÂĵÂĵÂĵÂĵÂĵÂĵÂĵÂĵÂĵÂĵÂĵÂĵÂĵÂĵÂĵÂĵÂĵÂĵÂĵÂĵÂĵÂĵÂĵÂĵÂĵÂĵÂĵÂĵÂĵÂĵÂĵÂĵÂĵÂĵÂĵÂĵÂĵÂĵÂĵÂĵÂĵÂĵÂĵÂĵÂĵÂĵÂĵÂĵÂĵÂĵÂĵÂĵÂĵÂĵÂĵÂĵÂĵÂĵÂĵÂĵÂĵÂĵÂĵÂĵÂĵÂĵÂĵÂĵÂĵÂĵÂĵÂĵÂĵÂĵÂĵÂĵÂĵ",
        "ÂĵÂĶÂĴÂĵÂĵÂĵÂĵÂĵÂĵÂĵÂĵÂĵÂĵ"
      ],
      [
        "ÂĵÂĵÂĵÂĵÂĵÂĵÂĵÂĵ",
        "ÂķÂĶÂĶ"
      ],
      [
        "ÂĵÂĵÂĵÂĵÂĵÂĵÂĵÂĵÂķÂĶÂĶ",
        "ÂĵÂĵÂĵÂĵÂĵÂĵÂĵÂĵÂĵÂĵÂĵÂĵÂĵÂĵÂĵÂĵÂĵÂĵÂĵÂĵÂĵÂĵÂĵÂĵÂĵÂĵÂĵÂĵÂĵÂĵÂĵÂĵÂĵÂĵÂĵÂĵÂĵÂĵÂĵÂĵÂĵÂĵÂĵÂĵÂĵÂĵÂĵÂĵÂĵÂĵÂĵÂĵÂĵÂĵÂĵÂĵÂĵÂĵÂĵÂĵÂĵÂĵÂĵÂĵÂĵÂĵÂĵÂĵÂĵÂĵÂĵÂĵÂĵÂĵÂĵÂĵÂĵÂĵÂĵÂĵÂĵÂĵÂĵÂĵÂĵÂĵÂĵÂĵÂĵÂĵÂĵÂĵÂĵÂĵÂĵÂĵÂĵÂĵÂĵÂĵÂĵÂĵÂĵÂĵÂĵÂĵÂĵÂĵÂĵÂĵÂĵÂĵÂĵÂĵÂĵ"
      ],
      [
        "Ġ?",
        "/"
      ],
      [
        "<Ė$",
        "/"
      ],
      [
        "Âĸ",
        "ÂĸÂĲ"
      ],
      [
        "ÂĵÂĵÂĵÂĵÂĵÂĵÂĵÂĴ",
        "ÂĴÂĴ"
      ],
      [
        "/",
        "$&%"
      ],
      [
        ":",
        "Ė"
      ],
      [
        "$&",
        "\"$"
      ],
      [
        "ÂĵÂĵÂĵÂĵÂĵÂĵÂĵÂĵÂĵÂĵÂĵÂĵÂĵÂĵÂĵÂĵÂĵÂĵÂĵÂĵÂĵÂĵÂĵÂĵÂĵÂĵÂĵÂĵÂĵÂĵÂĵÂĵÂĵÂĵÂĵÂĵÂĵÂĵÂĵÂĵÂĵÂĵÂĵÂĵÂĵÂĵÂĵÂĵÂĵÂĵÂĵÂĵÂĵÂĵÂĵÂĵÂĵÂĵÂĵÂĵÂĵÂĵÂĵÂĵÂĵÂĵÂĵÂĵÂĵÂĵÂĵÂĵÂĵÂĵÂĵÂĵÂĵÂĵÂĵÂĵÂĵÂĵÂĵÂĵÂĵÂĵÂĵÂĵÂĵÂĵÂĵÂĵÂĵÂĵÂĵÂĵ",
        "ÂĵÂĵÂĵÂĴ"
      ],
      [
        "ÂĵÂĵÂĵÂĵÂĵÂĵÂĵÂĵÂĵÂĵÂĵÂĵÂĵÂĵÂĵÂĵÂĵÂĵÂĵÂĵÂĵÂĵÂĵÂĵÂĵÂĵ",
        "ÂĵÂĳ"
      ],
      [
        "ÂĵÂĲ",
        "Âĳ"
      ],
      [
        "Ã",
        "Ĳ"
      ],
      [
        "$",
        "ğ"
      ],
      [
        "%%",
        "*$$$$$$"
      ],
      [
        "<ė",
        "\"Ě"
      ],
      [
        "(",
        "-"
      ],
      [
        "ę",
        "%"
      ],
      [
        "ÂĵÂĵÂĵÂĵÂĵÂĵÂĵÂĵÂĵÂĵÂĵÂĵÂĵÂĵÂĵÂĵÂĵÂĵÂĵÂĵÂĵÂĵÂĵÂĵÂĵÂĵÂĵÂĵÂĵÂĵÂĵÂĵÂĵÂĵÂĵÂĵÂĵÂĵÂĵÂĵÂĵÂĵÂĵÂĵÂĵÂĵÂĵÂĵÂĵÂĵÂĵÂĵÂĵÂĵÂĵÂĵÂĵÂĵÂĵÂĵÂĵÂĵÂĵÂĵÂĵÂĵÂĵÂĵÂĵÂĵÂĵÂĵÂĵÂĵÂĵÂĵÂĵÂĵÂĵÂĵÂĵÂĵÂĵÂĵÂĵÂĵÂĵÂĵÂĵÂĵÂĵÂĵÂĵÂĵÂĵÂĵ",
        "ÂĵÂķ"
      ],
      [
        "ÂĵÂĵÂĵÂĵÂĵÂĵÂĵÂĵÂĵÂĶÂĴ",
        "ÂĵÂĵÂĵÂĵÂĵÂĵÂĵÂĵÂĵÂĵÂĵÂĵÂĵÂĵÂĵÂĵÂĵÂĵÂĵÂĵÂĵÂĵÂĵÂĵÂĵÂĵÂĵÂĵÂĵÂĵÂĵÂĵÂĵÂĵÂĵÂĵÂĵÂĵÂĵÂĵÂĵÂĵÂĵÂĵÂĵÂĵÂĵÂĵÂĵÂĵÂĵÂĵÂĵÂĵÂĵÂĵÂĵÂĵÂĵÂĵÂĵÂĵÂĵÂĵÂĵÂĵÂĵÂĵÂĵÂĵÂĵÂĵÂĵÂĵÂĵÂĵÂĵÂĵÂĵÂĵÂĵÂĵÂĵÂĵÂĵÂĵÂĵÂĵÂĵÂĵÂĵÂĵÂĵÂĵÂĵÂĵÂĵÂĵÂĵÂĵÂĵÂĵÂĵÂĵÂĵÂĵÂĵÂĵÂĵÂĵÂĵÂĵÂĵÂĵÂĵ"
      ],
      [
        ",",
        "+"
      ],
      [
        "ď$",
        "ě"
      ],
      [
        "$&%",
        "$$$"
      ],
      [
        "ÂĵÂĸ",
        "ÂĶÂĵÂĵ"
      ],
      [
        "+",
        "*"
      ],
      [
        "ÂĵÂĴ",
        "Âĳ"
      ],
      [
        "%%",
        "#$"
      ],
      [
        "+",
        "!$$$$$$"
      ],
      [
        "-",
        "%$$%%$"
      ],
      [
        ".:",
        "ē$"
      ],
      [
        "'>",
        "-"
      ],
      [
        "-",
        ")"
      ],
      [
        "\"",
        "."
      ],
      [
        "ÂĵÂĵÂĵÂĵÂĵÂĵÂĵÂĵÂĵÂĵÂĵÂĵÂĵÂĵÂĵÂĵÂĵÂĵÂĵÂĵÂĵÂĵÂĵÂĵÂĵÂĵÂĵÂĵÂĵÂĵÂĵÂĵÂĵÂĵÂĵÂĵÂĵÂĵÂĵÂĵÂĵÂĵÂĵÂĵÂĵÂĵÂĵÂĵÂĵÂĵÂĵÂĵÂĵÂĵÂĵÂĵÂĵÂĵÂĵÂĵÂĵÂĵÂĵÂĵÂĵÂĵÂĵÂĵÂĵÂĵÂĵÂĵÂĵÂĵÂĵÂĵÂĵÂĵÂĵÂĵÂĵÂĵ",
        "ÂĵÂĳ"
      ],
      [
        "Ė$",
        "*"
      ],
      [
        "6",
        "3"
      ],
      [
        "*",
        "@:Ĕ$"
      ],
      [
        "$$%",
        "=/"
      ],
      [
        "ğ",
        "\""
      ],
      [
        "ÂĵÂĴ",
        "ÂĵÂĳ"
      ],
      [
        "+",
        "#+"
      ],
      [
        "-",
        "?"
      ],
      [
        "ÂĵÂĵÂĵÂĵÂĵÂĵÂĵÂĵÂĵÂĵÂĵÂĵÂĵÂĵÂĵÂĵÂĵÂĵÂĵÂĵÂĵÂĵÂĵÂĵÂĵÂĵÂĵÂĵÂĵÂĵÂĵÂĵÂĵÂĵÂĵÂĵÂĵÂĵÂĵÂĵÂĵÂĵÂĵÂĵÂĵÂĵÂĵÂĵÂĵÂĵÂĵÂĵÂĵÂĵÂĵÂĵÂĵÂĵÂĵÂĵÂĵÂĵÂĵÂĵÂĵÂĵÂĵÂĵÂĵÂĵÂĵÂĵÂĵÂĵÂĵÂĵÂĵÂĵÂĵÂĵÂĵÂĵÂĵÂĵÂĵÂĵÂĵÂĵÂĵÂĵÂĵÂĵÂĵÂĵÂĵÂĵ",
        "ÂĵÂĵÂĵÂĵÂĵÂĵÂĴ"
      ],
      [
        "*",
        "&&"
      ],
      [
        "=",
        "."
      ],
      [
        "ÂĹ",
        "ÂĹÂĲ"
      ],
      [
        "-",
        ">"
      ],
      [
        "Âĳ",
        "ÂĴÂĵÂĵ"
      ],
      [
        "/",
        "+"
      ],
      [
        "Ě",
        "%"
      ],
      [
        "=ĕ$",
        "ę$$$$$$$"
      ],
      [
        "1",
        "5"
      ],
      [
        "ę",
        "&"
      ],
      [
        "#",
        "'%%"
      ],
      [
        "ÂĶ",
        "ÂĵÂĵÂĵÂĵÂĵÂĵÂĵÂĵÂĵÂĵÂĵ"
      ],
      [
        "Âı",
        "ÂĵÂĵÂĵÂĵÂĵÂĵÂĵÂĵÂĵÂĵÂĵÂĵÂĵÂĵÂĵÂĵÂĵÂĵÂĵÂĵÂĵÂĵÂĵÂĵÂĵÂĵÂĵÂĵÂĵÂĵÂĵÂĵÂĵÂĵÂĵÂĵÂĵÂĵÂĵÂĵÂĵÂĵÂĵÂĵÂĵÂĵÂĵÂĵÂĵÂĵÂĵÂĵÂĵÂĵ"
      ],
      [
        "ÂĵÂĵÂĵÂĵÂĵÂĵÂĵÂĵÂĵÂĵÂĵÂĵÂĵÂĵÂĵÂĵÂĵÂĵÂĵÂĵÂĵÂĵÂĵÂĵÂĵÂĵÂĵÂĵÂĵÂĵÂĵÂĵÂĵÂĵÂĵÂĵÂĵÂĵÂĵÂĵÂĵÂĵÂĵÂĵÂĵÂĵÂĵÂĵÂĵÂĵÂĵÂĵÂĵÂĵÂĵÂĵÂĵÂĵ",
        "ÂıÂĵÂĵÂĵÂĵÂĵÂĵÂĵÂĵÂĵÂĵÂĵÂĵÂĵÂĵÂĵÂĵÂĵÂĵÂĵÂĵÂĵÂĵÂĵÂĵÂĵÂĵÂĵÂĵÂĵÂĵÂĵÂĵÂĵÂĵÂĵÂĵÂĵÂĵÂĵÂĵÂĵÂĵÂĵÂĵÂĵÂĵÂĵÂĵÂĵÂĵÂĵÂĵÂĵÂĵ"
      ],
      [
        "Ĕ",
        "#&"
      ],
      [
        "Ė$",
        ")"
      ],
      [
        "%)",
        "$$$$$$$$"
      ],
      [
        "ÂĵÂĵÂĵÂĵÂĵÂĵÂĵÂĵÂĵÂĵÂĵÂĵÂĵÂĵÂĵÂĵÂĵÂĵÂĵÂĵÂĵÂĵÂĵÂĵÂĵÂĵÂĵÂĵÂĵÂĵÂĵÂĵÂĵÂĵÂĵÂĵÂĵÂĵÂĵÂĵÂĵÂĵÂĵÂĵÂĵÂĵÂĵÂĵÂĵÂĵÂĵÂĵÂĵÂĵÂĵÂĵÂĵÂĵÂĵÂĵÂĵÂĵÂĵÂĵÂĵÂĵÂĵÂĵÂĵÂĵÂĵÂĵÂĵÂĵÂĵÂĵÂĵÂĵÂĵÂĵÂĵÂĵÂĵÂĵÂĵÂĵÂĵÂĵÂĵÂĵÂĵÂĵ",
        "ÂĵÂĶÂĴÂĵÂĵÂĵ"
      ],
      [
        "$$$",
        "=/"
      ],
      [
        "$$$$$$$",
        ","
      ],
      [
        "ÂĵÂĵÂĵÂĵÂĵÂĵ",
        "Âķ"
      ],
      [
        "Ė$",
        "+"
      ],
      [
        "Â",
        "İ"
      ],
      [
        "ÂĵÂĵÂĵÂĵÂĵÂĵÂĵÂĵ",
        "Âĳ"
      ],
      [
        "ÂĴ",
        "ÂĵÂĵÂĵÂĵÂĵÂĵÂĵÂĵÂĵÂĵÂĵÂĵÂĵÂĵÂĵÂĵÂĵÂĵÂĵÂĵÂĵÂĵÂĵÂĵÂĵÂĵÂĵÂĵÂĵÂĵÂĵÂĵÂĵÂĵÂĵÂĵÂĵÂĵÂĵÂĵÂĵÂĵÂĵÂĵÂĵÂĵÂĵÂĵÂĵÂĵÂĵÂĵÂĵÂĵÂĵÂĵÂĵÂĵÂĵÂĵÂĵÂĵÂĵÂĵÂĵÂĵÂĵÂĵ"
      ],
      [
        "Âİ",
        "ÂĵÂĵÂĵÂĵÂĵÂĵÂİ"
      ],
      [
        "-",
        "Ğ"
      ],
      [
        "ÂĵÂıÂĵÂı",
        "ÂĶÂĵÂĵÂĵÂĵÂĵÂĵÂĵÂĵÂĵÂĵÂĵÂĵÂĵÂĵÂĵÂĵÂĵÂĵÂĵÂĵÂĵÂĵÂĵÂĵÂĵÂĵÂĵÂĵÂĵÂĵÂĵÂĵÂĵÂĵÂĵÂĵÂĵÂĵÂĵÂĵÂĵÂĵÂĵÂĵÂĵÂĵÂĵÂĵÂĵÂĵÂĵÂĵÂĵÂĵÂĵÂĵÂĵÂĵÂĵÂĵÂĵÂĵÂĵÂĵÂĵÂĵÂĵÂĵÂĵÂĵÂĵÂĵÂĵÂĵÂĵÂĵÂĵÂĵÂĵÂĵÂĵÂĵÂĵÂĵÂĵÂĵÂĵÂĵÂĵÂĵÂĵÂĵÂĵÂĵÂĵÂĵÂĵÂĵÂĵÂĵ"
      ],
      [
        "$%$%",
        "#$"
      ],
      [
        "ĕ$",
        "-"
      ],
      [
        "ÂĵÂĲ",
        "ÂĲÂĸ"
      ],
      [
        "(",
        "'"
      ],
      [
        ")",
        "%&"
      ],
      [
        "Ē$",
        "Ę"
      ],
      [
        "ÂĵÂĵÂĵÂĶ",
        "ÂĵÂĵÂĵÂĵÂĵÂĵÂĵÂĵÂĵÂĵÂĵÂĵÂĵÂĵÂĵÂĵÂĵÂĵÂĵÂĵÂĵÂĵÂĵÂĵÂĵÂĵÂĵÂĵÂĵÂĵÂĵÂĵÂĵÂĵÂĵÂĵÂĵÂĵÂĵÂĵÂĵÂĵÂĵÂĵÂĵÂĵÂĵÂĵÂĵÂĵÂĵÂĵÂĵÂĵÂĵÂĵÂĵÂĵÂĵÂĵÂĵÂĵÂĵÂĵÂĵÂĵÂĵÂĵÂĵÂĵÂĵÂĵÂĵÂĵÂĵÂĵÂĵÂĵÂĵÂĵÂĵÂĵÂĵÂĵÂĵÂĵÂĵÂĵÂĵÂĵÂĵÂĵÂĵÂĵÂĵÂĵÂĵÂĵÂĵÂĵÂĵÂĵÂĵÂĵÂĵÂĵÂĵÂĵÂĵÂĵÂĵÂĵÂĵÂĵÂĵÂĵÂĵÂĵÂĵÂĵÂĵÂĵ"
      ],
      [
        "$$$$$$$",
        "+"
      ],
      [
        "Ė$",
        "#"
      ],
      [
        "đ",
        "&"
      ],
      [
        "ÂĵÂĵÂĵÂĵÂĵÂĵÂĵÂĵÂĵÂĵÂĵÂĵÂĵÂĵÂĵÂĵÂĵÂĵÂĵÂĵÂĵÂĵÂĵÂĵÂĵÂĵÂĵÂĵÂĵÂĵÂĵÂĵÂĵÂĵÂĵÂĵÂĵÂĵÂĵÂĵÂĵÂĵÂĵÂĵÂĵÂĵÂĵÂĵÂĵÂĵÂĵÂĵÂĵÂĵÂĵÂĵÂĵÂĵÂĵÂĵÂĵÂĵÂĵÂĵÂĵÂĵÂĵÂĵÂĵÂĵÂĵÂĵÂĵÂĵÂĵÂĵÂĵÂĵÂĵÂĵÂĵÂĵÂĵÂĵÂĵÂĵÂĵÂĵÂĵÂĵÂĵÂĵÂĵÂĵÂĵÂĵÂĵÂĵÂĵÂĵÂĵÂĵÂĵÂĵÂĵÂĵÂĵÂĵÂĵÂĵÂĵÂĵÂĵÂĵÂĵÂĵÂĵÂĵÂĵÂĵ",
        "ÂĵÂĶÂĴÂĵÂĵÂĵ"
      ],
      [
        "+",
        ")"
      ],
      [
        "ě",
        "&"
      ],
      [
        "ÂĵÂĵÂĵÂĵÂĵÂĵÂĵÂĵÂĵÂĵÂĵÂĵÂĵÂĵÂĵÂĵÂĵÂĵÂĵÂĵÂĵÂĵÂĵÂĵÂĵÂĵÂĵÂĵÂĵÂĵÂĵÂĵÂĵÂĵÂĵÂĵÂĵÂĵÂĵÂĵÂĵÂĵÂĵÂĵÂĵÂĵÂĵÂĵÂĵÂĵÂĵÂĵÂĵÂĵÂĵÂĵÂĵÂĵÂĵÂĵÂĵÂĵÂĵÂĵÂĵÂĵÂĵÂĵÂĵÂĵÂĵÂĵÂĵÂĵÂĵÂĵÂĵÂĵÂĵÂĵÂĵÂĵÂĵÂĵÂĵÂĵÂĵÂĵÂĵÂĵÂĵÂĵÂĵÂĵÂĵÂĵÂĵÂĵÂĵÂĵÂĵÂĵÂĵÂĵÂĵÂĵÂĵÂĵÂĵÂĵÂĵÂĵ",
        "ÂĵÂĵÂĵÂĵ"
      ],
      [
        "ě",
        "?"
      ],
      [
        "Ĕ$",
        "Đ$"
      ],
      [
        "Ę$",
        "#"
      ],
      [
        "=ĕ",
        "\"ę"
      ],
      [
        "!",
        "\""
      ],
      [
        "@:",
        "Ė"
      ],
      [
        "Âı",
        "ÂĲÂĸ"
      ],
      [
        "ÂĴÂĵÂĵÂĵÂĴÂĵÂĵ",
        "ÂĶÂĵÂĶ"
      ],
      [
        ";",
        "ė$"
      ],
      [
        "ÂĵÂĵÂĵÂĵÂĵÂĵÂĵÂĵÂĵÂĵÂĵÂĵÂĵÂĵÂĵÂĵÂĵÂĵÂĵÂĵÂĵÂĵÂĵÂĵÂĵÂĵÂĵÂĵÂĵÂĵÂĵÂĵÂĵÂĵÂĵÂĵÂĵÂĵÂĵÂĵÂĵÂĵÂĵÂĵÂĵÂĵÂĵÂĵ",
        "ÂĴÂĵÂĵÂĵÂĵÂĵÂĵÂĵÂĵÂĵÂĵÂĵÂĵÂĵÂĵÂĵÂĵÂĵÂĵÂĵÂĵÂĵÂĵÂĵÂĵÂĵÂĵÂĵÂĵÂĵÂĵÂĵÂĵÂĵÂĵÂĵÂĵÂĵÂĵÂĵÂĵÂĵÂĵÂĵÂĵÂĵÂĵÂĵÂĵÂĵÂĵÂĵÂĵÂĵÂĵÂĵÂĵÂĵÂĵÂĵÂĵÂĵÂĵÂĵÂĵÂĵÂĵÂĵÂĵ"
      ],
      [
        "ÂĵÂĴ",
        "ÂĵÂĵÂĵÂĵÂĵÂĵÂĵÂĵ"
      ],
      [
        "!?",
        "/"
      ],
      [
        "*",
        "-"
      ],
      [
        ")",
        "-"
      ],
      [
        "Âĸ",
        "ÂĸÂĳ"
      ],
      [
        "Ė$",
        ","
      ],
      [
        "#",
        "<"
      ],
      [
        "ÂĵÂķ",
        "Âĵ"
      ],
      [
        "Ĕ$",
        "<$"
      ],
      [
        "(>",
        "/"
      ],
      [
        "'?",
        "/"
      ],
      [
        "#",
        ";"
      ],
      [
        "*#",
        "Ĝ"
      ],
      [
        "ÂĵÂĵÂĵÂĵÂĵÂĵÂĵÂĵÂĵÂĵÂĵÂĵÂĵÂĵÂĵÂĵÂĵÂĵÂĵÂĵÂĵÂĵÂĵÂĵÂĵÂĵ",
        "ÂĵÂĺ"
      ],
      [
        "<ĕ",
        "!ę"
      ],
      [
        "ğ",
        "$&"
      ],
      [
        "Âĳ",
        "ÂĵÂĵÂĵÂĵÂĵÂĵÂĳ"
      ],
      [
        "ÂĵÂĶ",
        "ÂĵÂĵÂĵÂĵÂĵÂĵÂĵÂĵÂĵÂĵ"
      ],
      [
        ".:Ĕ$$",
        "ÂĴÂĵÂĵÂĵÂĴÂĵÂĵÂĶÂĵÂĶ"
      ],
      [
        "ÂĶÂĴ",
        "ÂĳÂĶ"
      ],
      [
        "=",
        "-"
      ],
      [
        "+",
        ","
      ],
      [
        "Ğ",
        "\""
      ],
      [
        "F",
        "F"
      ],
      [
        "Ĕ",
        "#$"
      ],
      [
        ".",
        "$$\""
      ],
      [
        "ÂĵÂĵÂĵÂĵÂĵÂĵÂĵÂĵÂĵÂĵÂĵÂĵÂĵÂĵÂĵÂĵÂĵÂĵÂĵÂĵÂĵÂĵÂĵÂĵÂĵÂĵÂĵÂĵÂĵÂĵÂĵÂĵÂĵÂĵ",
        "Âı"
      ],
      [
        "<",
        "Ĕ"
      ],
      [
        "Ę$",
        "!"
      ],
      [
        ".:ĕ",
        "$$#<-"
      ],
      [
        "ÂĵÂķ",
        "Âĳ"
      ],
      [
        "ÂĶÂĴ",
        "ÂĵÂĵÂĵÂĵÂĵÂĵÂĵÂĵÂĵÂĵÂĵÂĵÂĵÂĵÂĵÂĵÂĵÂĵÂĵÂĵÂĵÂĵÂĵÂĵÂĵÂĵÂĵÂĵÂĵÂĵÂĵÂĵÂĵÂĵÂĵÂĵÂĵÂĵÂĵÂĵÂĵÂĵÂĵÂĵÂĵÂĵÂĵÂĵÂĵÂĵÂĵÂĵÂĵÂĵÂĵÂĵÂĵÂĵÂĵÂĵÂĵÂĵÂĵÂĵÂĵÂĵÂĵÂĵÂĵÂĵÂĵÂĵÂĵÂĵÂĵÂĵÂĵÂĵÂĵÂĵÂĵÂĵÂĵÂĵÂĵÂĵÂĵÂĵÂĵÂĵÂĵÂĵÂĵÂĵÂĵÂĵÂĵÂĵÂĵÂĵÂĵÂĵÂĵÂĵÂĵÂĵÂĵÂĵÂĵÂĵÂĵÂĵÂĵÂĵ"
      ],
      [
        "Â¶ÂĵÂĵÂĵÂĵÂĵÂĵÂ¶",
        "ÂĵÂĵÂĵÂĵÂĵÂĵÂĵÂĵÂĵÂĵÂĵÂĵÂĵÂĵÂĵÂĵÂĵÂĵÂĵÂĵÂĵÂĵÂĵÂĵÂĵÂĵÂĵÂĵ"
      ],
      [
        "Ā",
        "$&?"
      ],
      [
        "ÂĵÂĶ",
        "ÂĵÂĵÂĵÂĵ"
      ],
      [
        "ÂĶ",
        "ÂĶÂĵÂĵ"
      ],
      [
        "?Ē$",
        "."
      ],
      [
        ";",
        "Ė"
      ],
      [
        "Ę",
        "!"
      ],
      [
        "Ğ",
        ":"
      ],
      [
        ",$",
        "#$$%#$"
      ],
      [
        "*",
        "("
      ],
      [
        ":",
        "ĕ"
      ],
      [
        ".",
        ">"
      ],
      [
        "ÂĴ",
        "ÂĵÂĵÂĵÂĵ"
      ],
      [
        "ÂĵÂĴ",
        "Âĵ"
      ],
      [
        "Ĝ",
        "<"
      ],
      [
        "ď$",
        "-"
      ],
      [
        "\"",
        "<"
      ],
      [
        "*",
        ","
      ],
      [
        "%(",
        "$$$$$$$$"
      ],
      [
        ">ē$.",
        "-#$$%#$"
      ],
      [
        "\"",
        ";"
      ],
      [
        "%$%",
        "\"$"
      ],
      [
        "!",
        "."
      ],
      [
        "%$",
        "#$"
      ],
      [
        "ė$",
        "'"
      ],
      [
        "$",
        "\""
      ],
      [
        "'=",
        ")"
      ],
      [
        "Âĸ",
        "ÂĵÂĵ"
      ],
      [
        "ĝ",
        ";"
      ],
      [
        "6",
        "5"
      ],
      [
        "&.",
        "!$$$$$$"
      ],
      [
        "%$#",
        ";&"
      ],
      [
        "ĕ$",
        "<$"
      ],
      [
        "ÂĵÂĵÂĵÂĵÂĵÂĵÂĵÂĵÂĵÂĵÂĵÂĵ",
        "ÂĵÂĲ"
      ],
      [
        "Âķ",
        "ÂĵÂĵ"
      ],
      [
        "ÂĵÂĵÂĵÂĵÂĵÂĵÂĵÂĵÂĵÂĵÂĵÂĵÂĵÂĵÂĵÂĵÂĵÂĵÂĵÂĵÂĵÂĵÂĵÂĵÂĵÂĵÂĵÂĵÂĵÂĵÂĵÂĵÂĵÂĵÂı",
        "ÂĵÂĵÂĵÂĵÂĵÂĵÂĵÂĵÂĵÂĵÂĵÂĵÂĵÂĵÂĵÂĵÂĵÂĵÂĵÂĵÂĵÂĵÂĵÂĵÂĵÂĵÂĵÂĵÂĵÂĵÂĵÂĵÂĵÂĵÂĵÂĵÂĵÂĵÂĵÂĵÂĵÂĵÂĵÂĵÂĵÂĵÂĵÂĵÂĵÂĵÂĵÂĵÂĵÂĵÂĵÂĵÂĵÂĵÂĵÂĵÂĵÂĵÂĵÂĵÂĵÂĵÂĵÂĵÂĵÂĵÂĵÂĵÂĵÂĵÂĵÂĵÂĵÂĵÂĵÂĵÂĵÂĵ"
      ],
      [
        "Ġ",
        "."
      ],
      [
        "Ę$$",
        "'$'$$"
      ],
      [
        "ė$-",
        "$&?"
      ],
      [
        "!>",
        "/"
      ],
      [
        "'",
        ")"
      ],
      [
        "Ė$",
        "!"
      ],
      [
        "&%",
        "$$"
      ],
      [
        "@;",
        "Ē$"
      ],
      [
        "Ě",
        "Ğ"
      ],
      [
        "ÂĵÂĵÂĵÂĵÂĵÂĵÂĵÂĵÂĵÂĵÂĶ",
        "ÂĵÂĵÂĵÂĵÂĵÂĵÂĵÂĵÂĵÂĵÂĵÂĵÂĵÂĵÂĵÂĵÂĵÂĵÂĵÂĵÂĵÂĵÂĵÂĵÂĵÂĵÂĵÂĵÂĵÂĵÂĵÂĵÂĵÂĵÂĵÂĵÂĵÂĵÂĵÂĵÂĵÂĵÂĵÂĵÂĵÂĵÂĵÂĵÂĵÂĵÂĵÂĵÂĵÂĵÂĵÂĵÂĵÂĵÂĵÂĵÂĵÂĵÂĵÂĵÂĵÂĵÂĵÂĵÂĵÂĵÂĵÂĵÂĵÂĵÂĵÂĵÂĵÂĵÂĵÂĵÂĵÂĵÂĵÂĵÂĵÂĵÂĵÂĵÂĵÂĵÂĵÂĵÂĵÂĵÂĵÂĵÂĵÂĵÂĵÂĵÂĵÂĵÂĵÂĵÂĵÂĵÂĵÂĵÂĵÂĵÂĵÂĵÂĵÂĵÂĵ"
      ],
      [
        "ÂĵÂĳ",
        "ÂĵÂĳ"
      ],
      [
        "Đ$",
        "Ĝ"
      ],
      [
        "Ě",
        "&"
      ],
      [
        ")#",
        "*"
      ],
      [
        "$$",
        "(?."
      ],
      [
        "Đ$",
        "ě!$$$$$$"
      ],
      [
        "ÂĵÂĵÂĵÂĵÂĵÂĵÂĵÂĵÂĵÂĵÂĵÂĵÂĵÂĵÂĵÂĵÂĵÂĵÂĵÂĵÂĵÂĵÂĵÂĵÂĵÂĵÂĵÂĵÂĵÂĵÂĵÂĵ",
        "ÂĵÂĵÂĵÂĵÂĵÂĵÂĵÂĵÂĵÂĵÂĵÂĵ"
      ],
      [
        "ÂĵÂĵÂĵÂĵÂĵÂĵÂĵÂĵÂĵÂĵÂĵÂĵÂĵÂĵÂĵÂĵÂĵÂĵÂĵÂĵÂĵÂĵÂĵÂĵÂĵÂĵÂĵÂĵÂĵÂĵÂĵÂĵÂĵÂĵÂĵÂĵÂĵÂĵÂĵÂĵÂĵÂĵÂĵÂĵÂĵÂĵÂĵÂĵÂĵÂĵÂĵÂĵÂĵÂĵÂĵÂĵÂĵÂĵÂĵÂĵÂĵÂĵÂĵÂĵ",
        "ÂĵÂĵÂĵÂĵÂĵÂĵÂĵÂĵ"
      ],
      [
        ")$",
        ")"
      ],
      [
        "ÂĵÂĵÂĵÂĵÂĵÂĵÂĵÂĵÂĵÂĵÂĵÂĵÂĵÂĵÂĵÂĵÂĵÂĵÂĵÂĵÂĵÂĵÂĵÂĵÂĵÂĵÂĵÂĵÂĵÂĵÂĵÂĵÂĵÂĵÂĵÂĵÂĵÂĵÂĵÂĵÂĵÂĵÂĵÂĵÂĵÂĵÂĵÂĵÂĵÂĵÂĵÂĵÂĵÂĵÂĵÂĵÂĵÂĵÂĵÂĵÂĵÂĵÂĵÂĵÂĵÂĵÂĵÂĵÂĵÂĵÂĵÂĵÂĵÂĵÂĵÂĵÂĵÂĵÂĵÂĵ",
        "ÂĵÂĵÂĵÂĵÂĵÂĵÂĴ"
      ],
      [
        "#&",
        "$&#$"
      ],
      [
        "'?",
        "-"
      ],
      [
        ">ē$",
        "ę$$$$$$$"
      ],
      [
        "ÂĵÂĶÂĵÂĶ",
        "ÂĵÂĵÂĵÂĵÂĵÂĵÂĵÂĵÂĵÂĵÂĵÂĵÂĵÂĵÂĵÂĵÂĵÂĵÂĵÂĵÂĵÂĵÂĵÂĵÂĵÂĵÂĵÂĵÂĵÂĵÂĵÂĵÂĵÂĵÂĵÂĵÂĵÂĵÂĵÂĵÂĵÂĵÂĵÂĵÂĵÂĵÂĵÂĵÂĵÂĵÂĵÂĵÂĵÂĵÂĵÂĵÂĵÂĵÂĵÂĵÂĵÂĵÂĵÂĵÂĵÂĵÂĵÂĵÂĵÂĵÂĵÂĵÂĵÂĵÂĵÂĵÂĵÂĵÂĵÂĵÂĵÂĵÂĵÂĵÂĵÂĵÂĵÂĵÂĵÂĵÂĵÂĵÂĵÂĵÂĵÂĵÂĵÂĵÂĵÂĵÂĵÂĵÂĵÂĵÂĵÂĵÂĵÂĵÂĵÂĵÂĵÂĵÂĵÂĵÂĵÂĵÂĵÂĵÂĵÂĵÂĵÂĵ"
      ],
      [
        ",",
        "@"
      ],
      [
        "ÂĴ",
        "ÂĳÂĶ"
      ],
      [
        "$",
        "."
      ],
      [
        "%'",
        "!$$$$$$"
      ],
      [
        "\"ě$$$$$$$$",
        "ě"
      ],
      [
        "$$$$$$$",
        "ĝ"
      ],
      [
        "ÂĵÂĵÂĵÂĵÂĵÂĵÂĵÂĵÂĵÂĵÂĵÂĵÂĵÂĵÂĵÂĵÂĵÂĵÂĵÂĵÂĵÂĵÂĵÂĵÂĵÂĵÂĵÂĵÂĵÂĵÂĵÂĵÂĵÂĵÂĵÂĵÂĵÂĵÂĵÂĵÂĵÂĵÂĵÂĵÂĵÂĵÂĵÂĵÂĵÂĵÂĵÂĵÂĵÂĵÂĵÂĵÂĵÂĵÂĵÂĵÂĵÂĵÂĵÂĵÂĵÂĵÂĵÂĵÂĵÂĵÂĵÂĵÂĵÂĵÂĵÂĵÂĵÂĵÂĵÂĵÂĵÂĵÂĵÂĵÂĵÂĵÂĵÂĵÂĵÂĵÂĵÂĵÂĵÂĵÂĵÂĵÂĵÂĵÂĵÂĵÂĵÂĵÂĵÂĵÂĵÂĵÂĵÂĸ",
        "ÂĹÂĲ"
      ],
      [
        "9",
        "6"
      ],
      [
        ":'",
        "$$#<-"
      ],
      [
        "ÂĵÂĵÂĵÂĵÂĵÂĵÂĵÂĵÂĵÂĵÂĵÂĵÂĵÂĵÂĵÂĵÂĵÂĵÂĵÂĵÂĵÂĵÂĵÂĵÂĵÂĵÂĵÂĵÂĵÂĵÂĵÂĵÂĵÂĵÂĵÂĵÂĵÂĵÂĵÂĵÂĵÂĵÂĵÂĵÂĵÂĵÂĵÂĵÂĵÂĵÂĵÂĵÂĵÂĵÂĵÂĵÂĵÂĵÂĵÂĵÂĵÂĵÂĵÂĵÂĵÂĵÂĵÂĵÂĵÂĵÂĵÂĵÂĵÂĵÂĵÂĵÂĵÂĵÂĵÂĵÂĵÂĵÂĵÂĵÂĵÂĵÂĵÂĵÂĵÂĵÂĵÂĵÂĵÂĵÂĵÂĵÂĵÂĵÂĵÂĵÂĵÂĵÂĵÂĵÂĵÂĵÂĵÂĵÂĵÂĵÂĵÂĵÂĵÂĵ",
        "ÂĴÂĶÂĵÂĵÂĵÂĵÂĵÂĵÂĵÂĵÂĵÂĵ"
      ],
      [
        "Âķ",
        "ÂĵÂĵÂĵÂĵÂĵÂĵÂĵÂĵÂĵÂĵÂĵÂĵÂĵÂĵÂĵÂĵÂĵÂĵÂĵÂĵÂĵÂĵÂĵÂĵÂĵÂĵÂĵÂĵÂĵÂĵÂĵÂĵÂĵÂĵÂĵÂĵÂĵÂĵÂĵÂĵÂĵÂĵÂĵÂĵÂĵÂĵÂĵÂĵÂĵÂĵÂĵÂĵÂĵÂĵÂĵÂĵÂĵÂĵÂĵÂĵÂĵÂĵÂĵÂĵÂĵÂĵÂĵÂĵÂĵÂĵÂĵÂĵÂĵÂĵÂĵÂĵÂĵÂĵÂĵÂĵÂĵÂĵÂĵÂĵÂĵÂĵÂĵÂĵÂĵÂĵÂĵÂĵÂĵÂĵÂĵÂĵÂĵÂĵÂĵÂĵÂĵÂĵÂĵÂĵÂĵÂĵÂĵÂĵÂĵÂĵÂĵÂĵÂĵÂĵÂĵ"
      ],
      [
        "$$$$$$$",
        "#%$$#$"
      ],
      [
        "B",
        "A"
      ],
      [
        "đ",
        "$$$$$$$"
      ],
      [
        "$&",
        "'@"
      ],
      [
        "ÂĶ",
        "ÂĵÂĴÂĶ"
      ],
      [
        "=Ė",
        "&/"
      ],
      [
        ",",
        "($"
      ],
      [
        "ě$",
        "%$$%%$"
      ],
      [
        "ÂĵÂĸ",
        "ÂĵÂĵÂĵÂĵÂĵÂĵÂĵÂĵÂĵÂĵÂĵÂĵÂĵÂĵÂĵÂĵÂĵÂĵÂĵÂĵÂĵÂĵÂĵÂĵÂĵÂĵÂĵÂĵÂĵÂĵÂĵÂĵÂĵÂĵÂĵÂĵÂĵÂĵÂĵÂĵÂĵÂĵÂĵÂĵÂĵÂĵÂĵÂĵÂĵÂĵÂĵÂĵÂĵÂĵÂĵÂĵ"
      ],
      [
        "%$",
        "*$$$$$$"
      ],
      [
        "ÂĵÂĵÂĵÂĵÂĵÂĵ",
        "Âĸ"
      ],
      [
        "ÂĵÂĵÂĵÂĵÂĵÂĵÂĵÂĵÂĵÂĵÂĵÂĵÂĵÂİÂĵÂĵÂĵÂĵÂĵÂĵÂĵÂĵÂĵÂĵÂĵÂĵÂĵÂĵÂĵÂĵÂĵÂĵÂĵÂĵÂĵÂĵÂĵÂĵÂĵÂĵÂĵÂĵÂĵÂĵÂĵÂĵÂĵÂĵÂĵÂĵÂĵÂĵÂĵÂĵÂĵÂĵÂĵÂĵÂĵÂĵÂĵÂĵÂĵÂĵÂĵÂĵÂĵÂĵ",
        "ÂĵÂĸÂĵÂĵÂĵÂĵÂĵÂĵÂĵÂĵÂĵÂĵÂĵÂĵÂĵÂĵÂĵÂĵÂĵÂĵÂĵÂĵÂĵÂĵÂĵÂĵÂĵÂĵÂĵÂĵÂĵÂĵÂĵÂĵÂĵÂĵÂĵÂĵÂĵÂĵÂĵÂĵÂĵÂĵÂĵÂĵÂĵÂĵÂĵÂĵÂĵÂĵÂĵÂĵÂĵÂĵÂĵÂĵ"
      ],
      [
        ">Ĕ$",
        "Ą$$$$$$$"
      ],
      [
        "ÂĶÂĵÂĵÂĵÂĸ",
        "ÂĵÂĸÂĴÂĵÂĵ"
      ],
      [
        "ÂĵÂĵÂĵÂĵÂĵÂĵÂĵÂĵÂĵÂĵÂĵÂĵÂĵÂĵÂĵÂĵÂĵÂĵÂĵÂĵÂĵÂĵÂĵÂĵÂĵÂĵÂĵÂĵÂĵÂĵÂĵÂĵÂĵÂĵÂĵÂĵÂĵÂĵÂĵÂĵÂĵÂĵÂĵÂĵÂĵÂĵÂĵÂĵÂĵÂĵÂĵÂĵÂĵÂĵÂĵÂĵÂĵÂĵÂĵÂĵÂĵÂĵÂĵÂĵÂĵÂĵÂĵÂĵÂĵÂĵÂĵÂĵÂĵÂĵÂĵÂĵÂĵÂĵÂĵÂĵÂĵÂĵÂĵÂĵÂĵÂĵÂĵÂĵÂĵÂĵÂĵÂĵÂĵÂĵÂĵÂĵÂĵÂĵÂĵÂĵÂĵÂĵÂĵÂĵÂĵÂĵÂĵÂĵÂĵÂĵÂĵÂĵÂĵÂĵÂĵÂĵÂĵÂĵÂĵÂĵ",
        "ÂĵÂĴÂĶÂĵÂĵÂĵ"
      ],
      [
        "Ġ",
        "ě"
      ],
      [
        "$",
        "'$'"
      ],
      [
        "ę",
        "?"
      ],
      [
        "#/",
        "ğ$"
      ],
      [
        "?",
        "."
      ],
      [
        "ÂĵÂĶ",
        "Âĳ"
      ],
      [
        "Âı",
        "ÂıÂĸ"
      ],
      [
        "!",
        "'"
      ],
      [
        "!",
        "'%%"
      ],
      [
        "/",
        "ĝ"
      ],
      [
        "*",
        "+"
      ],
      [
        "Ġ",
        "1"
      ],
      [
        ">Ĕ",
        "\"Ě$$$$$$$$ę"
      ],
      [
        ">ē$ę",
        "-%$$%%$"
      ],
      [
        "$&",
        "$&%$"
      ],
      [
        "ÂĵÂĵÂĵÂĵÂĵÂĵÂĵÂĵÂĵÂĵÂĵÂĵÂĵÂĵÂĵÂĵÂĵÂĵÂĵÂĵÂĵÂĵÂĵÂĵÂĵÂĵÂĵÂĵÂĵÂĵÂĵÂĵÂĵÂĵÂĵÂĵÂĵÂĵÂĵÂĵÂĵÂĵÂĵÂĵÂĵÂĵÂĵÂĵÂĵÂĵÂĵÂĵÂĵÂĵÂĵÂĵÂĵÂĵÂĵÂĵÂĵÂĵÂĵÂĵÂĵÂĵÂĵÂĵ",
        "ÂĵÂİÂĵÂĵÂĵÂĵÂĵÂĵÂĵ"
      ],
      [
        "ď",
        "$$$$$$$"
      ],
      [
        "Ď$",
        "-!$$$$$$"
      ],
      [
        "#",
        ":"
      ],
      [
        "Âķ",
        "Âĵ"
      ],
      [
        "#!",
        "$$$$$$$$"
      ],
      [
        "Ġ",
        "("
      ],
      [
        "ÂĵÂĵÂĵÂĵÂĵÂĵÂĵÂĵÂĵÂĵÂĵÂĵÂĵÂĵÂĵÂĵÂĵÂĵÂĵÂĵÂĵÂĵÂĵÂĵÂĵÂĵÂĵÂĵÂĵÂĵÂĵÂĵÂĵÂĵÂĵÂĵÂĵÂĵÂĵÂĵÂĵÂĵÂĵÂĵÂĵÂĵÂĵÂĵÂĵÂĵÂĵÂĵÂĵÂĵÂĵÂĵÂĵÂĵÂĵÂĵÂĵÂĵÂĵÂĵÂĵÂĵÂĵÂĵÂĵÂĵÂĵÂĵÂĵÂĵÂĵÂĵÂĵÂĵÂĵÂĵÂĵÂĵÂĵÂĵÂĵÂĵÂĵÂĵÂĵÂĵÂĵÂĵÂĵÂĵÂĵÂĵÂĵÂĵÂĵÂĵ",
        "ÂĶ"
      ],
      [
        "ÂĵÂĳ",
        "ÂĵÂĵÂĵÂĵÂĵÂĵÂĵÂĵ"
      ],
      [
        "*<",
        "ė$"
      ],
      [
        "ÂĵÂĵÂĵÂĵÂĵÂĵÂĵÂĵÂĵÂĵÂĵÂĵÂĵÂĵÂĵÂĵÂĵÂĵÂĵÂĵÂĵÂĵÂĵÂĵÂĵÂĵÂĵÂĵÂĵÂĵÂĵÂĵÂĵÂĵÂĵÂĵÂĵÂĵÂĵÂĵÂĵÂĵÂĵÂĵÂĵÂĵÂĵÂĵÂĵÂĵÂĵÂĵÂĵÂĵÂĵÂĵÂĵÂĵÂĵÂĵÂĵÂĵÂĵÂĵ",
        "ÂĵÂĵÂĵÂĵÂĵÂĵÂĵÂĵÂı"
      ],
      [
        "$$$$$$$",
        "%%$$%$"
      ],
      [
        "%$",
        "%$"
      ],
      [
        "ÂĵÂĵÂĵÂĵÂĵÂĵÂĵÂĵÂĵÂĵÂĵÂĵÂĵÂĵÂĵÂĵÂĵÂĵÂĵÂĵÂĵÂĵÂĵÂĵÂĵÂĵÂĵÂĵÂĵÂĵÂĵÂĵÂĵÂĵÂĵÂĵÂĵÂĵÂĵÂĵ",
        "ÂĵÂĺÂĵÂĵÂĵÂĵÂĵÂĵÂĵ"
      ],
      [
        "Ė$",
        "."
      ],
      [
        "%'",
        "$$$$$$$$"
      ],
      [
        "Đ",
        "%"
      ],
      [
        "ÂĵÂĵÂĵÂĵÂĵÂĵÂĵÂĵÂĴ",
        "ÂĴÂĶ"
      ],
      [
        "!",
        "$$#;-"
      ],
      [
        "#",
        "$$#;-"
      ],
      [
        "ė",
        "$$#;-"
      ],
      [
        "Ę",
        "$$#;-"
      ],
      [
        "Ė$$",
        "#;-"
      ],
      [
        "ÂĵÂķ",
        "ÂĵÂĵÂĵÂĵÂĵÂĵÂĵÂĵÂĵÂĵÂĵÂĵÂĵÂĵÂĵÂĵÂĵÂĵÂĵÂĵÂĵÂĵÂĵÂĵÂĵÂĵÂĵÂĵÂĵÂĵÂĵÂĵÂĵÂĵÂĵÂĵÂĵÂĵÂĵÂĵÂĵÂĵÂĵÂĵÂĵÂĵÂĵÂĵÂĵÂĵÂĵÂĵÂĵÂĵÂĵÂĵ"
      ],
      [
        "$$$",
        "#;-"
      ],
      [
        ".:ĕ",
        "$$#;-"
      ],
      [
        "ÂĵÂĵÂĵÂĵÂĵÂĵÂĵÂĵÂĵÂĵÂĵÂĵÂĵÂĵÂĵÂĵÂĵÂĵÂĵÂĵÂĵÂĵÂĵÂĵÂĵÂĵÂĵÂĵÂĵÂĵÂĵÂĵÂĵÂĵÂĵÂĵÂĵÂĵÂĵÂĵÂĵÂĵÂĵÂĵÂĵÂĵÂĵÂĵÂĵÂĵÂĵÂĵÂĵÂĵÂĵÂĵÂĵÂĵÂĵÂĵÂĵÂĵÂĵÂĵÂĵÂĵÂĵÂĵÂĵÂĵÂĵÂĵÂĵÂĵÂĵÂĵÂĵÂĵÂĵÂĵÂĵÂĵÂĵÂĵÂĵÂĵÂĴ",
        "ÂĵÂĵÂĵÂĵÂĵÂĵÂĵÂĵÂĵÂĵÂĵÂĵÂĵÂĵÂĵÂĵÂĵÂĵÂĵÂĵÂĵÂĵÂĵÂĵÂĵÂĵÂĵÂĺ"
      ],
      [
        "ÂĵÂĵÂĵÂĵÂĵÂĵÂĵÂĵÂĵÂĵÂĵÂĵÂĵÂĵÂĵÂĵÂĵÂĵÂĵÂĵÂĵÂĵÂĵÂĵÂĵÂĵÂĵÂĵÂĵÂĵÂĵÂĵÂĵÂĵÂĵÂĵÂĵÂĵÂĵÂĵÂĵÂĵÂĵÂĵÂĵÂĵÂĵÂĵÂĵÂĵÂĵÂĵÂĵÂĵÂĵÂĵÂĵÂĵÂĵÂĵÂĵÂĵÂĵÂĵÂĵÂĵÂĵÂĵÂĵÂĵÂĵÂĵÂĵÂĵÂĵÂĵÂĵÂĵÂĵÂĵÂĵÂĵÂĵÂĵÂĵÂĵÂĵÂĵÂĵÂĵÂĵÂĵÂĵÂĵÂĵÂĵ",
        "ÂĵÂĵÂĵÂĶ"
      ],
      [
        ",",
        "#,"
      ],
      [
        "\"",
        ":"
      ],
      [
        "-$",
        "#$$%#$"
      ],
      [
        "ÂĵÂĴÂĴÂĶ",
        "ÂĵÂĵÂĵÂĵÂĵÂĵÂĵÂĵÂĵÂĵÂĵÂĵÂĵÂĵÂĵÂĵÂĵÂĵÂĵÂĵÂĵÂĵÂĵÂĵÂĵÂĵÂĵÂĵÂĵÂĵÂĵÂĵÂĵÂĵÂĵÂĵÂĵÂĵÂĵÂĵÂĵÂĵÂĵÂĵÂĵÂĵÂĵÂĵÂĵÂĵÂĵÂĵÂĵÂĵÂĵÂĵÂĵÂĵÂĵÂĵÂĵÂĵÂĵÂĵÂĵÂĵÂĵÂĵÂĵÂĵÂĵÂĵÂĵÂĵÂĵÂĵÂĵÂĵÂĵÂĵÂĵÂĵÂĵÂĵÂĵÂĵÂĵÂĵÂĵÂĵÂĵÂĵÂĵÂĵÂĵÂĵÂĵÂĵÂĵÂĵÂĵÂĵÂĵÂĵÂĵÂĵÂĵÂĵÂĵÂĵ"
      ],
      [
        ">ĕ",
        "&/$$$$$$$$."
      ],
      [
        "Đ",
        "&"
      ],
      [
        "-$",
        "-"
      ],
      [
        "ÂĵÂĵÂĵÂĵÂĵÂĵÂĵÂĵÂĵÂĵÂĵÂĵÂĵÂİÂĵÂĵÂĵÂĵÂĵÂĵÂĵÂĵÂĵÂĵÂĵÂĵÂĵÂĵÂĵÂĵÂĵÂĵÂĵÂĵÂĵÂĵÂĵÂĵÂĵÂĵÂĵÂĵÂĵÂĵÂĵÂĵÂĵÂĵÂĵÂĵÂĵÂĵÂĵÂĵÂĵÂĵÂĵÂĵÂĵÂĵÂĵÂĵÂĵÂĵÂĵÂĵÂĵÂĵ",
        "ÂĵÂķÂĵÂĵÂĵÂĵÂĵÂĵÂĵÂĵÂĵÂĵÂĵÂĵÂĵÂĵÂĵÂĵÂĵÂĵÂĵÂĵÂĵÂĵÂĵÂĵÂĵÂĵÂĵÂĵÂĵÂĵÂĵÂĵÂĵÂĵÂĵÂĵÂĵÂĵÂĵÂĵÂĵÂĵÂĵÂĵÂĵÂĵÂĵÂĵÂĵÂĵÂĵÂĵÂĵÂĵÂĵÂĵ"
      ],
      [
        "ď$",
        "Ĝ"
      ],
      [
        "Ġ",
        "!"
      ],
      [
        "&&",
        "%$&$"
      ],
      [
        "G",
        "D"
      ],
      [
        "+",
        "#"
      ],
      [
        "<",
        "Ē"
      ],
      [
        "=",
        "ē"
      ],
      [
        "@Ē$",
        "ě"
      ],
      [
        "%",
        "$$$"
      ],
      [
        ".",
        "("
      ],
      [
        "Ď",
        "$$$$$$$"
      ],
      [
        "ÂĵÂĶÂĴ",
        "Âķ"
      ],
      [
        "+",
        "$&#"
      ],
      [
        "Ğ",
        "@:Ĕ$"
      ],
      [
        ")",
        "!$$$$$$"
      ],
      [
        "Ę$",
        "%"
      ],
      [
        "ÂĶ",
        "ÂĵÂĵÂĵÂĵÂĵÂĵÂĵÂĵÂĵÂĵÂĵÂĵÂĵÂĵÂĵÂĵÂĵÂĵÂĵÂĵÂĵÂĵÂĵÂĵÂĵÂĵÂĵÂĵÂĵÂĵÂĵÂĵÂĵÂĵÂĵÂĵÂĵÂĵÂĵÂĵÂĵÂĵÂĵÂĵÂĵÂĵÂĵÂĵÂĵÂĵÂĵÂĵÂĵÂĵÂĵÂĵÂĵÂĵÂĵÂĵÂĵÂĵÂĵÂĵÂĵÂĵÂĵÂĵÂĵÂĵÂĵÂĵÂĵÂĵÂĵÂĵÂĵÂĵÂĵÂĵÂĵÂĵÂĵÂĵÂĵÂĵÂĵÂĵÂĵÂĵÂĵÂĵÂĵÂĵÂĵÂĵÂĵÂĵÂĵÂĵÂĵÂĵÂĵÂĵÂĵÂĵÂĵÂĵÂĵÂĵÂĵÂĵÂĵÂĵ"
      ],
      [
        "$&",
        "(@"
      ],
      [
        "ÂĵÂĵÂĵÂĵÂĵÂĵÂĵÂĵÂĵÂĵÂĵÂĵÂĵÂĵÂĵÂĵÂĵÂĵÂĵÂĵÂĵÂĵÂĵÂĵÂĵÂĵÂĵÂĵÂĵÂĵÂĵÂĵÂĵÂĵÂĵÂĵÂĵÂĵÂĵÂĵÂĵÂĵÂĵÂĵÂĵÂĵÂĵÂĵÂĵÂĵÂĵÂĵÂĵÂĵÂĵÂĵÂĵÂĵÂĵÂĵÂĵÂĵÂĵÂĵÂĵÂĵÂĵÂĵÂĵÂĵÂĵÂĵÂĵÂĵÂĵÂĵÂĵÂĵÂĵÂĵÂĵÂĵ",
        "ÂĵÂĶ"
      ],
      [
        "*",
        "!$$$$$$"
      ],
      [
        "?ē$",
        "-!$$$$$$"
      ],
      [
        "*",
        "&$"
      ],
      [
        ":'$",
        "*"
      ],
      [
        "\"",
        "("
      ],
      [
        "ÂĵÂĵÂĵÂĵ",
        "ÂĶ"
      ],
      [
        "ÂķÂĳ",
        "ÂĵÂĵ"
      ],
      [
        "%$",
        "\"$"
      ],
      [
        "ÂĴÂĶ",
        "ÂĵÂĵÂĵÂĵÂĵÂĵÂĵÂĵÂĵ"
      ],
      [
        "ÂĵÂĵÂĵÂĵÂĵÂĵÂĵÂĵÂĵÂĵÂĵÂĵÂĵÂĵÂĵÂĵÂĵÂĵÂĵÂĵÂĵÂĵÂĵÂĵÂĵÂĵÂĵÂĵÂĵÂĵÂĵÂĵÂĵÂĵÂĵÂĵÂĵÂĵÂĵÂĵÂĵÂĵÂĵÂĵÂĵÂĵÂĵÂĵÂĵÂĵÂĵÂĵÂĵÂĵÂĵÂĵÂĵÂĵÂĵÂĵÂĵÂĵÂĵÂĵÂĵÂĵÂĵÂĵÂĵÂĵÂĵÂĵÂĵÂĵÂĵÂĵÂĵÂĵÂĵÂĵÂĵÂĵÂĵÂĲ",
        "ÂĵÂĵÂĵÂĵÂĵÂĵÂĵÂĵÂĵÂĵÂĵÂĵÂĵÂĵÂĵÂĵÂĵÂĵÂĵÂĵÂĵÂĵÂĵÂĵÂĵÂĵÂĵÂĵ"
      ],
      [
        "ÂĵÂĵÂĵÂĵÂĵÂĵÂĵÂĵÂĵÂĵÂĵÂĵÂĵÂĵÂĵÂĵÂĵÂĵÂĵÂĵÂĵÂĵÂĵÂĵÂĵÂĵÂĵÂĵÂĵÂĵÂĵÂĵÂĵÂĵÂĵÂĵÂĵÂĵÂĵÂĵÂĵÂĵÂĵÂĵÂĵÂĵÂĵÂĵÂĵÂĵÂĵÂĵÂĵÂĵÂĵÂĵÂĵÂĵÂĵÂĵÂĵÂĵÂĵÂĵÂĵÂĵÂĵÂĵÂĵÂĵÂĵÂĵÂĵÂĵÂĵÂĵÂĵÂĵÂĵÂĵÂĵÂĵÂĵÂĵÂĵÂĵÂĵÂĵÂĵÂĵÂĵÂĵÂĵÂĵÂĵÂĵÂĵÂĵÂĵÂĵÂĵÂĵÂĵÂĵÂĵÂĵÂĵÂĵÂĵÂĵÂĵÂĵÂĵÂĵÂĵÂĵÂĵÂĵ",
        "ÂĵÂķ"
      ],
      [
        ")",
        ","
      ],
      [
        "/",
        "Ĝ"
      ],
      [
        "=",
        "Ē"
      ],
      [
        "Ė",
        "@"
      ],
      [
        ")",
        "("
      ],
      [
        "ė$",
        "Ğ"
      ],
      [
        ",",
        "="
      ],
      [
        "ÂĵÂĵÂĵÂĵÂĵÂĵÂĵÂĵÂĵÂĵÂĵÂĵÂĵÂĵÂĵÂĵÂĵÂĵÂĵÂĵÂĵÂĵÂĵÂĵÂĵÂĵÂĵÂĵÂĵÂĵÂĵÂĵÂĵÂĵÂĵÂĵÂĵÂĵÂĵÂĵÂĵÂĵÂĵÂĵÂĵÂĵÂĵÂĵÂĵÂĵÂĵÂĵÂĵÂĵÂĵÂĵÂĵÂĵÂĵÂĵÂĵÂĵÂĵÂĵÂĵÂĵÂĵÂĵÂĵÂĵÂĵÂĵÂĵÂĵÂĵÂĵÂĵÂĵÂĵÂĵÂĵÂĵÂĵÂĵÂĵÂĵÂĵÂĵÂĵÂĵÂĵÂĵÂĵÂĵÂĵÂĵÂĵÂĵÂĵÂĵÂĵÂĵÂĵÂĵÂĵÂĵ",
        "ÂĴÂĶ"
      ],
      [
        "Ġ",
        "(%%"
      ],
      [
        "+",
        "&&"
      ],
      [
        "đ",
        "%"
      ],
      [
        "Ė$$",
        "!<-"
      ],
      [
        "ÂĵÂĶÂĵÂĶ",
        "ÂĵÂĵÂĵÂĵÂĶÂĵÂĶ"
      ],
      [
        "ÂĵÂĵÂĵÂĵÂĵÂĵÂĵÂĵÂĵÂĵÂĵÂĵÂĵÂĵÂĵÂĵÂĵÂĵÂĵÂĵÂĵÂĵÂĵÂĵÂĵÂĵÂĵÂĵÂĵÂĵÂĵÂĵÂĵÂĵÂĵÂĵÂĵÂĵÂĵÂĵÂĵÂĵÂĵÂĵÂĵÂĵÂĵÂĵÂĵÂĵÂĵÂĵÂĵÂĵÂĵÂĵÂĵÂĵÂĵÂĵÂĵÂĵÂĵÂĵÂĵÂĵÂĵÂĵÂĵÂĵÂĵÂĵÂĵÂĵÂĵÂĵÂĵÂĵÂĵÂĵÂĵÂĵÂĵÂĵÂĵÂĵÂĵÂĵÂĵÂĵÂĵÂĵÂĵÂĵÂĵÂĵÂĵÂĵÂĵÂĵÂĵÂĵÂĵÂĵÂĵÂĵÂĵÂĵÂĵÂĵÂĵÂĵ",
        "ÂĵÂĵÂĵÂĵÂĵÂĵÂĵÂĴ"
      ],
      [
        "ÂĵÂĵÂĵÂĵÂĵÂĵÂĵÂĵÂĵÂĵÂĵÂĵÂĵÂĵÂĵÂĵÂĵÂĵÂĵÂĵÂĵÂĵÂĵÂĵÂĵÂĵÂĵÂĵÂĵÂĵÂĵÂĵÂĵÂĵÂĵÂĵÂĵÂĵÂĵÂĵÂĵÂĵÂĵÂĵÂĵÂĵÂĵÂĵÂĵÂĵÂĵÂĵÂĵÂĵÂĵÂĵÂĵÂĵÂĵÂĵÂĵÂĵÂĵÂĵÂĵÂĵÂĵÂĵÂĵÂĵÂĵÂĵÂı",
        "ÂĵÂĵÂĵÂĵÂĵÂĵÂĵÂĵÂĵÂĵÂĵÂĵÂĵÂĵÂĵÂĵÂĵÂĵÂĵÂĵÂĵÂĵÂĵÂĵÂĵÂĵÂĵÂĵÂĵÂĵÂĵÂĵÂĵÂĵÂĵÂĵÂĵÂĵÂĵÂĵÂĵÂĺ"
      ],
      [
        "ĝ",
        "ğ"
      ],
      [
        "Ġ",
        "0"
      ],
      [
        "Ę$",
        "+"
      ],
      [
        "@",
        "."
      ],
      [
        "$&",
        "$$$$$$"
      ],
      [
        "ÂĵÂĵÂĵÂĵÂĵÂĵÂĵÂĵÂĵÂĵÂĵÂĵÂĵÂĵÂĵÂĵÂĵÂĵÂĵÂĵÂĵÂĵÂĵÂĵÂĵÂĵÂĵÂĵÂĵÂĵÂĵÂĵÂĵÂĵÂĵÂĵÂĵÂĵÂĵÂĵÂĵÂĵÂĵÂĵÂĵÂĵÂĵÂĵÂĵÂĵÂĵÂĵÂĵÂĵÂĵÂĵÂĵÂĵÂĵÂĵÂĵÂĵÂĵÂĵÂĵÂĵÂĵÂĵÂĵÂĵÂĵÂĵÂĵÂĵÂĵÂĵÂĵÂĵÂĵÂĵÂĵÂĵÂĵÂĵÂĵÂĵÂĵÂĵÂĵÂĵÂĵÂĵÂĵÂĵÂĵÂĵÂĵÂĵÂĵÂĵÂĵÂĵÂĵÂĵÂĵÂĵÂĵÂĵ",
        "ÂĵÂĸ"
      ],
      [
        "ÂĵÂĴ",
        "ÂĵÂĵÂĵÂĵÂĵÂĵÂĵÂĵÂĵÂĵÂĵÂĵÂĵÂĵÂĵÂĵÂĵÂĵÂĵÂĵÂĵÂĵÂĵÂĵÂĵÂĵÂĵÂĵÂĵÂĵÂĵÂĵÂĵÂĵÂĵÂĵÂĵÂĵÂĵÂĵÂĵÂĵÂĵÂĵÂĵÂĵÂĵÂĵÂĵÂĵÂĵÂĵÂĵÂĵÂĵÂĵÂĵÂĵÂĵÂĵÂĵÂĵÂĵÂĵÂĵÂĵÂĵÂĵÂĵÂĵÂĵÂĵÂĵÂĵÂĵÂĵÂĵÂĵÂĵÂĵÂĵÂĵÂĵÂĵÂĵÂĵÂĵÂĵÂĵÂĵÂĵÂĵÂĵÂĵÂĵÂĵÂĵÂĵÂĵÂĵÂĵÂĵÂĵÂĵÂĵÂĵÂĵÂĵÂĵÂĵ"
      ],
      [
        "ÂĲ",
        "ÂıÂĸ"
      ],
      [
        "ÂĲ",
        "ÂĲÂĸ"
      ],
      [
        "ÂĳÂĶ",
        "ÂĵÂĵÂĵÂĵÂĵÂĵÂĵÂĵÂĵÂĵÂĵÂĵÂĵÂĵÂĵÂĵÂĵÂĵÂĵÂĵÂĵÂĵÂĵÂĵÂĵÂĵÂĵÂĵÂĵÂĵÂĵÂĵÂĵÂĵÂĵÂĵÂĵÂĵÂĵÂĵÂĵÂĵÂĵÂĵÂĵÂĵÂĵÂĵÂĵÂĵÂĵÂĵÂĵÂĵÂĵÂĵÂĵÂĵÂĵÂĵÂĵÂĵÂĵÂĵÂĵÂĵÂĵÂĵÂĵÂĵÂĵÂĵÂĵÂĵÂĵÂĵÂĵÂĵÂĵÂĵÂĵÂĵÂĵÂĵÂĵÂĵÂĵÂĵÂĵÂĵÂĵÂĵÂĵÂĵÂĵÂĵÂĵÂĵÂĵÂĵ"
      ],
      [
        ".",
        "$&%"
      ],
      [
        ",",
        "<"
      ],
      [
        "ÂĵÂĳ",
        "ÂĲ"
      ],
      [
        ".$",
        "."
      ],
      [
        "ě",
        ">"
      ],
      [
        "ÂĵÂķ",
        "ÂķÂĳ"
      ],
      [
        ">ĕ$Ą",
        "$$$$$$$"
      ],
      [
        "ÂĵÂĵÂĵÂĵÂĵÂĵÂĹ",
        "ÂĵÂĵÂĵÂĵÂĵÂĵÂĹ"
      ],
      [
        "$$",
        "=/"
      ],
      [
        "Ĕ$",
        "=$"
      ],
      [
        "ė",
        "#"
      ],
      [
        "/",
        "*"
      ],
      [
        "ÂĶÂĶ",
        "ÂĶÂĵÂĵ"
      ],
      [
        "ÂĵÂĵÂĵÂĵÂĵÂĵÂĵÂĵÂĵÂĵÂĵÂĵÂĵÂĵÂĵÂĵÂĵÂĵÂĵÂĵÂĵÂĵÂĵÂĵÂĵÂĵÂĵÂĵÂĵÂĵÂĵÂĵÂĵÂĵÂĵÂĵÂĵÂĵÂĵÂĵÂĵÂĵÂĵÂĵÂĵÂĵÂĵÂĵ",
        "Âĵ"
      ],
      [
        "ě",
        "$&$"
      ],
      [
        "'",
        "!"
      ],
      [
        "ě",
        "%"
      ],
      [
        "/",
        "$&$"
      ],
      [
        "\"",
        "!"
      ],
      [
        "*",
        "."
      ],
      [
        "@:",
        "ē$"
      ],
      [
        ";-",
        "$"
      ],
      [
        "@Ē$",
        "Ą"
      ],
      [
        "Ĝ",
        "$&#"
      ],
      [
        ")",
        "ÂĵÂĵÂĵÂĵÂĵÂĵÂĵÂĵÂĴÂĵÂĴ"
      ],
      [
        ")ÂĵÂĵÂĵÂĵÂĵÂĵÂĵÂĵÂĴÂĵÂĴ",
        "ÂĵÂĵÂĵÂĵÂĵÂĵÂĵÂĵÂĵÂĵÂĵÂĵÂĵÂĵÂĵÂĵÂĵÂĵÂĵÂĵÂĵÂĵÂĵÂĵÂĵÂĵÂĵÂĵÂĵÂĵÂĵÂĵÂĵÂĵÂĵÂĵÂĵÂĵÂĵÂĵÂĵÂĵÂĵÂĵÂĵÂĵÂĵÂĵÂĵÂĵÂĵÂĵÂĵÂĵÂĵÂĵÂĵÂĵÂĵÂĵÂĵÂĵÂĵÂĵÂĵÂĵÂĵÂĵÂĵÂĵÂĵÂĵÂıÂĵÂĵÂĵÂĵÂĵÂĵÂĵÂĵÂĵÂĵÂĵÂĵÂĵÂĵÂĵÂĵÂĵÂĵÂĵÂĵÂĵÂĵÂĵÂĵÂĵÂĵÂĵÂĵÂĵÂĵÂĵÂĵÂĵÂĵÂĵÂĵÂĵÂĵÂĵÂĵÂĵÂĺ"
      ],
      [
        "ÂĴ",
        "ÂĵÂĵÂĵÂĵÂĵÂĵÂĵÂĵÂĵÂĵÂĵÂĵÂĵÂĵÂĵÂĵÂĵÂĵÂĵÂĵÂĵÂĵÂĵÂĵÂĵÂĵÂĵÂĵÂĵÂĵÂĵÂĵÂĵÂĵÂĵÂĵÂĵÂĵÂĵÂĵÂĵÂĵÂĵÂĵÂĵÂĵÂĵÂĵÂĵÂĵÂĵÂĵÂĵÂĵÂĵÂĵÂĵÂĵÂĵÂĵÂĵÂĵÂĵÂĵÂĵÂĵÂĵÂĵÂĵÂĵÂĵÂĵÂĵÂĵÂĵÂĵÂĵÂĵÂĵÂĵÂĵÂĵÂĵÂĵÂĵÂĵÂĵÂĵÂĵÂĵÂĵÂĵÂĵÂĵÂĵÂĵÂĵÂĵÂĵÂĵÂĵÂĵÂĵÂĵÂĵÂĵÂĵÂĵ"
      ],
      [
        "?:",
        "Ė"
      ],
      [
        ")",
        "/"
      ],
      [
        "Ě",
        "<"
      ],
      [
        "/$",
        "/"
      ],
      [
        ")",
        "#$$%#$"
      ],
      [
        ")#)",
        "!$"
      ],
      [
        "(",
        "@:Ĕ$"
      ],
      [
        ":&",
        "$%"
      ],
      [
        ":&$",
        "'"
      ],
      [
        ":&$",
        "-"
      ],
      [
        ":&$",
        "/"
      ],
      [
        ":&$",
        ")ÂĵÂĵÂĵÂĵÂĵÂĵÂĵÂĵÂĴÂĵÂĴÂĵÂĵÂĵÂĵÂĵÂĵÂĵÂĵÂĵÂĵÂĵÂĵÂĵÂĵÂĵÂĵÂĵÂĵÂĵÂĵÂĵÂĵÂĵÂĵÂĵÂĵÂĵÂĵÂĵÂĵÂĵÂĵÂĵÂĵÂĵÂĵÂĵÂĵÂĵÂĵÂĵÂĵÂĵÂĵÂĵÂĵÂĵÂĵÂĵÂĵÂĵÂĵÂĵÂĵÂĵÂĵÂĵÂĵÂĵÂĵÂĵÂĵÂĵÂĵÂĵÂĵÂĵÂĵÂĵÂĵÂĵÂĵÂıÂĵÂĵÂĵÂĵÂĵÂĵÂĵÂĵÂĵÂĵÂĵÂĵÂĵÂĵÂĵÂĵÂĵÂĵÂĵÂĵÂĵÂĵÂĵÂĵÂĵÂĵÂĵÂĵÂĵÂĵÂĵÂĵÂĵÂĵÂĵÂĵÂĵÂĵÂĵÂĵÂĵÂĺ"
      ],
      [
        "&$$",
        "ÂĵÂĵÂĵÂĵÂĵÂĵÂĵÂĵÂĵÂĵÂĵÂĴÂĵÂĵÂĵÂĵÂĵÂĵÂĵÂĵÂĵÂĵÂĵÂĵÂĵÂĵÂĵÂĵÂĵÂĵÂĵÂĵÂĵÂĵÂĵÂĵÂĵÂĵÂĵÂĵÂĵÂĵÂĵÂĵÂĵÂĵÂĵÂĵÂĵÂĵÂĵÂĵÂĵÂĵÂĵÂĵÂĵÂĵÂĵÂĵÂĵÂĵÂĵÂĵÂĵÂĵÂĵÂĵÂĵÂĵÂĵÂĵÂĵÂĵÂĵÂĵÂĵÂĵÂĵÂĵÂĵÂĵÂĵÂĵÂĵÂĵÂĵÂĵÂĵÂĵÂĵÂĵÂĵÂĵÂĵÂĵÂĵÂĵÂĵÂĵÂĵÂĵÂĵÂĵÂĵÂĵÂĵÂĵÂĵÂĵÂĵÂĵÂĵÂĵÂĵÂĵÂĵÂĵÂĵÂĵÂĶÂĵÂĶÂĵÂĵÂĵ"
      ],
      [
        "ÂĵÂĵÂĵÂĵÂĵÂĵÂĵÂĵÂĵÂĵÂĵÂĵÂĵÂĵÂĵÂĵÂĵÂĵÂĵÂĵÂĵÂĵÂĵÂĵÂĵÂĵÂĵÂĵÂĵÂĵÂĵÂĵÂĵÂĵÂĵÂĵÂĵÂĵÂĵÂĵÂĵÂĵÂĵÂĵÂĵÂĵÂĵÂĵÂĵÂĵÂĵÂĵÂĵÂĵÂĵÂĵÂĵÂĵÂĵÂĵÂĵÂĵÂĵÂĵÂĵÂĵÂĵÂĵÂĵÂĵÂĵÂĵÂĵÂĵÂĵÂĵÂĵÂĵÂĵÂĵÂĵÂĵÂĵÂĳ",
        "ÂĵÂĵÂĵÂĵÂĵÂĵÂĵÂĵÂĵÂĵÂĵÂĵÂĵÂĵÂĵÂĵÂĵÂĵÂĵÂĵÂĵÂĵÂĵÂĵÂĵÂĵÂĵÂĵ"
      ],
      [
        ":",
        "$"
      ],
      [
        "Ĝ",
        "@"
      ],
      [
        "ÂĵÂĵÂĵÂĵÂĵÂĵÂĵÂĵÂĵÂĵÂĵÂĵ",
        "ÂĵÂĴ"
      ],
      [
        "ÂĵÂĲ",
        "ÂıÂĸ"
      ],
      [
        "Ę$",
        "ğ"
      ],
      [
        "ÂĲ",
        "ÂĵÂĵ"
      ],
      [
        "$$$$$$$",
        "*"
      ],
      [
        "ÂĶÂĶ",
        "ÂķÂĴ"
      ],
      [
        "-",
        "$$\""
      ],
      [
        "'$",
        "("
      ],
      [
        ".",
        "$&$"
      ],
      [
        "ė$ā",
        "$&?"
      ],
      [
        "+",
        "$&'"
      ],
      [
        ";",
        "$"
      ],
      [
        "H",
        "G"
      ],
      [
        "0",
        "6"
      ],
      [
        "*<",
        "Ę$"
      ],
      [
        "ě",
        "ğ"
      ],
      [
        "Ě",
        "$&\""
      ],
      [
        ">Ĕ$",
        "ę$$$$$$$"
      ],
      [
        "&$",
        "(>-"
      ],
      [
        "Ď$",
        "-"
      ],
      [
        "@ē$",
        "Ę"
      ],
      [
        "ė$",
        "ę"
      ],
      [
        ";",
        "."
      ],
      [
        "Ğ",
        "*&%"
      ],
      [
        "ÂĵÂĲÂĶÂĵÂĵÂĵÂĵÂĵÂĵÂĵÂĵÂĵÂĵÂĵÂĵÂĵÂĵÂĵÂĵÂĵÂĵÂĵÂĵÂĵÂĵÂĵÂĵÂĵÂĵÂĵÂĵÂĵÂĵÂĵÂĵÂĵÂĵÂĵÂĵÂĵÂĵÂĵÂĵÂĵÂĵÂĵÂĵÂĵÂĵÂĵÂĵÂĵÂĵÂĵÂĵÂĵÂĵÂĵÂĵÂĵÂĵÂĵÂĵÂĵÂĵÂĵÂĵÂĵÂĵÂĵÂĵÂĵÂĵÂĵÂĵÂĵÂĵÂĵÂĵÂĵÂĵÂĵÂĵÂĵÂĵÂĵÂĵÂĵÂĵÂĵÂĵÂĵÂĵÂĵÂĵÂĵÂĵÂĵÂĵÂĵÂĵÂĵÂĵ",
        "ÂĵÂĸ"
      ],
      [
        "-",
        "$&$"
      ],
      [
        "ė$",
        ")"
      ],
      [
        "($(",
        "\"$"
      ],
      [
        "+",
        "$&%"
      ],
      [
        ".",
        "$&&"
      ],
      [
        ":",
        "ė"
      ],
      [
        "$",
        "*"
      ],
      [
        "Ė$",
        "/"
      ],
      [
        "Âĸ",
        "ÂĹÂĲ"
      ],
      [
        "*#*",
        "!$"
      ],
      [
        "ÂĴ",
        "ÂĵÂĵÂĵÂĵÂĵÂĵÂĵÂĵÂĵÂĵ"
      ],
      [
        "ę",
        ">"
      ],
      [
        "#",
        "Ě"
      ],
      [
        "+",
        "$$#"
      ],
      [
        "+$",
        "#$$%#$"
      ],
      [
        ".",
        "@"
      ],
      [
        "ě",
        "="
      ],
      [
        "ÂĴÂĶ",
        "ÂĵÂĵÂĵÂĵÂĵÂĵÂĵÂĵÂĵÂĵÂĵÂĵÂĵÂĵÂĵÂĵÂĵÂĵÂĵÂĵÂĵÂĵÂĵÂĵÂĵÂĵÂĵÂĵÂĵÂĵÂĵÂĵÂĵÂĵÂĵÂĵÂĵÂĵÂĵÂĵÂĵÂĵÂĵÂĵÂĵÂĵÂĵÂĵÂĵÂĵÂĵÂĵÂĵÂĵÂĵÂĵÂĵÂĵÂĵÂĵÂĵÂĵÂĵÂĵÂĵÂĵÂĵÂĵÂĵÂĵÂĵÂĵÂĵÂĵÂĵÂĵÂĵÂĵÂĵÂĵÂĵÂĵÂĵÂĵÂĵÂĵÂĵÂĵÂĵÂĵÂĵÂĵÂĵÂĵÂĵÂĵÂĵÂĵÂĵÂĵÂĵÂĵÂĵÂĵÂĵÂĵÂĵÂĵÂĵÂĵÂĵÂĵÂĵÂĵ"
      ],
      [
        "Ę$",
        "*"
      ],
      [
        ">",
        "$"
      ],
      [
        "#&",
        "%%#$"
      ],
      [
        ")",
        "%$$%%$"
      ],
      [
        "+",
        "$&$"
      ],
      [
        "-",
        "@"
      ],
      [
        "ÂĶ",
        "ÂĵÂĳ"
      ],
      [
        "ÂĶ",
        "ÂĵÂĴÂĵÂĵ"
      ],
      [
        "ÂĵÂĴÂĶ",
        "Âı"
      ],
      [
        "ÂĵÂĵÂĵÂĵÂĵÂĵÂİÂĵÂĵÂĵÂĵÂĵÂĵÂĵÂĵÂĵÂĵÂĵÂĵÂĵÂĵÂĵÂĵÂĵÂĵÂĵÂĵÂĵÂĵÂĵÂĵÂĵÂĵÂĵÂĵÂĵÂĵÂĵÂĵÂĵÂĵÂĵÂĵÂĵÂĵÂĵÂĵ",
        "ÂĵÂĸ"
      ],
      [
        "ÂĵÂĵÂĵÂĵÂĵÂĵÂİÂĵÂĵÂĵÂĵÂĵÂĵÂĵÂĵÂĵÂĵÂĵÂĵÂĵÂĵÂĵÂĵÂĵÂĵÂĵÂĵÂĵÂĵÂĵÂĵÂĵÂĵÂĵÂĵÂĵÂĵÂĵÂĵÂĵÂĵÂĵÂĵÂĵÂĵÂĵÂĵÂĵÂĸ",
        "ÂĵÂĵÂĵÂĵÂĵÂĵÂĵÂĵÂĵÂĵÂĵÂĵÂĵÂĵÂĵÂĵÂĵÂĵÂĵÂĵÂĵÂĵÂĵÂĵÂĵÂĵÂĵÂĵÂĵÂĵÂĵÂĵÂĵÂĵÂĵÂĵÂĵÂĵÂĵÂĵÂĵÂĵÂĵÂĵÂĵÂĵÂĵÂĵÂĵÂĵÂĵÂĵÂĵÂĵÂĵÂĵÂĵÂĵÂĵÂĵÂĵÂĵÂĵÂĵÂĵÂĵÂĵÂĵÂĵÂĵÂĵÂĵÂĵÂĵÂĵÂĵÂĵ"
      ],
      [
        "0",
        "0"
      ],
      [
        "G",
        "B"
      ],
      [
        "ĝ",
        "*$$$$$$"
      ],
      [
        ">Ĕ$",
        "/$$$$$$$"
      ],
      [
        "/",
        "&"
      ],
      [
        "<",
        "đ$"
      ],
      [
        "Ğ",
        "!"
      ],
      [
        ")",
        "!"
      ],
      [
        "Ē",
        "!$"
      ],
      [
        "@",
        "ē"
      ],
      [
        "Ě",
        "$&!"
      ],
      [
        "Ĝ$",
        "%$$%%$"
      ],
      [
        "-",
        ";"
      ],
      [
        ">",
        "Ē"
      ],
      [
        "ÂĵÂĵÂĵÂĵÂĵÂĵÂĵÂĵÂĵÂĵÂĵÂĵÂĵÂĵÂĵÂĵÂĵÂĵÂĵÂĵÂĵÂĵÂĵÂĵÂĵÂĵÂĵÂĵÂĵÂĵÂĵÂĵÂĵÂĵÂĵÂĵÂĵÂĵÂĵÂĵÂĵÂĵÂĵÂĵÂĵÂĵÂĵÂĵÂĵÂĵÂĵÂĵÂĵÂĵÂĵÂĵÂĵÂĵÂĵÂĵÂĵÂĵÂĵÂĵÂĵÂĵÂĵÂĵÂĵÂĵÂĵÂĵÂĵÂĵÂĵÂĵÂĵÂĵÂĵÂĵÂĵÂĵÂĵÂĵÂĵÂĵÂĵÂĵÂĵÂĵÂĵÂĵÂĵÂĵÂĵÂĵÂĵÂĵÂĵÂĵÂĵÂĵÂĵÂĵÂĵÂĵÂĵÂĵÂĵÂĵ",
        "ÂĴÂĶÂĵÂĵÂĵ"
      ],
      [
        "-",
        "$&%"
      ],
      [
        "ē%",
        "'"
      ],
      [
        "ÂĶÂĵÂĵÂĵÂĵÂĵÂĵÂĶ",
        "ÂĵÂĵÂĵÂĵÂĵÂĵÂĵÂĵÂĵÂĵÂĵÂĵÂĵÂĵÂĵÂĵÂĵÂĵÂĵÂĵÂĵÂĵÂĵÂĵÂĵÂĵÂĵÂĵÂĵÂĵÂĵÂĵÂĵÂĵÂĵÂĵÂĵÂĵÂĵÂĵÂĵÂĵÂĵÂĵÂĵÂĵÂĵÂĵÂĵÂĵÂĵÂĵÂĵÂĵÂĵÂĵÂĵÂĵÂĵÂĵÂĵÂĵÂĵÂĵÂĵÂĵÂĵÂĵÂĵÂĵÂĵÂĵÂĵÂĵÂĵÂĵ"
      ],
      [
        "ÂĵÂĵÂĵÂĵÂĵÂĵÂĵÂĵÂĵÂĵÂĵÂĵÂĵÂĵÂĵÂĵÂĵÂĵÂĵÂĵÂĵÂĵÂĵÂĵÂĵÂĵÂĵÂĵÂĵÂĵÂĵÂĵÂĵÂĵÂĵÂĵÂĵÂĵÂĵÂĵÂĵÂĵÂĵÂĵÂĵÂĵÂĵÂĵÂĵÂĵÂĵÂĵÂĵÂĵÂĵÂĵÂĵÂĵÂĵÂĵÂĵÂĵÂĵÂĵÂĵÂĵÂĵÂĵÂĵÂĵÂĵÂĵÂĵÂĵÂĵÂĵÂĵÂĵÂĵÂĵÂĵÂĵÂĵÂĵÂĵÂĵÂĵÂĵÂĵÂĵÂĵÂĵÂĵÂĵÂĵÂĵÂĵÂĵ",
        "ÂĵÂķ"
      ],
      [
        ".",
        ";"
      ],
      [
        "ÂĵÂĵÂĵÂĵÂĵÂĵÂĵÂĵÂĵÂĵÂĵÂĵÂĵÂĵÂĵÂĵÂĵÂĵÂĵÂĵÂĵÂĵÂĵÂĵÂĵÂĵÂĵÂĵÂĵÂĵÂĵÂĵÂĵÂĵÂĵÂĵÂĵÂĵÂĵÂĵÂĵÂĵÂĵÂĵÂĵÂĵÂĵÂĵÂĵÂĵÂĵÂĵÂĵÂĵÂĵÂĵÂĵÂĵÂĵÂĵÂĵÂĵÂĵÂĵÂĵÂĵÂĵÂĵÂĵÂĵÂĵÂĵÂĵÂĵÂĵÂĵÂĵÂĵÂĵÂĵÂĵÂĵÂĵÂĵÂĵÂĵÂĵÂĵÂĵÂĵÂĵÂĵÂĵÂĵÂĵÂĵÂĵÂĵÂĵÂĵÂĵÂĵÂĵÂĵÂĵÂĵÂĵÂĵÂĵÂĵ",
        "ÂĵÂĳ"
      ],
      [
        "@;",
        "ĕ"
      ],
      [
        "ą",
        "$$$$$$$"
      ],
      [
        "ÂĶ",
        "ÂĴÂĵÂĵÂĵ"
      ],
      [
        "Ė#",
        "ĝ"
      ],
      [
        ";",
        "Ĕ"
      ],
      [
        "$",
        "/"
      ],
      [
        "ě",
        "<"
      ],
      [
        "ÂĵÂĵÂĵÂĵÂĵÂĵÂĵÂĵÂĵÂĵÂĵÂĵÂĵÂĵÂĵÂĵÂĵÂĵÂĵÂĵÂĵÂĵÂĵÂĵÂĵÂĵÂĵÂĵÂĵÂĵÂĵÂĵÂĵÂĵÂĵÂĵÂĵÂĵÂĵÂĵÂĵÂĵÂĵÂĵÂĵÂĵÂĵÂĵÂĵÂĵÂĵÂĵÂĵÂĵÂĵÂĵÂĵÂĵÂĵÂĵÂĵÂĵÂĵÂĵÂĵÂĵÂĵÂĵÂĵÂĵÂĵÂĵÂĵÂĵÂĵÂĵÂĵÂĵÂĵÂĵÂĵÂĵÂĵÂĵÂĵÂĵÂĵÂĵÂĵÂĵÂĵÂĵÂĵÂĵÂĵÂĵÂĵÂĵÂĵÂĵÂĵÂĵÂĵÂĵÂĵÂĵÂĵÂĵ",
        "ÂĵÂĹ"
      ],
      [
        "Ę$",
        ")"
      ],
      [
        "&/",
        "!$$$$$$"
      ],
      [
        "ė$",
        "ğ"
      ],
      [
        "?:",
        "ė"
      ],
      [
        "/",
        "$&("
      ],
      [
        "<",
        "ē"
      ],
      [
        "Ė",
        "?"
      ],
      [
        "ĝ$",
        "%$$%%$"
      ],
      [
        "ě",
        "Ğ"
      ],
      [
        "Ę$",
        "("
      ],
      [
        "&",
        "&$%"
      ],
      [
        "-",
        "$&#"
      ],
      [
        "#'%%",
        "#$"
      ],
      [
        "ÂĵÂĲÂĴ",
        "ÂĳÂĴÂĵÂĵ"
      ],
      [
        "ÂĵÂĲÂĴÂĳÂķ",
        "ÂĵÂĵÂĵÂĵÂĵÂĵÂĵÂĵÂĵÂĵÂĵÂĵÂĵÂĵÂĵÂĵÂĵÂĵÂĵÂĵÂĵÂĵÂĵÂĵÂĵÂĵÂĵÂĵÂĵÂĵÂĵÂĵÂĵÂĵÂĵÂĵÂĵÂĵÂĵÂĵÂĵÂĵÂĵÂĵÂĵÂĵÂĵÂĵÂĵÂĵÂĵÂĵÂĵÂĵÂĵÂĵÂĵÂĵÂĵÂĵÂĵÂĵÂĵÂĵÂĵÂĵÂĵÂĵÂĵÂĵÂĵÂĵÂĵÂĵÂĵÂĵÂĵÂĵÂĵÂĵÂĵÂĵÂĵÂĵÂĵÂĵÂĵÂĵÂĵÂĵÂĵÂĵÂĵÂĵÂĵÂĵÂĵÂĵÂĵÂĵÂĵÂĵÂĵÂĵÂĵÂĵÂĵÂĶ"
      ],
      [
        "/",
        "#$$%#$"
      ],
      [
        "ď$",
        ","
      ],
      [
        "Âĳ",
        "Âĵ"
      ],
      [
        "ÂĴÂĶ",
        "ÂĵÂĵÂĵÂĵÂĵÂĵÂĵÂĵÂĵÂĵÂĵÂĵÂĵÂĵÂĵÂĵÂĵÂĵÂĵÂĵÂĵÂĵÂĵÂĵÂĵÂĵÂĵÂĵÂĵÂĵÂĵÂĵÂĵÂĵÂĵÂĵÂĵÂĵÂĵÂĵÂĵÂĵÂĵÂĵÂĵÂĵÂĵÂĵÂĵÂĵÂĵÂĵÂĵÂĵÂĵÂĵÂĵÂĵÂĵÂĵÂĵÂĵÂĵÂĵÂĵÂĵÂĵÂĵÂĵÂĵÂĵÂĵÂĵÂĵÂĵÂĵÂĵÂĵÂĵÂĵÂĵÂĵÂĵÂĵÂĵÂĵÂĵÂĵÂĵÂĵÂĵÂĵÂĵÂĵÂĵÂĵÂĵÂĵÂĵÂĵ"
      ],
      [
        "ÂĵÂĵÂĵÂĵÂĵÂĵÂĵÂĵÂĵÂĵÂĵÂĵÂĵÂĵÂĵÂĵÂĵÂĵÂĵÂĵÂĵÂĵÂĵÂĵÂĵÂĵÂĵÂĵÂĵÂĵÂĵÂĵÂĵÂĵÂĵÂĵÂĵÂĵÂĵÂĵÂĵÂĵÂĵÂĵÂĵÂĵÂĵÂĵÂĵÂĵÂĵÂĵÂĵÂĵÂĵÂĵÂĵÂĵÂĵÂĵÂĵÂĵÂĵÂĵÂĵÂĵÂĵÂĵÂĵÂĵÂĵÂĵÂĵÂĵÂĵÂĵÂĵÂĵÂĵÂĵÂĵÂĵÂĵÂĵÂĵÂĵÂĵÂĵÂĵÂĵÂĵÂĵÂĵÂĵÂĵÂĵÂĵÂĵÂĵÂĵÂĵÂĵÂĵÂĵÂĵÂĵÂĵÂĵÂĵÂĵÂĵÂĵ",
        "Âĳ"
      ],
      [
        "?đ$",
        "/$#$$%#$"
      ],
      [
        "<ė",
        "\"Ě$$$$$$$$ę"
      ],
      [
        "-",
        "="
      ],
      [
        "$$$$$$$",
        "("
      ],
      [
        "%'$'",
        "&$"
      ],
      [
        "Âĸ",
        "ÂķÂĴ"
      ],
      [
        "ÂĵÂĶÂĴ",
        "ÂĴÂĵÂĵ"
      ],
      [
        "%$$$",
        "%$"
      ],
      [
        "'",
        "#"
      ],
      [
        "Ĝ",
        "$&$"
      ],
      [
        "ÂĵÂĵÂĵÂĵÂĵÂĵÂĵÂĵÂĵÂĵÂĵÂĵÂĵÂĸ",
        "ÂĵÂĵÂĵÂĵÂĵÂĵÂĵÂĵÂĵÂĵÂĵÂĵÂĵÂĵÂĵÂĵÂĵÂĵÂĵÂĵÂĵÂĵÂĵÂĵÂĵÂĵÂĵÂĵÂĵÂĵÂĵÂĵÂĵÂĵÂĵÂĵÂĵÂĵÂĵÂĵÂĵÂĵÂĵÂĵÂĵÂĵÂĵÂĵÂĵÂĵÂĵÂĵÂĵÂĵÂĵÂĵÂĵÂĵÂĵÂĵÂĵÂĵÂĵÂĵÂĵÂĵÂĵÂĵÂĵÂĵÂĵÂĵÂĵÂĵÂĵÂĵÂĵÂĵÂĵÂĵÂĵÂĵÂĵÂĵÂĵÂĵÂĵÂĵÂĵÂĵ"
      ],
      [
        "ė",
        "\"Ě"
      ],
      [
        "ÂĶ",
        "ÂĵÂĵÂĵÂĵÂĵÂĵÂĵÂĵÂĵÂĵÂĵÂĵÂĵÂĵÂĵÂĵÂĵÂĵÂĵÂĵÂĵÂĵÂĵÂĵÂĵÂĵÂĵÂĵÂĵÂĵÂĵÂĵÂĵÂĵÂĵÂĵÂĵÂĵÂĵÂĵÂĵÂĵÂĵÂĵÂĵÂĵÂĵÂĵÂĵÂĵÂĵÂĵÂĵÂĵÂĵÂĵÂĵÂĵÂĵÂĵÂĵÂĵÂĵÂĵÂĵÂĵÂĵÂĵÂĵÂĵÂĵÂĵÂĵÂĵÂĵÂĵÂĵÂĵÂĵÂĵÂĵÂĵÂĵÂĵÂĵÂĵÂĵÂĵÂĵÂĵÂĵÂĵÂĵÂĵÂĵÂĵÂĵÂĵÂĵÂĵÂĵÂĵÂĵÂĵÂĵÂĵÂĵÂĵ"
      ],
      [
        "ÂĵÂĵÂĵÂĵÂĵÂĵÂĵÂĵÂĵÂĵÂĵÂĵÂĵÂĵÂĵÂĵÂĵÂĵÂĵÂĵÂĵÂĵÂĵÂĵÂĵÂĵÂĵÂĵÂĵÂĵÂĵÂĵÂĵÂĵÂĵÂĵÂĵÂĵÂĵÂĵÂĵÂĵÂĵÂĵÂĵÂĵÂĵÂĵÂĴÂĵÂĵÂĵÂĵÂĵÂĵÂĵÂĵÂĵÂĵÂĵÂĵÂĵÂĵÂĵÂĵÂĵÂĵÂĵÂĵÂĵÂĵÂĵÂĵÂĵÂĵÂĵÂĵÂĵÂĵÂĵÂĵÂĵÂĵÂĵÂĵÂĵÂĵÂĵÂĵÂĵÂĵÂĵÂĵÂĵÂĵÂĵÂĵÂĵÂĵÂĵÂĵÂĵÂĵÂĵÂĵÂĵÂĵÂĵÂĵÂĵÂĵÂĵÂĵÂĵÂĵÂĵÂĵ",
        "ÂĵÂĺÂĵÂĵÂĵÂĵÂĵÂĵÂĵ"
      ],
      [
        ".",
        "ĝ"
      ],
      [
        "Ē$",
        "Ę$$$$$$$"
      ],
      [
        "?Ē$",
        "/$#$$%#$"
      ],
      [
        ",",
        ","
      ],
      [
        "Ğ",
        "Ğ"
      ],
      [
        "ÂĶÂĳ",
        "ÂĵÂĵ"
      ],
      [
        "ě",
        "*$$$$$$"
      ],
      [
        "ÂĵÂĳ",
        "ÂķÂĵÂĵÂĵ"
      ],
      [
        "ÂĵÂĵÂĵÂĵÂĵÂĵÂĵÂĵÂĵÂĵÂĵÂĵ",
        "ÂĵÂį"
      ],
      [
        "=ĕ$",
        "/"
      ],
      [
        "%&",
        "%%%$"
      ],
      [
        "ÂĶ",
        "ÂĵÂĶÂĵÂĵ"
      ],
      [
        "\"",
        "*$$$$$$"
      ],
      [
        "=Ĕ$",
        ".$$$$$$$"
      ],
      [
        "ÂĵÂĵÂĵÂĵÂĵÂĵÂĵÂĵÂĵÂĵÂĵÂĵÂĵÂĵÂĵÂĵÂĵÂĵÂĵÂĵÂĵÂĵÂĵÂĵÂĵÂĵ",
        "ÂĵÂĲ"
      ],
      [
        "<ė",
        "&/"
      ],
      [
        "%'$'",
        "%$"
      ],
      [
        "ÂĵÂĴ",
        "ÂĴÂĵÂĵ"
      ],
      [
        "Ĝ",
        "\""
      ],
      [
        "ÂĵÂĴÂĶ",
        "Âĳ"
      ],
      [
        "($)",
        "!$"
      ],
      [
        "ę",
        "$&#"
      ],
      [
        ".",
        "="
      ],
      [
        "Ġ",
        "EA"
      ],
      [
        "Ġ",
        "ğ"
      ],
      [
        "?",
        "$"
      ],
      [
        "ÂĵÂĶ",
        "ÂĶÂĵÂĵ"
      ],
      [
        "ÂĵÂı",
        "ÂĴÂĲ"
      ],
      [
        "=Ė",
        "\"Ě$$$$$$$$ę"
      ],
      [
        "ĝ",
        "@:Ĕ$"
      ],
      [
        "Đ$",
        ",!$$$$$$"
      ],
      [
        "/",
        "#/ğ$"
      ],
      [
        "ÂĲ",
        "ÂĵÂĵÂĵÂĵÂĵÂĵÂĲ"
      ],
      [
        "ÂĵÂķ",
        "ÂĵÂĵÂĵÂĵÂĵÂĵÂĵÂĵÂĵÂĵÂĵÂĵÂĵÂĵÂĵÂĵÂĵÂĵÂĵÂĵÂĵÂĵÂĵÂĵÂĵÂĵÂĵÂĵÂĵÂĵÂĵÂĵÂĵÂĵÂĵÂĵÂĵÂĵÂĵÂĵÂĵÂĵÂĵÂĵÂĵÂĵÂĵÂĵÂĵÂĵÂĵÂĵÂĵÂĵÂĵÂĵÂĵÂĵÂĵÂĵÂĵÂĵÂĵÂĵÂĵÂĵÂĵÂĵÂĵÂĵ"
      ],
      [
        "ÂĸÂĳ",
        "ÂĵÂĵ"
      ],
      [
        "/",
        "$&&"
      ],
      [
        "Đ",
        "$$$$$$$"
      ],
      [
        "$&",
        "&$"
      ],
      [
        "'",
        "@:Ĕ$"
      ],
      [
        "ÂĵÂĲÂĴ",
        "ÂĵÂĵÂĵÂĵÂĵÂĵÂĵÂĵÂĵÂĵÂĵÂĵÂĵÂĵÂĵÂĵÂĵÂĵÂĵÂĵÂĵÂĵÂĵÂĵÂĵÂĵÂĵÂĵÂĵÂĵÂĵÂĵÂĵÂĵÂĵÂĵÂĵÂĵÂĵÂĵÂĵÂĵÂĵÂĵÂĵÂĵÂĵÂĵÂĵÂĵÂĵÂĵÂĵÂĵÂĵÂĵÂĵÂĵÂĵÂĵÂĵÂĵÂĵÂĵÂĵÂĵÂĵÂĵÂĵÂĵÂĵÂĵÂĵÂĵÂĵÂĵÂĵÂĵÂĵÂĵÂĵÂĵÂĵÂĵÂĵÂĵÂĵÂĵÂĵÂĵÂĵÂĵÂĵÂĵÂĵÂĵÂĵÂĵÂĵÂĵÂĵÂĵÂĵÂĵÂĵÂĵÂĵÂĵ"
      ],
      [
        "ÂĵÂĵÂĵÂĵÂĵÂĵÂĵÂĵÂĵÂĴÂĶ",
        "ÂĵÂĵÂĵÂĵÂĵÂĵÂĵÂĵÂĵÂĵÂĵÂĵÂĵÂĵÂĵÂĵÂĵÂĵÂĵÂĵÂĵÂĵÂĵÂĵÂĵÂĵÂĵÂĵÂĵÂĵÂĵÂĵÂĵÂĵÂĵÂĵÂĵÂĵÂĵÂĵÂĵÂĵÂĵÂĵÂĵÂĵÂĵÂĵÂĵÂĵÂĵÂĵÂĵÂĵÂĵÂĵÂĵÂĵÂĵÂĵÂĵÂĵÂĵÂĵÂĵÂĵÂĵÂĵÂĵÂĵÂĵÂĵÂĵÂĵÂĵÂĵÂĵÂĵÂĵÂĵÂĵÂĵÂĵÂĵÂĵÂĵÂĵÂĵÂĵÂĵÂĵÂĵÂĵÂĵÂĵÂĵÂĵÂĵÂĵÂĵÂĵÂĵÂĵÂĵÂĵÂĵÂĵÂĵ"
      ],
      [
        "+",
        "%$$%%$"
      ],
      [
        "ę",
        "$&!"
      ],
      [
        "ÂĵÂĶÂĶ",
        "ÂĵÂĴÂĵÂĵ"
      ],
      [
        "-#-",
        "ğ$"
      ],
      [
        ",$",
        "-"
      ],
      [
        "'",
        "%$$%%$"
      ],
      [
        "đ$",
        "/$$$$$$$"
      ],
      [
        "*$",
        "#$$%#$"
      ],
      [
        "ÂĵÂĵÂĵÂĵÂĵÂĵÂĵÂĵÂĵÂĵÂĵÂĵÂĵÂİÂĵÂĵÂĵÂĵÂĵÂĵÂĵÂĵÂĵÂĵÂĵÂĵÂĵÂĵÂĵÂĵÂĵÂĵÂĵÂĵÂĵÂĵÂĵÂĵÂĵÂĵÂĵÂĵÂĵÂĵÂĵÂĵÂĵÂĵÂĵÂĵÂĵÂĵÂĵÂĵ",
        "ÂĵÂķÂĵÂĵÂĵÂĵÂĵÂĵÂĵÂĵÂĵÂĵÂĵÂĵÂĵÂĵÂĵÂĵÂĵÂĵÂĵÂĵÂĵÂĵÂĵÂĵÂĵÂĵÂĵÂĵÂĵÂĵÂĵÂĵÂĵÂĵÂĵÂĵÂĵÂĵÂĵÂĵÂĵÂĵÂĵÂĵÂĵÂĵÂĵÂĵÂĵÂĵÂĵÂĵÂĵÂĵÂĵÂĵÂĵÂĵÂĵÂĵÂĵÂĵÂĵÂĵÂĵÂĵÂĵÂĵÂĵÂĵ"
      ],
      [
        "!'%%",
        "!$"
      ],
      [
        "/",
        "$&'"
      ],
      [
        "Ę$",
        ","
      ],
      [
        "-",
        "'%"
      ],
      [
        "@Ē$",
        "Ą$$$$$$$"
      ],
      [
        ".",
        "$&#"
      ],
      [
        "ė$",
        "("
      ],
      [
        ",",
        "&"
      ],
      [
        "Ę",
        "ğĚ"
      ],
      [
        ">ē$",
        "Ĝ"
      ],
      [
        "Ġ$",
        "%$$%%$"
      ],
      [
        "#)",
        "&$"
      ],
      [
        "?ē$",
        ","
      ],
      [
        ">ĕ$",
        "Ę"
      ],
      [
        "ÂĵÂĵÂĵÂĵÂĵÂĵÂĵÂĵÂĵÂĵÂĵÂĵÂĵÂĵÂĵÂĵÂĵÂĵÂĵÂĵÂĵÂĵÂĵÂĵÂĵÂĵÂĵÂĵÂĵÂĵÂĵÂĵÂĵÂĵÂĵÂĵÂĵÂĵÂĵÂĵÂĵÂĵÂĵÂĵÂĵÂĵÂĵÂĵÂĵÂĵÂĵÂĵÂĵÂĵÂĵÂĵÂĵÂĵÂĵÂĵÂĵÂĵÂĵÂĵÂĵÂĵÂĵÂĵÂĵÂĵÂĵÂĵÂĴ",
        "ÂĵÂĵÂĵÂĵÂĵÂĵÂĵÂĵÂĵÂĵÂĵÂĵÂĵÂĵÂĵÂĵÂĵÂĵÂĵÂĵÂĵÂĵÂĵÂĵÂĵÂĵÂĵÂĵÂĵÂĵÂĵÂĵÂĵÂĵÂĵÂĵÂĵÂĵÂĵÂĵÂĵÂĺÂĵÂĵÂĵÂĵÂĵÂĵÂĵ"
      ],
      [
        "\"",
        "'"
      ],
      [
        "$",
        ")"
      ],
      [
        "?ē$",
        "Ĝ"
      ],
      [
        ",",
        "$&$"
      ],
      [
        ":",
        "%"
      ],
      [
        "=",
        "đ"
      ],
      [
        "Đ$",
        "-"
      ],
      [
        "G",
        "G"
      ],
      [
        "/",
        "%$$%%$"
      ],
      [
        "ÂĶÂĴ",
        "ÂĵÂĵÂĵÂĵ"
      ],
      [
        "ÂĶÂĴ",
        "ÂĵÂĵÂĵÂĵÂĵÂĵÂĵÂĵ"
      ],
      [
        "=Ĕ",
        "!ę"
      ],
      [
        "$",
        "%%"
      ],
      [
        "ğ",
        "=/"
      ],
      [
        "\"",
        "&$%"
      ],
      [
        "+",
        "+"
      ],
      [
        "'",
        "*"
      ],
      [
        "Ę",
        ")."
      ],
      [
        "Ğ",
        "ĝ"
      ],
      [
        "$$$$$$$",
        "Ĝ"
      ],
      [
        "%&",
        ","
      ],
      [
        "(?",
        "/"
      ],
      [
        ">",
        "("
      ],
      [
        "ÂĵÂĶ",
        "ÂĵÂĵÂĵÂĵÂĵÂĵÂĵÂĵ"
      ],
      [
        "ÂĵÂķ",
        "ÂĵÂĵÂĵÂĵÂĵÂĵÂĵÂĵÂĵÂĵÂĵÂĵÂĵÂĵÂĵÂĵÂĵÂĵÂĵÂĵÂĵÂĵÂĵÂĵÂĵÂĵÂĵÂĵÂĵÂĵÂĵÂĵÂĵÂĵÂĵÂĵÂĵÂĵÂĵÂĵÂĵÂĵÂĵÂĵÂĵÂĵÂĵÂĵÂĵÂĵÂĵÂĵÂĵÂĵÂĵÂĵÂĵÂĵÂĵÂĵÂĵÂĵÂĵÂĵÂĵÂĵÂĵÂĵÂĵÂĵÂĵÂĵÂĵÂĵÂĵÂĵÂĵ"
      ],
      [
        "ÂĵÂĵÂĵÂĵÂĵÂĵÂĵÂĵÂĵÂĵÂĵÂĵÂĵÂĵÂĵÂĵÂĵÂĵÂĵÂĵÂĵÂĵÂĵÂĵÂĵÂĵÂĵÂĳ",
        "ÂĵÂĵÂĵÂĵÂĵÂĵÂĵÂĵÂĵÂĵÂĵÂĵÂĵÂĵÂĵÂĵÂĵÂĵÂĵÂĵÂĵÂĵÂĵÂĵÂĵÂĵÂĵÂĵÂĵÂĵÂĵÂĵÂĵÂĵÂĵÂĵÂĵÂĵÂĵÂĵÂĵÂĵÂĵÂĵÂĵÂĵÂĵÂĵÂĵÂĵÂĵÂĵÂĵÂĵÂĵÂĵÂĵÂĵÂĵÂĵÂĵÂĵÂĵÂĵÂĵÂĵÂĵÂĵÂĵÂĵÂĵÂĵÂĵÂĵÂĵÂĵÂĵÂĵÂĵÂĵ"
      ],
      [
        "ÂĵÂĵÂĵÂĵÂĵÂĵÂĵÂĵÂĵÂĵÂĵÂĵÂĵÂĵÂĵÂĵÂĵÂĵÂĵÂĵÂĵÂĵÂĵÂĵÂĵÂĵÂĵÂĵÂĵÂĵÂĵÂĵÂĵÂĵÂĵÂĵÂĵÂĵÂĵÂĵÂĵÂĵÂĵÂĵÂĵÂĵÂĵÂĵÂĵÂĵÂĵÂĵÂĵÂĵÂĵÂĵÂĵÂĵÂĵÂĵÂĵÂĵÂĵÂĵÂĵÂĵÂĵÂĵÂĵÂĵÂĵÂĵÂĵÂĵÂĵÂĵÂĵÂĵÂĵÂĵÂĵÂĵÂĵÂĵÂĵÂĵÂĵÂĵÂĵÂĵÂĵÂĵÂĵÂĵÂĵÂĵÂĵÂĵÂĵÂĵÂĵÂĵÂĵÂĵÂĵÂĵÂĵÂĵÂĵÂĵÂĵÂĵ",
        "ÂĴ"
      ],
      [
        "*<",
        "ě$"
      ],
      [
        "%.",
        ","
      ],
      [
        "$",
        "Ğ"
      ],
      [
        "6",
        "6"
      ],
      [
        "%%",
        "\"$"
      ],
      [
        "'",
        "#$$%#$"
      ],
      [
        "ÂĵÂĵÂĵÂĵÂĵÂĵÂİÂĵÂĵÂĵÂĵÂĵÂĵÂĵÂĵÂĵÂĵÂĵÂĵÂĵÂĵÂĵÂĵÂĵÂĵÂĵÂĵÂĵÂĵÂĵÂĵÂĵÂĵÂĵÂĵÂĵÂĵÂĵÂĵÂĵÂĵÂĵÂĵÂĵÂĵÂĵÂĵ",
        "ÂĵÂķÂĵÂĵÂĵÂĵÂĵÂĵÂĵÂĵÂĵÂĵÂĵÂĵÂĵÂĵÂĵÂĵÂĵÂĵÂĵÂĵÂĵÂĵÂĵÂĵÂĵÂĵÂĵÂĵÂĵÂĵÂĵÂĵÂĵÂĵÂĵÂĵÂĵÂĵÂĵÂĵÂĵÂĵÂĵÂĵÂĵÂĵÂĵÂĵÂĵÂĵÂĵÂĵÂĵÂĵÂĵÂĵÂĵÂĵÂĵÂĵÂĵÂĵÂĵÂĵÂĵÂĵÂĵÂĵÂĵÂĵÂĵÂĵÂĵÂĵÂĵÂĵÂĵ"
      ],
      [
        "$&",
        "=/"
      ],
      [
        "Ĝ",
        ";"
      ],
      [
        "%",
        "#$$%#$"
      ],
      [
        ".",
        "&"
      ],
      [
        "ÂĹ",
        "Âĵ"
      ],
      [
        "Ě",
        "="
      ],
      [
        "%*",
        ","
      ],
      [
        "&$",
        "(?-"
      ],
      [
        "%'",
        "%%%$"
      ],
      [
        "ÂĵÂĵÂĵÂĵÂĵÂĵÂĵÂĵÂĵÂĵÂĵÂĵÂĵÂĵÂĵÂĵÂĵÂĵÂĵÂĵÂĵÂĵÂĵÂĵÂĵÂĵÂĵÂĵÂĵÂĵÂĵÂĵÂĵÂĵÂĵÂĵÂĵÂĵÂĵÂĵÂĵÂĵÂĵÂĵÂĵÂĵÂĵÂĵÂĵÂĵÂĵÂĵÂĵÂĵÂĵÂĵÂĵÂĵÂĵÂĵÂĵÂĵÂĵÂĵÂĵÂĵÂĵÂĵÂĵÂĵÂĵÂĵÂĵÂĵÂĵÂĵÂĵÂĵÂĵÂĵÂĵÂĵÂĵÂĵÂĵÂĵÂĵÂĵÂĵÂĵÂĵÂĵÂĵÂĵÂĵÂĵÂĵÂĵÂĵÂĵÂĵÂĵÂĵÂĵÂĵÂĵÂĵÂĵÂĵÂĵÂĵÂĵÂĵÂĵÂĵÂĵÂĵÂĵÂĵÂĴ",
        "ÂĵÂĶÂĴ"
      ],
      [
        "/",
        "$&#"
      ],
      [
        "Ě",
        "$&#"
      ],
      [
        "ÂĴÂĶ",
        "Âĳ"
      ],
      [
        "ÂĵÂĵÂĵÂĵÂĵÂĵÂĵÂĴ",
        "ÂĵÂĴÂĵÂĴ"
      ],
      [
        "%(",
        ","
      ],
      [
        "/)$",
        "Ĝ!"
      ],
      [
        ".:Ĕ$$ÂĴÂĵÂĵÂĵÂĴÂĵÂĵÂĶÂĵÂĶ",
        "ÂĵÂĶÂĵÂĵÂĵÂĵÂĵÂĵÂĵÂĵÂĵÂĵÂĵÂĵÂĵÂĵÂĵÂĵÂĵÂĵÂĵÂĵÂĵÂĵÂĵÂĵÂĵÂĵÂĵÂĵÂĵÂĵÂĵÂĵÂĵÂĵÂĵÂĵÂĵÂĵÂĵÂĵÂĵÂĵÂĵÂĵÂĵÂĵÂĵÂĵÂĵÂĵÂĵÂĵÂĵÂĵÂĵÂĵÂĵÂĵÂĵÂĵÂĵÂĵÂĵÂĵÂĵÂĵÂĵÂĵÂĵÂĵÂĵÂĵÂĵÂĵÂĵÂĵÂĵÂĵÂĵÂĵÂĵÂĵÂĵÂĵÂĵÂĵÂĵÂĵÂĵÂĵÂĵÂĵÂĵÂĵÂĵÂĵÂĵÂĵÂĵÂĵÂĵÂĵÂĵÂĵÂĵÂĵÂĵÂĵÂĵÂĵÂĵÂĵÂĵÂĵ"
      ],
      [
        "&",
        "$&\"$"
      ],
      [
        "ÂĶ",
        "ÂĸÂĳÂĵÂĵ"
      ],
      [
        "ÂĵÂĶ",
        "ÂķÂĴ"
      ],
      [
        "Ė$$",
        "ÂĵÂĵÂĵÂĵÂĵÂĵÂĵÂĵÂĵÂĵÂĵÂĵÂĵÂĵÂĵÂĵÂĵÂĵÂĵÂĵÂĵÂĵÂĵÂĵÂĵÂĵÂĵÂĵÂĵÂĵÂĵÂĵÂĵÂĵÂĵÂĵÂĵÂĵÂĵÂĵÂĵÂĵÂĵÂĵÂĵÂĵÂĵÂĵÂĴÂĵÂĵÂĵÂĵÂĵÂĵÂĵÂĵÂĵÂĵÂĵÂĵÂĵÂĵÂĵÂĵÂĵÂĵÂĵÂĵÂĵÂĵÂĵÂĵÂĵÂĵÂĵÂĵÂĵÂĵÂĵÂĵÂĵÂĵÂĵÂĵÂĵÂĵÂĵÂĵÂĵÂĵÂĵÂĵÂĵÂĵÂĵÂĵÂĵÂĵÂĵÂĵÂĵÂĵÂĵÂĵÂĵÂĵÂĵÂĵÂĵÂĵÂĵÂĵÂĵÂĵÂĵÂĵÂĵÂĺÂĵÂĵÂĵÂĵÂĵÂĵÂĵ"
      ],
      [
        "ÂĵÂķ",
        "ÂĵÂĵÂĵÂĵÂĵÂĵÂĵÂĵÂĵÂĵÂĵÂĵÂĵÂĵÂĵÂĵÂĵÂĵÂĵÂĵÂĵÂĵÂĵÂĵÂĵÂĵÂĵÂĵÂĵÂĵÂĵÂĵÂĵÂĵÂĵÂĵÂĵÂĵÂĵÂĵÂĵÂĵÂĵÂĵÂĵÂĵÂĵÂĵÂĵÂĵÂĵÂĵÂĵÂĵÂĵÂĵÂĵÂĵÂĵÂĵÂĵÂĵÂĵÂĵÂĵÂĵÂĵÂĵÂĵÂĵÂĵÂĵÂĵÂĵÂĵÂĵÂĵÂĵÂĵÂĵÂĵÂĵÂĵÂĵÂĵÂĵÂĵÂĵÂĵÂĵÂĵÂĵÂĵÂĵÂĵÂĵÂĵÂĵÂĵÂĵÂĵÂĵÂĵÂĵÂĵÂĵÂĵÂĶÂĵÂĵÂĵÂĶÂĵÂĵ"
      ],
      [
        "%$%",
        "?)"
      ],
      [
        "ÂĵÂĶÂĵÂĵ",
        "ÂĵÂĶÂĵÂĵÂĵÂĵÂĵÂĵÂĵÂĵÂĵ"
      ],
      [
        "ÂĵÂĵÂĵÂĵÂĵÂĵÂĵÂĵÂĵÂĵÂĵÂĵÂĵÂĵÂĵÂĵÂĵÂĵÂĵÂĵÂĵÂĵÂĵÂĵÂĵÂĵÂĵÂĵÂĵÂĵÂĵÂĵÂĵÂĵÂĵÂĵÂĵÂĵÂĵÂĵÂĵÂĵÂĵÂĵÂĵÂĵÂĵÂĵÂĵÂĵÂĵÂĵÂĵÂĵÂĵÂĵÂĵÂĵÂĵÂĵÂĵÂĵÂĵÂĵÂĵÂĵÂĵÂĵÂĵÂĵÂĵÂĵÂĵÂĵÂĵÂĵÂĵÂĵÂĵÂĵÂĵÂĵÂĵÂĵÂĵÂĵÂĵÂĵÂĵÂĵÂĵÂĵÂĵÂĵÂĵÂĵÂĵÂĵÂĵÂĵÂĵÂĵÂĵÂĵÂĵÂĵÂĵÂĵÂĵÂĵ",
        "ÂĵÂķÂĵÂĵ"
      ],
      [
        "%$$",
        "ÂĵÂĵÂĵÂĵÂĵÂĵÂĵÂĶ"
      ],
      [
        "%$$",
        ">("
      ],
      [
        "Ě$$",
        "ÂĵÂĵÂĵÂĵÂĵÂĵÂĵÂĵÂĵÂĵÂĵÂĵÂĵÂĵÂĵÂĵÂĵÂĵÂĵÂĵÂĵÂĵÂĵÂĵÂĵÂĵÂĵÂĵÂĵÂĵÂĵÂĵÂĵÂĵÂĵÂĵÂĵÂĵÂĵÂĵÂĵÂĵÂĵÂĵÂĵÂĵÂĵÂĵÂĵÂĵÂĵÂĵÂĵÂĵÂĵÂĵÂĵÂĵÂĵÂĵÂĵÂĵÂĵÂĵÂĵÂĵÂĵÂĵÂĵÂĵÂĵÂĵÂĵÂĵÂĵÂĵÂĵÂĵÂĵÂĵÂĵÂĵÂĵÂĵÂĵÂĵÂĵÂĵÂĵÂĵÂĵÂĵÂĵÂĵÂĵÂĵÂĵÂĵÂĵÂĵÂĵÂĵÂĵÂĵÂĵÂĵÂĵÂĵÂĵÂĵÂĵÂĵÂĵÂĵÂĵÂĵÂĵÂĵÂĵÂĴÂĵÂĶÂĴ"
      ],
      [
        "%$#",
        "=':Ę$"
      ],
      [
        "%,",
        ","
      ],
      [
        "Ė$$ÂĵÂĵÂĵÂĵÂĵÂĵÂİ",
        "ÂĵÂĵÂĵÂĵÂĵÂĵÂĵÂĵÂĵÂĵÂĵÂĵÂĵÂĸÂĵÂĵÂĵÂĵÂĵÂĵÂĵÂĵÂĵÂĵÂĵÂĵÂĵÂĵÂĵÂĵÂĵÂĵÂĵÂĵÂĵÂĵÂĵÂĵÂĵÂĵÂĵÂĵÂĵÂĵÂĵÂĵÂĵÂĵÂĵÂĵÂĵÂĵÂĵÂĵÂĵÂĵÂĵÂĵÂĵÂĵÂĵÂĵÂĵÂĵÂĵÂĵÂĵÂĵÂĵÂĵÂĵÂĵÂĵÂĵÂĵÂĵÂĵÂĵÂĵÂĵÂĵÂĵÂĵÂĵÂĵÂĵÂĵÂĵÂĵÂĵÂĵÂĵÂĵÂĵÂĵÂĵÂĵÂĵÂĵÂĵÂĵÂĵÂĵÂĵ"
      ],
      [
        "Ė$$ÂĵÂĵÂĵÂĵÂĵÂĵÂĵÂĵÂĵÂĵÂĵÂĵÂĵÂĺ",
        "ÂĵÂĵÂĵÂĵÂĵÂĵÂĵÂĵÂĵÂĵÂĵÂĵÂĵÂĵÂĵÂĵÂĵÂĵÂĵÂĵÂĵÂĵÂĵÂĵÂĵÂĵÂĵÂĵÂĵÂĵÂĵÂĵÂĵÂĵÂĵÂĵÂĵÂĵÂĵÂĵÂĵÂĵÂĵÂĵÂĵÂĵÂĵÂĵÂĵÂĵÂĵÂĵÂĵÂĵÂĵÂĵÂĵÂĵÂĵÂĵÂĵÂĵÂĵÂĵÂĵÂĵÂĵÂĵÂĵÂĵÂĵÂĵÂĵÂĵÂĵÂĵÂĵÂĵÂĵÂĵÂĵÂĵÂĵÂĲÂĵÂĵÂĵÂĵÂĵÂĵÂĵÂĵÂĵÂĵÂĵÂĵÂĵÂĵÂĵÂĵÂĵÂĵÂĵÂĵÂĵÂĵÂĵÂĵÂĵÂĵÂĵÂĵ"
      ],
      [
        "ÂĵÂĴÂĶÂı",
        "ÂĵÂĵÂĵÂĵÂĵÂĵÂĵÂĵÂĵÂĵÂĵÂĵÂĵÂĵÂĵÂĵÂĵÂĵÂĵÂĵÂĵÂĵÂĵÂĵÂĵÂĵÂĵÂĵÂĵÂĵÂĵÂĵÂĵÂĵÂĵÂĵÂĵÂĵÂĵÂĵÂĵÂĵÂĵÂĵÂĵÂĵÂĵÂĵÂĵÂĵÂĵÂĵÂĵÂĵÂĵÂĵÂĵÂĵÂĵÂĵÂĵÂĵÂĵÂĵÂĵÂĵÂĵÂĵÂĵÂĵÂĵÂĵÂĵÂĵÂĵÂĵÂĵÂĵÂĵÂĵÂĵÂĵÂĵÂĵÂĵÂĵÂĵÂĵÂĵÂĵÂĵÂĵÂĵÂĵÂĵÂĵÂĵÂĵÂĵÂĵÂĵÂĵÂĵÂĵÂĵÂĵÂĵÂĵÂĵÂĵÂĵÂķÂĵÂĵ"
      ],
      [
        "ÂĵÂĵÂĵÂĵÂĵÂĵÂĵÂĴÂĵÂĴÂĵÂĴ",
        "ÂĵÂĵÂĵÂĵÂĵÂĵÂĵÂĵÂĵÂĵÂĵÂĵÂĵÂĵÂĵÂĵÂĵÂĵÂĵÂĵÂĵÂĵÂĵÂĵÂĵÂĵÂĵÂĵÂĵÂĵÂĵÂĵÂĵÂĵÂĵÂĵÂĵÂĵÂĵÂĵÂĵÂĵÂĵÂĵÂĵÂĵÂĵÂĵÂĵÂĵÂĵÂĵÂĵÂĵÂĵÂĵÂĵÂĵÂĵÂĵÂĵÂĵÂĵÂĵÂĵÂĵÂĵÂĵÂĵÂĵÂĵÂĵÂĵÂĵÂĵÂĵÂĵÂĵÂĵÂĵÂĵÂĵÂĵÂĵÂĵÂĵÂĵÂĵÂĵÂĵÂĵÂĵÂĵÂĵÂĵÂĵÂĵÂĵÂĵÂĵÂĵÂĵÂĵÂĵÂĵÂĵÂĵÂĵÂĵÂĵÂĵÂĵÂĵÂĵ"
      ],
      [
        "%$%?)",
        ":Ė$"
      ],
      [
        "%$$ÂĵÂĵÂĵÂĵÂĵÂĵÂĵÂĶ",
        "ÂĵÂĴÂĶÂıÂĵÂĵÂĵÂĵÂĵÂĵÂĵÂĵÂĵÂĵÂĵÂĵÂĵÂĵÂĵÂĵÂĵÂĵÂĵÂĵÂĵÂĵÂĵÂĵÂĵÂĵÂĵÂĵÂĵÂĵÂĵÂĵÂĵÂĵÂĵÂĵÂĵÂĵÂĵÂĵÂĵÂĵÂĵÂĵÂĵÂĵÂĵÂĵÂĵÂĵÂĵÂĵÂĵÂĵÂĵÂĵÂĵÂĵÂĵÂĵÂĵÂĵÂĵÂĵÂĵÂĵÂĵÂĵÂĵÂĵÂĵÂĵÂĵÂĵÂĵÂĵÂĵÂĵÂĵÂĵÂĵÂĵÂĵÂĵÂĵÂĵÂĵÂĵÂĵÂĵÂĵÂĵÂĵÂĵÂĵÂĵÂĵÂĵÂĵÂĵÂĵÂĵÂĵÂĵÂĵÂĵÂĵÂĵÂĵÂĵÂĵÂķÂĵÂĵ"
      ],
      [
        "%$$>(",
        ":ė$"
      ],
      [
        "Ě$$ÂĵÂĵÂĵÂĵÂĵÂĵÂĵÂĵÂĵÂĵÂĵÂĵÂĵÂĵÂĵÂĵÂĵÂĵÂĵÂĵÂĵÂĵÂĵÂĵÂĵÂĵÂĵÂĵÂĵÂĵÂĵÂĵÂĵÂĵÂĵÂĵÂĵÂĵÂĵÂĵÂĵÂĵÂĵÂĵÂĵÂĵÂĵÂĵÂĵÂĵÂĵÂĵÂĵÂĵÂĵÂĵÂĵÂĵÂĵÂĵÂĵÂĵÂĵÂĵÂĵÂĵÂĵÂĵÂĵÂĵÂĵÂĵÂĵÂĵÂĵÂĵÂĵÂĵÂĵÂĵÂĵÂĵÂĵÂĵÂĵÂĵÂĵÂĵÂĵÂĵÂĵÂĵÂĵÂĵÂĵÂĵÂĵÂĵÂĵÂĵÂĵÂĵÂĵÂĵÂĵÂĵÂĵÂĵÂĵÂĵÂĵÂĵÂĵÂĵÂĵÂĵÂĵÂĵÂĵÂĴÂĵÂĶÂĴ",
        "ÂĸÂĵÂĵ"
      ],
      [
        "Ė$$ÂĵÂĵÂĵÂĵÂĵÂĵÂİÂĵÂĵÂĵÂĵÂĵÂĵÂĵÂĵÂĵÂĵÂĵÂĵÂĵÂĸÂĵÂĵÂĵÂĵÂĵÂĵÂĵÂĵÂĵÂĵÂĵÂĵÂĵÂĵÂĵÂĵÂĵÂĵÂĵÂĵÂĵÂĵÂĵÂĵÂĵÂĵÂĵÂĵÂĵÂĵÂĵÂĵÂĵÂĵÂĵÂĵÂĵÂĵÂĵÂĵÂĵÂĵÂĵÂĵÂĵÂĵÂĵÂĵÂĵÂĵÂĵÂĵÂĵÂĵÂĵÂĵÂĵÂĵÂĵÂĵÂĵÂĵÂĵÂĵÂĵÂĵÂĵÂĵÂĵÂĵÂĵÂĵÂĵÂĵÂĵÂĵÂĵÂĵÂĵÂĵÂĵÂĵÂĵÂĵÂĵÂĵÂĵÂĵÂĵÂĵ",
        "ÂĵÂĶÂĵÂĵÂĵÂĶÂĵÂĵÂĵÂĵÂĵÂĵÂĵÂĵÂĵ"
      ],
      [
        "-",
        "\""
      ],
      [
        "?Ĕ",
        "&.$$$$$$$$."
      ],
      [
        ":ė$",
        "ę"
      ],
      [
        "$",
        ")&%"
      ],
      [
        "(",
        "$$$$$$$$"
      ],
      [
        "=ĕ$",
        "/$$$$$$$"
      ],
      [
        "ÂĵÂĸ",
        "ÂĶÂĵÂĵÂĵÂĵÂĵÂĵÂĵÂĵÂĵ"
      ],
      [
        "&.",
        "$$$$$$$$"
      ],
      [
        ">",
        "ē"
      ],
      [
        "ÂĵÂĻ",
        "ÂĵÂĵÂĵÂĵÂĵÂĵÂĵ"
      ],
      [
        "@Ē$",
        "-"
      ],
      [
        "$$\"",
        "=/"
      ],
      [
        "$$$$$$$/",
        ">"
      ],
      [
        "#",
        "$$$"
      ],
      [
        "(=",
        "-"
      ],
      [
        "ĕ$",
        "#"
      ],
      [
        "Ē$",
        "ă$$$$$$$"
      ],
      [
        "&%",
        "%$"
      ],
      [
        "(",
        "#"
      ],
      [
        "ę",
        "$&\""
      ],
      [
        ",",
        "$&'"
      ],
      [
        "<ĕ",
        "'/"
      ],
      [
        "ē$&",
        "!$$$$$$"
      ],
      [
        "ę",
        "@"
      ],
      [
        "ě",
        "$&#"
      ],
      [
        "Ĕ$",
        "ā$&?"
      ],
      [
        "$%%",
        "$$$"
      ],
      [
        "%$",
        "'>-"
      ],
      [
        "ÂĵÂĵÂĵÂĵÂķ",
        "ÂĵÂķ"
      ],
      [
        "+",
        "$$$$$$$$$$$$$"
      ],
      [
        "ď",
        "%"
      ],
      [
        "ę",
        "$&$"
      ],
      [
        "Ġ",
        "4"
      ],
      [
        "ď$",
        "Ĝ!$$$$$$"
      ],
      [
        "$$$$$$$ę",
        "@;Ė"
      ],
      [
        "Âı",
        "ÂĵÂĵÂĵÂĵÂĵÂĵÂĵÂĵ"
      ],
      [
        "#$$$",
        "#$"
      ],
      [
        "ė$",
        "Ĝ"
      ],
      [
        "$$$$$$$",
        "\"&"
      ],
      [
        "Ĕ$",
        "đ$"
      ],
      [
        "$$$$$$$ę",
        ":"
      ],
      [
        "$$$$$$$ę",
        ">"
      ],
      [
        "*<",
        ".$"
      ],
      [
        "=ĕ",
        "'/"
      ],
      [
        "Ě",
        "!"
      ],
      [
        "$$$$$$$",
        "!'%%!$"
      ],
      [
        ":&",
        "$$#<-"
      ],
      [
        "Âĸ",
        "ÂķÂĳ"
      ],
      [
        "ÂĵÂĵÂĵÂĵÂĵÂĵÂĵÂĵÂĵÂĵÂĵÂĵÂĵÂĵÂĵÂĵÂĵÂĵÂĵÂĵÂĵÂĵÂĵÂĵÂĵÂĵÂĵÂĵÂĵÂĵÂĵÂĵÂĵÂĵÂĵÂĵÂĵÂĵÂĵÂĵÂĵÂĵÂĵÂĵÂĵÂĵÂĵÂĵ",
        "Â¶ÂĵÂĵÂĵÂĵÂĵÂĵÂ¶"
      ],
      [
        "$$$$$$$$$$$$$$$$$$$$$$$$$$$$$$$$$$$$$$$$$$$$$$$$",
        "%$$$$$$%$$$$$$"
      ],
      [
        "$",
        "Ę"
      ],
      [
        "$$$$$$$",
        "Ğ*&%"
      ],
      [
        "$$$$$$$ě",
        "/)$Ĝ!"
      ],
      [
        "$$$$$$$$$$$$$$$$$$$$",
        "#$$$$$$#$$$$$$-$$$$$$-$$$$$$"
      ],
      [
        ";",
        "$$$$$$$"
      ],
      [
        "ÂĶÂĵÂĵ",
        "Âĳ"
      ],
      [
        ":&$%",
        "#;-"
      ],
      [
        ":&$'",
        "#;-"
      ],
      [
        ":&$-",
        "#;-"
      ],
      [
        ":&$/",
        "#;-"
      ],
      [
        "ę",
        "!"
      ],
      [
        "Ě",
        "$&$"
      ],
      [
        "&.",
        "*$$$$$$"
      ],
      [
        "ÂĵÂĸ",
        "ÂĵÂĵÂĵÂĵÂĵÂĵÂĵÂĵÂĵÂĵÂĵÂĵÂĵÂĵÂĵÂĵÂĵÂĵÂĵÂĵÂĵÂĵÂĵÂĵÂĵÂĵÂĵÂĵÂĵÂĵÂĵÂĵÂĵÂĵÂĵÂĵÂĵÂĵÂĵÂĵÂĵÂĵÂĵÂĵÂĵÂĵÂĵÂĵÂĵÂĵÂĵÂĵÂĵÂĵÂĵÂĵÂĵÂĵÂĵÂĵÂĵÂĵÂĵÂĵÂĵÂĵÂĵÂĵÂĵÂĵ"
      ],
      [
        "ÂĵÂĵÂĵÂĵÂĵÂĵÂĵÂĵÂĵÂĵÂĵÂĵÂĵÂİÂĵÂĵÂĵÂĵÂĵÂĵÂĵÂĵÂĵÂĵÂĵÂĵÂĵÂĵÂĵÂĵÂĵÂĵÂĵÂĵÂĵÂĵÂĵÂĵÂĵÂĵÂĵÂĵÂĵÂĵÂĵÂĵÂĵÂĵÂĵÂĵÂĵÂĵÂĵÂĵ",
        "ÂĵÂĸÂĵÂĵÂĵÂĵÂĵÂĵÂĵÂĵÂĵÂĵÂĵÂĵÂĵÂĵÂĵÂĵÂĵÂĵÂĵÂĵÂĵÂĵÂĵÂĵÂĵÂĵÂĵÂĵÂĵÂĵÂĵÂĵÂĵÂĵÂĵÂĵÂĵÂĵÂĵÂĵÂĵÂĵÂĵÂĵÂĵÂĵÂĵÂĵÂĵÂĵÂĵÂĵÂĵÂĵÂĵÂĵÂĵÂĵÂĵÂĵÂĵÂĵÂĵÂĵÂĵÂĵÂĵÂĵÂĵÂĵ"
      ],
      [
        "-",
        "$&&"
      ],
      [
        "!$",
        "%$$%%$"
      ],
      [
        ")",
        "*"
      ],
      [
        "+",
        "$&&"
      ],
      [
        "ğ",
        "!"
      ],
      [
        "Âķ",
        "ÂĶ"
      ],
      [
        "ÂĵÂĵÂĵÂĵÂĵÂĵÂ",
        "į"
      ],
      [
        "$'$'",
        "%$"
      ],
      [
        ">ē$.",
        "+"
      ],
      [
        ",",
        "$$$$$$$$$$$$$"
      ],
      [
        "Ĝ",
        "+-"
      ],
      [
        "&.$$$$$$$$",
        "-"
      ],
      [
        "-",
        "$$$$$$$$$$$$$"
      ],
      [
        "ÂĶÂĴ",
        "ÂĴÂĶ"
      ],
      [
        "ÂĵÂĶÂĴ",
        "ÂĹ"
      ],
      [
        ",",
        "$&#"
      ],
      [
        "/$",
        "ÂĵÂĵÂĵÂĵÂĵÂĵÂĵÂĴ"
      ],
      [
        "Ė#",
        "Ğ"
      ],
      [
        "/",
        "$$$$$$$$$$$$$"
      ],
      [
        "Ě",
        ";"
      ],
      [
        "Ě",
        ">"
      ],
      [
        "ÂĵÂĳ",
        "ÂĲÂķ"
      ],
      [
        ".",
        "$$$$$$$$$$$$$"
      ],
      [
        "Ę$",
        "'"
      ],
      [
        "ÂĵÂĶ",
        "ÂĵÂĵÂĵÂĵÂĵÂĵÂĵÂĵÂĵÂĵÂĵÂĵÂĵÂĵÂĵÂĵÂĵÂĵÂĵÂĵÂĵÂĵÂĵÂĵÂĵÂĵÂĵÂĵÂĵÂĵÂĵÂĵÂĵÂĵÂĵÂĵÂĵÂĵÂĵÂĵÂĵÂĵÂĵÂĵÂĵÂĵÂĵÂĵÂĵÂĵÂĵÂĵÂĵÂĵÂĵÂĵÂĵÂĵÂĵÂĵÂĵÂĵÂĵÂĵÂĵÂĵÂĵÂĵÂĵÂĵÂĵÂĵÂĵÂĵÂĵÂĵÂĵÂĵÂĵÂĵÂĵÂĵÂĵÂĵÂĵÂĵÂĵÂĵÂĵÂĵÂĵÂĵÂĵÂĵÂĵÂĵÂĵÂĵÂĵÂĵÂĵÂĵÂĵÂĵÂĵÂĵÂĵÂĵ"
      ],
      [
        "$$$$$$$ę",
        "<"
      ],
      [
        "ě",
        "$&!"
      ]
    ]
  }
}